{
  "version": "1.0",
  "truncation": null,
  "padding": null,
  "added_tokens": [
    {
      "id": 0,
      "content": "<s>",
      "single_word": false,
      "lstrip": false,
      "rstrip": false,
      "normalized": false,
      "special": true
    },
    {
      "id": 1,
      "content": "</s>",
      "single_word": false,
      "lstrip": false,
      "rstrip": false,
      "normalized": false,
      "special": true
    },
    {
      "id": 2,
      "content": "<pad>",
      "single_word": false,
      "lstrip": false,
      "rstrip": false,
      "normalized": false,
      "special": true
    },
    {
      "id": 3,
      "content": "<unk>",
      "single_word": false,
      "lstrip": false,
      "rstrip": false,
      "normalized": false,
      "special": true
    }
  ],
  "normalizer": null,
  "pre_tokenizer": {
    "type": "Whitespace"
  },
  "post_processor": null,
  "decoder": null,
  "model": {
    "type": "BPE",
    "dropout": null,
    "unk_token": "<unk>",
    "continuing_subword_prefix": null,
    "end_of_word_suffix": null,
    "fuse_unk": false,
    "byte_fallback": false,
    "ignore_merges": false,
    "vocab": {
      "<s>": 0,
      "</s>": 1,
      "<pad>": 2,
      "<unk>": 3,
      "!": 4,
      "\"": 5,
      "$": 6,
      "%": 7,
      "&": 8,
      "'": 9,
      "(": 10,
      ")": 11,
      "*": 12,
      "+": 13,
      ",": 14,
      "-": 15,
      ".": 16,
      "/": 17,
      "0": 18,
      "1": 19,
      "2": 20,
      "3": 21,
      "4": 22,
      "5": 23,
      "6": 24,
      "7": 25,
      "8": 26,
      "9": 27,
      ":": 28,
      ";": 29,
      "?": 30,
      "A": 31,
      "B": 32,
      "C": 33,
      "D": 34,
      "E": 35,
      "F": 36,
      "G": 37,
      "H": 38,
      "I": 39,
      "J": 40,
      "K": 41,
      "L": 42,
      "M": 43,
      "N": 44,
      "O": 45,
      "P": 46,
      "Q": 47,
      "R": 48,
      "S": 49,
      "T": 50,
      "U": 51,
      "V": 52,
      "W": 53,
      "X": 54,
      "Y": 55,
      "Z": 56,
      "[": 57,
      "]": 58,
      "_": 59,
      "`": 60,
      "a": 61,
      "b": 62,
      "c": 63,
      "d": 64,
      "e": 65,
      "f": 66,
      "g": 67,
      "h": 68,
      "i": 69,
      "j": 70,
      "k": 71,
      "l": 72,
      "m": 73,
      "n": 74,
      "o": 75,
      "p": 76,
      "q": 77,
      "r": 78,
      "s": 79,
      "t": 80,
      "u": 81,
      "v": 82,
      "w": 83,
      "x": 84,
      "y": 85,
      "z": 86,
      "£": 87,
      "°": 88,
      "Æ": 89,
      "à": 90,
      "â": 91,
      "ã": 92,
      "ä": 93,
      "æ": 94,
      "ç": 95,
      "è": 96,
      "é": 97,
      "ë": 98,
      "ï": 99,
      "ö": 100,
      "ü": 101,
      "–": 102,
      "—": 103,
      "‘": 104,
      "’": 105,
      "“": 106,
      "”": 107,
      "th": 108,
      "in": 109,
      "the": 110,
      "an": 111,
      "er": 112,
      "ou": 113,
      "ed": 114,
      "on": 115,
      "re": 116,
      "at": 117,
      "en": 118,
      "to": 119,
      "as": 120,
      "is": 121,
      "and": 122,
      "of": 123,
      "or": 124,
      "ar": 125,
      "ing": 126,
      "es": 127,
      "ll": 128,
      "it": 129,
      "he": 130,
      "se": 131,
      "ha": 132,
      "le": 133,
      "me": 134,
      "st": 135,
      "be": 136,
      "wh": 137,
      "no": 138,
      "ch": 139,
      "wi": 140,
      "was": 141,
      "ro": 142,
      "ce": 143,
      "id": 144,
      "ve": 145,
      "that": 146,
      "ent": 147,
      "ly": 148,
      "ld": 149,
      "ut": 150,
      "al": 151,
      "you": 152,
      "gh": 153,
      "ver": 154,
      "im": 155,
      "for": 156,
      "ad": 157,
      "with": 158,
      "ion": 159,
      "his": 160,
      "ay": 161,
      "ir": 162,
      "so": 163,
      "ow": 164,
      "li": 165,
      "ur": 166,
      "ter": 167,
      "had": 168,
      "ag": 169,
      "un": 170,
      "my": 171,
      "all": 172,
      "om": 173,
      "ri": 174,
      "her": 175,
      "ould": 176,
      "de": 177,
      "not": 178,
      "ght": 179,
      "sa": 180,
      ".\"": 181,
      "ac": 182,
      "we": 183,
      "ain": 184,
      "us": 185,
      "ke": 186,
      "ne": 187,
      "whi": 188,
      "out": 189,
      "ab": 190,
      "mo": 191,
      "il": 192,
      "our": 193,
      "him": 194,
      "lo": 195,
      "ere": 196,
      "up": 197,
      "con": 198,
      "ther": 199,
      "pe": 200,
      "fe": 201,
      "this": 202,
      "ic": 203,
      "which": 204,
      "by": 205,
      "am": 206,
      "ard": 207,
      "one": 208,
      "oun": 209,
      "sh": 210,
      "but": 211,
      "ap": 212,
      "ess": 213,
      "have": 214,
      "su": 215,
      "The": 216,
      "po": 217,
      "ct": 218,
      "rom": 219,
      ",\"": 220,
      "od": 221,
      "if": 222,
      "said": 223,
      "qu": 224,
      "co": 225,
      "go": 226,
      "--": 227,
      "et": 228,
      "res": 229,
      "ast": 230,
      "from": 231,
      "ill": 232,
      "were": 233,
      "ex": 234,
      "lf": 235,
      "man": 236,
      "very": 237,
      "art": 238,
      "she": 239,
      "ant": 240,
      "?\"": 241,
      "now": 242,
      "com": 243,
      "fo": 244,
      "are": 245,
      "est": 246,
      "per": 247,
      "te": 248,
      "ous": 249,
      "der": 250,
      "si": 251,
      "pl": 252,
      "they": 253,
      "ind": 254,
      "who": 255,
      "do": 256,
      "would": 257,
      "ound": 258,
      "ck": 259,
      "them": 260,
      "ust": 261,
      "ul": 262,
      "thing": 263,
      "tr": 264,
      "ation": 265,
      "end": 266,
      "could": 267,
      "ong": 268,
      "self": 269,
      "ca": 270,
      "ight": 271,
      "Ar": 272,
      "wor": 273,
      "ish": 274,
      "some": 275,
      "wo": 276,
      "ate": 277,
      "bo": 278,
      "ok": 279,
      "!\"": 280,
      "ti": 281,
      "way": 282,
      "see": 283,
      "pro": 284,
      "ge": 285,
      "ak": 286,
      "af": 287,
      "ven": 288,
      "ough": 289,
      "tho": 290,
      "will": 291,
      "ho": 292,
      "ist": 293,
      "their": 294,
      "tain": 295,
      "ass": 296,
      "there": 297,
      "your": 298,
      "ved": 299,
      "any": 300,
      "ence": 301,
      "able": 302,
      "ra": 303,
      "gre": 304,
      "been": 305,
      "other": 306,
      "But": 307,
      "what": 308,
      "agn": 309,
      "He": 310,
      "upon": 311,
      "ers": 312,
      "own": 313,
      "ance": 314,
      "more": 315,
      "fore": 316,
      "know": 317,
      "then": 318,
      "It": 319,
      "Art": 320,
      "agnan": 321,
      "ment": 322,
      "day": 323,
      "Artagnan": 324,
      "its": 325,
      "itt": 326,
      "pr": 327,
      "ive": 328,
      "Wh": 329,
      "op": 330,
      "ace": 331,
      "ake": 332,
      "Th": 333,
      "ure": 334,
      "when": 335,
      "med": 336,
      "into": 337,
      "part": 338,
      "urn": 339,
      "time": 340,
      "can": 341,
      "ret": 342,
      "rep": 343,
      "than": 344,
      "el": 345,
      "ought": 346,
      "ady": 347,
      "age": 348,
      "two": 349,
      "did": 350,
      "ade": 351,
      "ie": 352,
      "ble": 353,
      "um": 354,
      "thos": 355,
      "ide": 356,
      "ity": 357,
      "dis": 358,
      "ree": 359,
      "An": 360,
      "ach": 361,
      "here": 362,
      "hand": 363,
      "ward": 364,
      "ving": 365,
      "We": 366,
      "ack": 367,
      "ted": 368,
      "how": 369,
      "di": 370,
      "sp": 371,
      "pos": 372,
      "like": 373,
      "over": 374,
      "again": 375,
      "only": 376,
      "about": 377,
      "long": 378,
      "ep": 379,
      "ever": 380,
      "under": 381,
      "cl": 382,
      "great": 383,
      "Mr": 384,
      "gl": 385,
      "ried": 386,
      "ol": 387,
      "let": 388,
      "these": 389,
      "ine": 390,
      "went": 391,
      "ort": 392,
      "pres": 393,
      "gr": 394,
      "off": 395,
      "ated": 396,
      "str": 397,
      "ves": 398,
      "made": 399,
      "sto": 400,
      "wat": 401,
      "ser": 402,
      "after": 403,
      "bl": 404,
      "ite": 405,
      "br": 406,
      "ig": 407,
      "In": 408,
      "ear": 409,
      "ob": 410,
      "ans": 411,
      "should": 412,
      "ty": 413,
      "And": 414,
      "ittle": 415,
      "pp": 416,
      "every": 417,
      "use": 418,
      "fir": 419,
      "uch": 420,
      "little": 421,
      "ave": 422,
      "ions": 423,
      "comp": 424,
      "before": 425,
      "row": 426,
      "came": 427,
      "come": 428,
      "such": 429,
      "men": 430,
      "say": 431,
      "ally": 432,
      "fri": 433,
      "ious": 434,
      "ang": 435,
      "fa": 436,
      "ry": 437,
      "must": 438,
      "ink": 439,
      "well": 440,
      "most": 441,
      "has": 442,
      "mon": 443,
      "ice": 444,
      "You": 445,
      "ered": 446,
      "car": 447,
      "much": 448,
      "land": 449,
      "where": 450,
      "down": 451,
      "might": 452,
      "sha": 453,
      "red": 454,
      "clo": 455,
      "ked": 456,
      "anc": 457,
      "spe": 458,
      "even": 459,
      "ning": 460,
      "pt": 461,
      "pass": 462,
      "look": 463,
      "less": 464,
      "aptain": 465,
      "word": 466,
      "ful": 467,
      "lied": 468,
      "without": 469,
      "des": 470,
      "ise": 471,
      "No": 472,
      "ue": 473,
      "ten": 474,
      "ies": 475,
      "pear": 476,
      "good": 477,
      "thought": 478,
      "act": 479,
      "ey": 480,
      "ull": 481,
      "gg": 482,
      "ian": 483,
      "ness": 484,
      "first": 485,
      "ber": 486,
      "ud": 487,
      "found": 488,
      "ary": 489,
      "light": 490,
      "himself": 491,
      "replied": 492,
      "coun": 493,
      "Athos": 494,
      "sho": 495,
      "ft": 496,
      "llow": 497,
      "int": 498,
      "appear": 499,
      "never": 500,
      "led": 501,
      "just": 502,
      "being": 503,
      "new": 504,
      "ip": 505,
      "lin": 506,
      "What": 507,
      "la": 508,
      "min": 509,
      "ple": 510,
      "cle": 511,
      "king": 512,
      "aut": 513,
      "head": 514,
      "three": 515,
      "cur": 516,
      "bet": 517,
      "ened": 518,
      "ame": 519,
      "make": 520,
      "ng": 521,
      "fort": 522,
      "lie": 523,
      "friend": 524,
      "mer": 525,
      "nothing": 526,
      "vo": 527,
      "This": 528,
      "sur": 529,
      "sed": 530,
      "rem": 531,
      "back": 532,
      "get": 533,
      "took": 534,
      "think": 535,
      "ire": 536,
      "Tom": 537,
      "may": 538,
      "still": 539,
      "sie": 540,
      "inter": 541,
      "water": 542,
      "cont": 543,
      "cer": 544,
      "ily": 545,
      "beg": 546,
      "hour": 547,
      "ps": 548,
      "cre": 549,
      "hi": 550,
      "ord": 551,
      "sea": 552,
      "uck": 553,
      "too": 554,
      "thr": 555,
      "myself": 556,
      "place": 557,
      "sieur": 558,
      "arm": 559,
      "At": 560,
      "cried": 561,
      "wa": 562,
      "away": 563,
      "hun": 564,
      "left": 565,
      "air": 566,
      "don": 567,
      "fect": 568,
      "fl": 569,
      "sup": 570,
      "Mar": 571,
      "read": 572,
      "Yes": 573,
      "gu": 574,
      "tell": 575,
      "hor": 576,
      "last": 577,
      "shall": 578,
      "ark": 579,
      "pre": 580,
      "side": 581,
      "Elin": 582,
      "Elinor": 583,
      "Mil": 584,
      "set": 585,
      "nor": 586,
      "att": 587,
      "young": 588,
      "soon": 589,
      "sc": 590,
      "though": 591,
      "ste": 592,
      "Milady": 593,
      "saw": 594,
      "mom": 595,
      "sm": 596,
      "vent": 597,
      "moment": 598,
      "mor": 599,
      "lt": 600,
      "ced": 601,
      "night": 602,
      "Well": 603,
      "while": 604,
      "through": 605,
      "Fo": 606,
      "ect": 607,
      "ot": 608,
      "cond": 609,
      "ied": 610,
      "eng": 611,
      "ship": 612,
      "turn": 613,
      "bro": 614,
      "take": 615,
      "ters": 616,
      "ished": 617,
      "return": 618,
      "Naut": 619,
      "ilus": 620,
      "sure": 621,
      "those": 622,
      "Ne": 623,
      "Nautilus": 624,
      "ase": 625,
      "eyes": 626,
      "happ": 627,
      "aking": 628,
      "call": 629,
      "em": 630,
      "That": 631,
      "fer": 632,
      "inal": 633,
      "pect": 634,
      "ren": 635,
      "put": 636,
      "Fogg": 637,
      "cour": 638,
      "tim": 639,
      "mis": 640,
      "She": 641,
      "dist": 642,
      "want": 643,
      "ash": 644,
      "same": 645,
      "They": 646,
      "wom": 647,
      "full": 648,
      "bod": 649,
      "face": 650,
      "heart": 651,
      "Mrs": 652,
      "dou": 653,
      "door": 654,
      "far": 655,
      "tre": 656,
      "right": 657,
      "going": 658,
      "ks": 659,
      "ting": 660,
      "ouse": 661,
      "Then": 662,
      "belie": 663,
      "There": 664,
      "aster": 665,
      "My": 666,
      "sol": 667,
      "Mon": 668,
      "form": 669,
      "four": 670,
      "ianne": 671,
      "Marianne": 672,
      "wood": 673,
      "card": 674,
      "cause": 675,
      "Por": 676,
      "gn": 677,
      "iz": 678,
      "Porthos": 679,
      "got": 680,
      "Captain": 681,
      "Con": 682,
      "low": 683,
      "ready": 684,
      "icul": 685,
      "ways": 686,
      "ath": 687,
      "gi": 688,
      "ition": 689,
      "ham": 690,
      "cr": 691,
      "ged": 692,
      "oc": 693,
      "wind": 694,
      "stand": 695,
      "sel": 696,
      "son": 697,
      "bre": 698,
      "order": 699,
      "av": 700,
      "So": 701,
      "nat": 702,
      "half": 703,
      "les": 704,
      "ently": 705,
      "00": 706,
      "body": 707,
      "yet": 708,
      "follow": 709,
      "sible": 710,
      "give": 711,
      "asked": 712,
      "began": 713,
      "near": 714,
      "lay": 715,
      "As": 716,
      "sing": 717,
      "cess": 718,
      "ick": 719,
      "mar": 720,
      "imp": 721,
      "ts": 722,
      "cardinal": 723,
      "add": 724,
      "amis": 725,
      "house": 726,
      "seemed": 727,
      "contin": 728,
      "Oh": 729,
      "ject": 730,
      "ings": 731,
      "tor": 732,
      "boat": 733,
      "cover": 734,
      "find": 735,
      "gen": 736,
      "Aramis": 737,
      "ner": 738,
      "mind": 739,
      "certain": 740,
      "life": 741,
      "vill": 742,
      "rest": 743,
      "atter": 744,
      "ars": 745,
      "woman": 746,
      "told": 747,
      "times": 748,
      "year": 749,
      "heard": 750,
      "tem": 751,
      "cei": 752,
      "cor": 753,
      "ating": 754,
      "En": 755,
      "appeared": 756,
      "many": 757,
      "bed": 758,
      "toward": 759,
      "jo": 760,
      "ix": 761,
      "gent": 762,
      "world": 763,
      "ither": 764,
      "ped": 765,
      "enough": 766,
      "whom": 767,
      "vis": 768,
      "Nemo": 769,
      "having": 770,
      "few": 771,
      "du": 772,
      "sat": 773,
      "ween": 774,
      "den": 775,
      "once": 776,
      "another": 777,
      "doub": 778,
      "tal": 779,
      "open": 780,
      "itu": 781,
      "Conse": 782,
      "captain": 783,
      "days": 784,
      "ci": 785,
      "ef": 786,
      "ned": 787,
      "Fr": 788,
      "won": 789,
      "eas": 790,
      "gave": 791,
      "against": 792,
      "Monsieur": 793,
      "between": 794,
      "kind": 795,
      "ange": 796,
      "ited": 797,
      "Engl": 798,
      "ched": 799,
      "old": 800,
      "ele": 801,
      "cons": 802,
      "ately": 803,
      "pped": 804,
      "Conseil": 805,
      "ations": 806,
      "ith": 807,
      "master": 808,
      "ux": 809,
      "asse": 810,
      "serv": 811,
      "sin": 812,
      "Ned": 813,
      "hands": 814,
      "answ": 815,
      "sub": 816,
      "point": 817,
      "fin": 818,
      "knew": 819,
      "try": 820,
      "gentle": 821,
      "dred": 822,
      "ru": 823,
      "ofess": 824,
      "always": 825,
      "done": 826,
      "least": 827,
      "however": 828,
      "val": 829,
      "ared": 830,
      "cut": 831,
      "dif": 832,
      "sis": 833,
      "oud": 834,
      "ction": 835,
      "words": 836,
      "sil": 837,
      "ended": 838,
      "hundred": 839,
      "uncle": 840,
      "vi": 841,
      "haps": 842,
      "till": 843,
      "stant": 844,
      "sion": 845,
      "aken": 846,
      "used": 847,
      "ained": 848,
      "room": 849,
      "comm": 850,
      "How": 851,
      "morning": 852,
      "deed": 853,
      "pow": 854,
      "continu": 855,
      "ton": 856,
      "ised": 857,
      "seen": 858,
      "stre": 859,
      "shore": 860,
      "ref": 861,
      "passed": 862,
      "name": 863,
      "pleas": 864,
      "possible": 865,
      "ush": 866,
      "God": 867,
      "ros": 868,
      "looked": 869,
      "Passe": 870,
      "each": 871,
      "partout": 872,
      "Passepartout": 873,
      "cent": 874,
      "herself": 875,
      "ason": 876,
      "ceived": 877,
      "whose": 878,
      "five": 879,
      "boy": 880,
      "ile": 881,
      "Jo": 882,
      "ph": 883,
      "xt": 884,
      "iness": 885,
      "believe": 886,
      "reach": 887,
      "ff": 888,
      "que": 889,
      "If": 890,
      "aw": 891,
      "round": 892,
      "cal": 893,
      "--\"": 894,
      "wr": 895,
      "conf": 896,
      "wenty": 897,
      "felt": 898,
      "ofessor": 899,
      "next": 900,
      "brought": 901,
      "au": 902,
      "sou": 903,
      "feel": 904,
      "because": 905,
      "His": 906,
      "stood": 907,
      "doubt": 908,
      "ides": 909,
      "uske": 910,
      "bar": 911,
      "When": 912,
      "clock": 913,
      "spo": 914,
      "quest": 915,
      "friends": 916,
      "run": 917,
      "ond": 918,
      "high": 919,
      "ank": 920,
      "quite": 921,
      "On": 922,
      "cy": 923,
      "ures": 924,
      "sign": 925,
      "work": 926,
      "hard": 927,
      "ville": 928,
      "vid": 929,
      "feet": 930,
      "whole": 931,
      "minut": 932,
      "twenty": 933,
      "ress": 934,
      "things": 935,
      "island": 936,
      "adv": 937,
      "reg": 938,
      "six": 939,
      "hours": 940,
      "sk": 941,
      "hear": 942,
      "Be": 943,
      "cri": 944,
      "dep": 945,
      "compan": 946,
      "Bon": 947,
      "ieux": 948,
      "dear": 949,
      "step": 950,
      "plac": 951,
      "lar": 952,
      "poor": 953,
      "fortun": 954,
      "voice": 955,
      "Now": 956,
      "sen": 957,
      "acieux": 958,
      "abo": 959,
      "called": 960,
      "Bonacieux": 961,
      "dre": 962,
      "rel": 963,
      "selves": 964,
      "leave": 965,
      "fam": 966,
      "cap": 967,
      "vers": 968,
      "sent": 969,
      "ured": 970,
      "mother": 971,
      "port": 972,
      "iss": 973,
      "arri": 974,
      "dire": 975,
      "ier": 976,
      "anger": 977,
      "almost": 978,
      "something": 979,
      "hon": 980,
      "pose": 981,
      "letter": 982,
      "evening": 983,
      "Lord": 984,
      "Tre": 985,
      "pur": 986,
      "par": 987,
      "ER": 988,
      "ms": 989,
      "tri": 990,
      "wall": 991,
      "ling": 992,
      "wn": 993,
      "love": 994,
      "cho": 995,
      "hu": 996,
      "ined": 997,
      "ired": 998,
      "ail": 999,
      "tion": 1000,
      "lic": 1001,
      "expect": 1002,
      "Treville": 1003,
      "Is": 1004,
      "perhaps": 1005,
      "ousand": 1006,
      "cir": 1007,
      "owed": 1008,
      "gether": 1009,
      "since": 1010,
      "consid": 1011,
      "Pr": 1012,
      "ient": 1013,
      "together": 1014,
      "acc": 1015,
      "thousand": 1016,
      "fish": 1017,
      "ison": 1018,
      "keep": 1019,
      "board": 1020,
      "small": 1021,
      "pa": 1022,
      "present": 1023,
      "covered": 1024,
      "sister": 1025,
      "ual": 1026,
      "fast": 1027,
      "speak": 1028,
      "gone": 1029,
      "mist": 1030,
      "lost": 1031,
      "Land": 1032,
      "indeed": 1033,
      "reason": 1034,
      "fell": 1035,
      "course": 1036,
      "home": 1037,
      "hope": 1038,
      "wish": 1039,
      "rather": 1040,
      "better": 1041,
      "fall": 1042,
      "char": 1043,
      "unt": 1044,
      "fair": 1045,
      "obser": 1046,
      "To": 1047,
      "care": 1048,
      "uring": 1049,
      "person": 1050,
      "Muske": 1051,
      "Muskete": 1052,
      "iles": 1053,
      "fre": 1054,
      "ild": 1055,
      "mid": 1056,
      "ery": 1057,
      "along": 1058,
      "kept": 1059,
      "fully": 1060,
      "hel": 1061,
      "cted": 1062,
      "sever": 1063,
      "als": 1064,
      "Will": 1065,
      "dev": 1066,
      "continued": 1067,
      "pen": 1068,
      "pret": 1069,
      "ater": 1070,
      "exce": 1071,
      "medi": 1072,
      "eight": 1073,
      "already": 1074,
      "All": 1075,
      "Can": 1076,
      "kill": 1077,
      "thir": 1078,
      "entered": 1079,
      "known": 1080,
      "ground": 1081,
      "instant": 1082,
      "ople": 1083,
      "az": 1084,
      "pie": 1085,
      "power": 1086,
      "TH": 1087,
      "does": 1088,
      "gener": 1089,
      "hind": 1090,
      "sir": 1091,
      "rock": 1092,
      "ical": 1093,
      "ene": 1094,
      "Why": 1095,
      "cas": 1096,
      "ces": 1097,
      "Dash": 1098,
      "wait": 1099,
      "given": 1100,
      "Dashwood": 1101,
      "ths": 1102,
      "sec": 1103,
      "ific": 1104,
      "dark": 1105,
      "taken": 1106,
      "anything": 1107,
      "ments": 1108,
      "ances": 1109,
      "both": 1110,
      "wal": 1111,
      "plain": 1112,
      "stru": 1113,
      "years": 1114,
      "che": 1115,
      "dra": 1116,
      "resol": 1117,
      "behind": 1118,
      "fear": 1119,
      "Fel": 1120,
      "iet": 1121,
      "monsieur": 1122,
      "Felton": 1123,
      "ses": 1124,
      "For": 1125,
      "ls": 1126,
      "Ed": 1127,
      "anim": 1128,
      "count": 1129,
      "within": 1130,
      "short": 1131,
      "coming": 1132,
      "returned": 1133,
      "ran": 1134,
      "sail": 1135,
      "people": 1136,
      "English": 1137,
      "Huck": 1138,
      "need": 1139,
      "itude": 1140,
      "Professor": 1141,
      "dr": 1142,
      "whe": 1143,
      "foot": 1144,
      "therefore": 1145,
      "har": 1146,
      "ards": 1147,
      "perfect": 1148,
      "prom": 1149,
      "ature": 1150,
      "mem": 1151,
      "mean": 1152,
      "surpr": 1153,
      "Edward": 1154,
      "ably": 1155,
      "Pl": 1156,
      "bus": 1157,
      "degre": 1158,
      "col": 1159,
      "large": 1160,
      "fire": 1161,
      "pri": 1162,
      "hold": 1163,
      "followed": 1164,
      "bit": 1165,
      "fact": 1166,
      "pic": 1167,
      "ins": 1168,
      "ese": 1169,
      "also": 1170,
      "wonder": 1171,
      "aim": 1172,
      "sle": 1173,
      "alone": 1174,
      "posed": 1175,
      "ster": 1176,
      "immedi": 1177,
      "ages": 1178,
      "cannot": 1179,
      "longer": 1180,
      "Ah": 1181,
      "ience": 1182,
      "around": 1183,
      "formed": 1184,
      "case": 1185,
      "second": 1186,
      "horse": 1187,
      "adame": 1188,
      "sight": 1189,
      "above": 1190,
      "start": 1191,
      "minutes": 1192,
      "surface": 1193,
      "circ": 1194,
      "satis": 1195,
      "road": 1196,
      "particul": 1197,
      "turned": 1198,
      "ney": 1199,
      "quar": 1200,
      "queen": 1201,
      "vol": 1202,
      "resu": 1203,
      "Miss": 1204,
      "ket": 1205,
      "equ": 1206,
      "ris": 1207,
      "aj": 1208,
      "sun": 1209,
      "thus": 1210,
      "ask": 1211,
      "ather": 1212,
      "matter": 1213,
      "ken": 1214,
      "esides": 1215,
      "joy": 1216,
      "bur": 1217,
      "carried": 1218,
      "Fix": 1219,
      "cros": 1220,
      "nings": 1221,
      "diff": 1222,
      "expres": 1223,
      "country": 1224,
      "window": 1225,
      "miles": 1226,
      "among": 1227,
      "CH": 1228,
      "bu": 1229,
      "cha": 1230,
      "gra": 1231,
      "really": 1232,
      "appro": 1233,
      "comfort": 1234,
      "interest": 1235,
      "meters": 1236,
      "ches": 1237,
      "enter": 1238,
      "swe": 1239,
      "dead": 1240,
      "Jen": 1241,
      "fur": 1242,
      "arms": 1243,
      "Jennings": 1244,
      "necess": 1245,
      "themselves": 1246,
      "Af": 1247,
      "flo": 1248,
      "moun": 1249,
      "leas": 1250,
      "consider": 1251,
      "Canad": 1252,
      "sus": 1253,
      "ric": 1254,
      "suc": 1255,
      "Frid": 1256,
      "several": 1257,
      "sound": 1258,
      "ants": 1259,
      "St": 1260,
      "cast": 1261,
      "cean": 1262,
      "prison": 1263,
      "understand": 1264,
      "Canadian": 1265,
      "making": 1266,
      "strong": 1267,
      "brother": 1268,
      "ub": 1269,
      "reco": 1270,
      "key": 1271,
      "question": 1272,
      "After": 1273,
      "Do": 1274,
      "aring": 1275,
      "account": 1276,
      "steam": 1277,
      "immediately": 1278,
      "particular": 1279,
      "Phi": 1280,
      "blo": 1281,
      "yes": 1282,
      "lly": 1283,
      "opened": 1284,
      "answered": 1285,
      "true": 1286,
      "ign": 1287,
      "het": 1288,
      "claim": 1289,
      "happy": 1290,
      "means": 1291,
      "spir": 1292,
      "rown": 1293,
      "fr": 1294,
      "reck": 1295,
      "ens": 1296,
      "adm": 1297,
      "worth": 1298,
      "affect": 1299,
      "speed": 1300,
      "secret": 1301,
      "bey": 1302,
      "everything": 1303,
      "waves": 1304,
      "difficul": 1305,
      "By": 1306,
      "Col": 1307,
      "Sir": 1308,
      "dri": 1309,
      "taking": 1310,
      "ors": 1311,
      "others": 1312,
      "earth": 1313,
      "break": 1314,
      "Phileas": 1315,
      "Mme": 1316,
      "war": 1317,
      "remem": 1318,
      "imag": 1319,
      "bring": 1320,
      "wel": 1321,
      "play": 1322,
      "seeing": 1323,
      "oughby": 1324,
      "iously": 1325,
      "Willoughby": 1326,
      "Here": 1327,
      "list": 1328,
      "bot": 1329,
      "Joh": 1330,
      "acqu": 1331,
      "iled": 1332,
      "lad": 1333,
      "andon": 1334,
      "often": 1335,
      "stay": 1336,
      "didn": 1337,
      "anchet": 1338,
      "Planchet": 1339,
      "vie": 1340,
      "why": 1341,
      "past": 1342,
      "terri": 1343,
      "onel": 1344,
      "Friday": 1345,
      "view": 1346,
      "dro": 1347,
      "hur": 1348,
      "mur": 1349,
      "table": 1350,
      "ones": 1351,
      "repe": 1352,
      "fellow": 1353,
      "trave": 1354,
      "tom": 1355,
      "town": 1356,
      "became": 1357,
      "refle": 1358,
      "placed": 1359,
      "whether": 1360,
      "John": 1361,
      "Br": 1362,
      "wife": 1363,
      "comple": 1364,
      "close": 1365,
      "natur": 1366,
      "gentleman": 1367,
      "fif": 1368,
      "riage": 1369,
      "tered": 1370,
      "offic": 1371,
      "stopped": 1372,
      "clear": 1373,
      "Co": 1374,
      "Go": 1375,
      "best": 1376,
      "waters": 1377,
      "lau": 1378,
      "emp": 1379,
      "wanted": 1380,
      "TER": 1381,
      "outh": 1382,
      "position": 1383,
      "easy": 1384,
      "circum": 1385,
      "With": 1386,
      "either": 1387,
      "spr": 1388,
      "reat": 1389,
      "igh": 1390,
      "jour": 1391,
      "jud": 1392,
      "num": 1393,
      "pain": 1394,
      "white": 1395,
      "yourself": 1396,
      "object": 1397,
      "laugh": 1398,
      "Gu": 1399,
      "eat": 1400,
      "manner": 1401,
      "ized": 1402,
      "sum": 1403,
      "ief": 1404,
      "ues": 1405,
      "held": 1406,
      "ention": 1407,
      "answer": 1408,
      "AP": 1409,
      "Par": 1410,
      "black": 1411,
      "reached": 1412,
      "sor": 1413,
      "ann": 1414,
      "oney": 1415,
      "fright": 1416,
      "pretty": 1417,
      "wound": 1418,
      "degrees": 1419,
      "Colonel": 1420,
      "ial": 1421,
      "Indi": 1422,
      "thoughts": 1423,
      "Lu": 1424,
      "ocean": 1425,
      "err": 1426,
      "obli": 1427,
      "father": 1428,
      "remain": 1429,
      "danger": 1430,
      "wise": 1431,
      "ided": 1432,
      "conv": 1433,
      "remained": 1434,
      "draw": 1435,
      "pan": 1436,
      "ates": 1437,
      "aged": 1438,
      "move": 1439,
      "real": 1440,
      "child": 1441,
      "looking": 1442,
      "nature": 1443,
      "cham": 1444,
      "scar": 1445,
      "ingly": 1446,
      "deep": 1447,
      "added": 1448,
      "live": 1449,
      "ility": 1450,
      "suff": 1451,
      "Po": 1452,
      "lear": 1453,
      "ents": 1454,
      "iron": 1455,
      "gentlemen": 1456,
      "lea": 1457,
      "else": 1458,
      "silence": 1459,
      "beaut": 1460,
      "ching": 1461,
      "ceed": 1462,
      "neither": 1463,
      "host": 1464,
      "fav": 1465,
      "human": 1466,
      ".--": 1467,
      "Gr": 1468,
      "ma": 1469,
      "received": 1470,
      "chief": 1471,
      "towards": 1472,
      "Lucy": 1473,
      "Lon": 1474,
      "bra": 1475,
      "rid": 1476,
      "met": 1477,
      "London": 1478,
      "gall": 1479,
      "lady": 1480,
      "money": 1481,
      "death": 1482,
      "glass": 1483,
      "Musketeers": 1484,
      "circumst": 1485,
      "ination": 1486,
      "ased": 1487,
      "quick": 1488,
      "cked": 1489,
      "company": 1490,
      "arrived": 1491,
      "business": 1492,
      "journey": 1493,
      "sl": 1494,
      "coast": 1495,
      "aston": 1496,
      "distance": 1497,
      "band": 1498,
      "dden": 1499,
      "aces": 1500,
      "cold": 1501,
      "exam": 1502,
      "esty": 1503,
      "ending": 1504,
      "itted": 1505,
      "supp": 1506,
      "effect": 1507,
      "sleep": 1508,
      "leng": 1509,
      "leag": 1510,
      "anged": 1511,
      "drew": 1512,
      "devil": 1513,
      "sudden": 1514,
      "ext": 1515,
      "eye": 1516,
      "talk": 1517,
      "ushed": 1518,
      "CHAP": 1519,
      "CHAPTER": 1520,
      "aven": 1521,
      "during": 1522,
      "wha": 1523,
      "exc": 1524,
      "approach": 1525,
      "cat": 1526,
      "ying": 1527,
      "inted": 1528,
      "safe": 1529,
      "teen": 1530,
      "sometimes": 1531,
      "strange": 1532,
      "calm": 1533,
      "help": 1534,
      "ger": 1535,
      "rap": 1536,
      "inv": 1537,
      "dec": 1538,
      "England": 1539,
      "arr": 1540,
      "forward": 1541,
      "deli": 1542,
      "direct": 1543,
      "observed": 1544,
      "isto": 1545,
      "motion": 1546,
      "000": 1547,
      "certainly": 1548,
      "fortune": 1549,
      "family": 1550,
      "satisf": 1551,
      "anx": 1552,
      "itself": 1553,
      "log": 1554,
      "These": 1555,
      "gun": 1556,
      "sim": 1557,
      "sav": 1558,
      "contr": 1559,
      "respect": 1560,
      "tempt": 1561,
      "differ": 1562,
      "steps": 1563,
      "fine": 1564,
      "sword": 1565,
      "chance": 1566,
      "affair": 1567,
      "carry": 1568,
      "occas": 1569,
      "resolved": 1570,
      "Let": 1571,
      "heav": 1572,
      "concer": 1573,
      "antic": 1574,
      "cape": 1575,
      "subject": 1576,
      "chamber": 1577,
      "glo": 1578,
      "pound": 1579,
      "usual": 1580,
      "akes": 1581,
      "idea": 1582,
      "stead": 1583,
      "viol": 1584,
      "command": 1585,
      "acquain": 1586,
      "Com": 1587,
      "shad": 1588,
      "meet": 1589,
      "bear": 1590,
      "entire": 1591,
      "plan": 1592,
      "appearance": 1593,
      "gir": 1594,
      "ze": 1595,
      "ities": 1596,
      "roll": 1597,
      "ucking": 1598,
      "..": 1599,
      "Hans": 1600,
      "dread": 1601,
      "sal": 1602,
      "ager": 1603,
      "tru": 1604,
      "cry": 1605,
      "tried": 1606,
      "convers": 1607,
      "trou": 1608,
      "train": 1609,
      "THE": 1610,
      "natural": 1611,
      "Bucking": 1612,
      "Maj": 1613,
      "Winter": 1614,
      "cu": 1615,
      "cab": 1616,
      "ute": 1617,
      "impossible": 1618,
      "condu": 1619,
      "perfectly": 1620,
      "Buckingham": 1621,
      "!--": 1622,
      "hat": 1623,
      "tained": 1624,
      "companions": 1625,
      "piece": 1626,
      "ni": 1627,
      "vel": 1628,
      "termin": 1629,
      "conce": 1630,
      "ular": 1631,
      "necessary": 1632,
      "conversation": 1633,
      "mine": 1634,
      "pisto": 1635,
      "inc": 1636,
      "servant": 1637,
      "boys": 1638,
      "until": 1639,
      "length": 1640,
      "bly": 1641,
      "dest": 1642,
      "wished": 1643,
      "become": 1644,
      "pleasure": 1645,
      "honor": 1646,
      "bor": 1647,
      "ible": 1648,
      "sort": 1649,
      "incre": 1650,
      "seas": 1651,
      "change": 1652,
      "rose": 1653,
      "aled": 1654,
      "deal": 1655,
      "moved": 1656,
      "amp": 1657,
      "app": 1658,
      "spec": 1659,
      "happened": 1660,
      "Joe": 1661,
      "One": 1662,
      "ining": 1663,
      "seven": 1664,
      "rope": 1665,
      "tra": 1666,
      "ield": 1667,
      "hardly": 1668,
      "bad": 1669,
      "mes": 1670,
      "pap": 1671,
      "stri": 1672,
      "book": 1673,
      "produ": 1674,
      "afterward": 1675,
      "easily": 1676,
      "fresh": 1677,
      "ax": 1678,
      "aded": 1679,
      "exact": 1680,
      "aft": 1681,
      "carriage": 1682,
      "expected": 1683,
      "fix": 1684,
      "nam": 1685,
      "ously": 1686,
      "prob": 1687,
      "laid": 1688,
      "deliver": 1689,
      "event": 1690,
      "sess": 1691,
      "asure": 1692,
      "lit": 1693,
      "idd": 1694,
      "opin": 1695,
      "claimed": 1696,
      "complete": 1697,
      "scarce": 1698,
      "fill": 1699,
      "os": 1700,
      "ution": 1701,
      "delight": 1702,
      "quiet": 1703,
      "proper": 1704,
      "farther": 1705,
      "visit": 1706,
      "elect": 1707,
      "blood": 1708,
      "Ch": 1709,
      "prep": 1710,
      "rup": 1711,
      "minence": 1712,
      "obliged": 1713,
      "II": 1714,
      "Un": 1715,
      "madame": 1716,
      "ror": 1717,
      "smo": 1718,
      "situ": 1719,
      "sem": 1720,
      "ident": 1721,
      "perceived": 1722,
      "bled": 1723,
      ",--": 1724,
      "ah": 1725,
      "belong": 1726,
      "knowled": 1727,
      "attention": 1728,
      "standing": 1729,
      "Se": 1730,
      "state": 1731,
      "wild": 1732,
      "isted": 1733,
      "possess": 1734,
      "says": 1735,
      "dream": 1736,
      "Eminence": 1737,
      "mand": 1738,
      "top": 1739,
      "escape": 1740,
      "noise": 1741,
      "faith": 1742,
      "Not": 1743,
      "Some": 1744,
      "killed": 1745,
      "free": 1746,
      "tory": 1747,
      "ceive": 1748,
      "saying": 1749,
      "mountain": 1750,
      ";--": 1751,
      "Ice": 1752,
      "Re": 1753,
      "fle": 1754,
      "watch": 1755,
      "smile": 1756,
      "rench": 1757,
      "Brandon": 1758,
      "Your": 1759,
      "ior": 1760,
      "mouth": 1761,
      "pat": 1762,
      "peri": 1763,
      "vessel": 1764,
      "cus": 1765,
      "ean": 1766,
      "gate": 1767,
      "hus": 1768,
      "lan": 1769,
      "mere": 1770,
      "pon": 1771,
      "atures": 1772,
      "sear": 1773,
      "lead": 1774,
      "wee": 1775,
      "shot": 1776,
      "voy": 1777,
      "creature": 1778,
      "beyond": 1779,
      "Her": 1780,
      "ator": 1781,
      "surprise": 1782,
      "Majesty": 1783,
      "Hol": 1784,
      "IN": 1785,
      "atitude": 1786,
      "def": 1787,
      "acce": 1788,
      "coll": 1789,
      "couldn": 1790,
      "ishment": 1791,
      "single": 1792,
      "import": 1793,
      "south": 1794,
      "leagues": 1795,
      "occasion": 1796,
      "pounds": 1797,
      "Besides": 1798,
      "ening": 1799,
      "depart": 1800,
      "oured": 1801,
      "descri": 1802,
      "law": 1803,
      "getting": 1804,
      "giving": 1805,
      "general": 1806,
      "Paris": 1807,
      "De": 1808,
      "ually": 1809,
      "ye": 1810,
      "ons": 1811,
      "rew": 1812,
      "leg": 1813,
      "idence": 1814,
      "suf": 1815,
      "ressed": 1816,
      "sett": 1817,
      "north": 1818,
      "affection": 1819,
      "Where": 1820,
      "ili": 1821,
      "ose": 1822,
      "post": 1823,
      "recogn": 1824,
      "Aoud": 1825,
      "bound": 1826,
      "sy": 1827,
      "itation": 1828,
      "decl": 1829,
      "reply": 1830,
      "begin": 1831,
      "orders": 1832,
      "However": 1833,
      "leaving": 1834,
      "Aouda": 1835,
      "hast": 1836,
      "swi": 1837,
      "slow": 1838,
      "iful": 1839,
      "months": 1840,
      "condition": 1841,
      "reckon": 1842,
      "repeated": 1843,
      "furn": 1844,
      "lac": 1845,
      "none": 1846,
      "tone": 1847,
      "stra": 1848,
      "allow": 1849,
      "pointed": 1850,
      "seems": 1851,
      "curren": 1852,
      "morrow": 1853,
      "Island": 1854,
      "From": 1855,
      "OU": 1856,
      "Our": 1857,
      "bow": 1858,
      "instru": 1859,
      "iling": 1860,
      "exclaimed": 1861,
      "itting": 1862,
      "stor": 1863,
      "trees": 1864,
      "streng": 1865,
      "spot": 1866,
      "advant": 1867,
      "quarter": 1868,
      "opinion": 1869,
      "electric": 1870,
      "Holmes": 1871,
      "Nor": 1872,
      "aud": 1873,
      "ult": 1874,
      "ively": 1875,
      "counten": 1876,
      "meric": 1877,
      "super": 1878,
      "guard": 1879,
      "street": 1880,
      "welve": 1881,
      "terrible": 1882,
      "Americ": 1883,
      "bri": 1884,
      "line": 1885,
      "rain": 1886,
      "var": 1887,
      "ert": 1888,
      "loy": 1889,
      "suppose": 1890,
      "horses": 1891,
      "fanc": 1892,
      "ging": 1893,
      "hy": 1894,
      "trem": 1895,
      "lips": 1896,
      "trust": 1897,
      "closed": 1898,
      "ross": 1899,
      "spoke": 1900,
      "pale": 1901,
      "midst": 1902,
      "officer": 1903,
      "husband": 1904,
      "Ferr": 1905,
      "ctor": 1906,
      "dle": 1907,
      "lim": 1908,
      "va": 1909,
      "vast": 1910,
      "agree": 1911,
      "poc": 1912,
      "sive": 1913,
      "prevent": 1914,
      "companion": 1915,
      "circumstances": 1916,
      "heavy": 1917,
      "Ferrars": 1918,
      "main": 1919,
      "twelve": 1920,
      "requ": 1921,
      "living": 1922,
      "determin": 1923,
      "desp": 1924,
      "animal": 1925,
      "success": 1926,
      "French": 1927,
      "tou": 1928,
      "ats": 1929,
      "separ": 1930,
      "noon": 1931,
      "common": 1932,
      "believed": 1933,
      "rocks": 1934,
      "ball": 1935,
      "ta": 1936,
      "inner": 1937,
      "consc": 1938,
      "action": 1939,
      "crew": 1940,
      "waited": 1941,
      "horiz": 1942,
      "temper": 1943,
      "thirty": 1944,
      "pieces": 1945,
      "breakfast": 1946,
      "entirely": 1947,
      "AT": 1948,
      "Just": 1949,
      "ering": 1950,
      "sequ": 1951,
      "stair": 1952,
      "iff": 1953,
      "knows": 1954,
      "France": 1955,
      "scarcely": 1956,
      "horizon": 1957,
      "nest": 1958,
      "tail": 1959,
      "struck": 1960,
      "anced": 1961,
      "mission": 1962,
      "advantage": 1963,
      "countenance": 1964,
      "Per": 1965,
      "grow": 1966,
      "hang": 1967,
      "lab": 1968,
      "mass": 1969,
      "pes": 1970,
      "tree": 1971,
      "inqu": 1972,
      "lived": 1973,
      "rich": 1974,
      "voyage": 1975,
      "suffer": 1976,
      "Midd": 1977,
      "burn": 1978,
      "evid": 1979,
      "late": 1980,
      "nar": 1981,
      "Musketeer": 1982,
      "except": 1983,
      "Who": 1984,
      "lying": 1985,
      "sold": 1986,
      "compl": 1987,
      "ists": 1988,
      "guide": 1989,
      "soul": 1990,
      "resumed": 1991,
      "rapid": 1992,
      "lackey": 1993,
      "Middlet": 1994,
      "Roc": 1995,
      "fing": 1996,
      "scho": 1997,
      "ught": 1998,
      "throw": 1999,
      "ising": 2000,
      "meter": 2001,
      "show": 2002,
      "atever": 2003,
      "tive": 2004,
      "pray": 2005,
      "spent": 2006,
      "passage": 2007,
      "service": 2008,
      "waiting": 2009,
      "Come": 2010,
      "strength": 2011,
      "big": 2012,
      "pay": 2013,
      "warm": 2014,
      "meant": 2015,
      "ago": 2016,
      "shut": 2017,
      "tran": 2018,
      "discovered": 2019,
      "greater": 2020,
      "confess": 2021,
      "remember": 2022,
      "Roche": 2023,
      "fat": 2024,
      "inct": 2025,
      "incl": 2026,
      "hair": 2027,
      "cky": 2028,
      "spect": 2029,
      "desire": 2030,
      "courage": 2031,
      "regard": 2032,
      "bene": 2033,
      "cul": 2034,
      "squ": 2035,
      "ically": 2036,
      "exp": 2037,
      "grew": 2038,
      "understood": 2039,
      "angu": 2040,
      "clothe": 2041,
      "engage": 2042,
      "occur": 2043,
      "sense": 2044,
      "accord": 2045,
      "third": 2046,
      "spirits": 2047,
      "beautiful": 2048,
      "ping": 2049,
      "ring": 2050,
      "itty": 2051,
      "stop": 2052,
      "simple": 2053,
      "Lou": 2054,
      "crow": 2055,
      "eager": 2056,
      "sn": 2057,
      "vic": 2058,
      "anks": 2059,
      "erable": 2060,
      "habit": 2061,
      "stud": 2062,
      "rob": 2063,
      "dete": 2064,
      "ardon": 2065,
      "gold": 2066,
      "retched": 2067,
      "blow": 2068,
      "situation": 2069,
      "Never": 2070,
      "cup": 2071,
      "dom": 2072,
      "hill": 2073,
      "nine": 2074,
      "inary": 2075,
      "force": 2076,
      "und": 2077,
      "pet": 2078,
      "glad": 2079,
      "broken": 2080,
      "nearly": 2081,
      "number": 2082,
      "different": 2083,
      "afterwards": 2084,
      "hum": 2085,
      "west": 2086,
      "imaud": 2087,
      "cano": 2088,
      "igne": 2089,
      "turning": 2090,
      "walls": 2091,
      "iety": 2092,
      "Guards": 2093,
      "Grimaud": 2094,
      "girl": 2095,
      "Ca": 2096,
      "Madame": 2097,
      "die": 2098,
      "gro": 2099,
      "loun": 2100,
      "later": 2101,
      "below": 2102,
      "ung": 2103,
      "apart": 2104,
      "plat": 2105,
      "bling": 2106,
      "passing": 2107,
      "pursu": 2108,
      "difficulty": 2109,
      "bottom": 2110,
      "satisfied": 2111,
      "truth": 2112,
      "Span": 2113,
      "vern": 2114,
      "tern": 2115,
      "lose": 2116,
      "consequ": 2117,
      "exist": 2118,
      "cave": 2119,
      "clim": 2120,
      "walked": 2121,
      "started": 2122,
      "burst": 2123,
      "trouble": 2124,
      "fixed": 2125,
      "Kitty": 2126,
      "je": 2127,
      "wine": 2128,
      "ont": 2129,
      "aren": 2130,
      "professor": 2131,
      "els": 2132,
      "arks": 2133,
      "prec": 2134,
      "particularly": 2135,
      "beneath": 2136,
      "AN": 2137,
      "Mo": 2138,
      "thick": 2139,
      "attempt": 2140,
      "seigne": 2141,
      "ounced": 2142,
      "ctions": 2143,
      "seem": 2144,
      "treasure": 2145,
      "cially": 2146,
      "charac": 2147,
      "quickly": 2148,
      "determined": 2149,
      "seigneur": 2150,
      "Eu": 2151,
      "Sm": 2152,
      "bir": 2153,
      "simp": 2154,
      "instead": 2155,
      "ored": 2156,
      "alth": 2157,
      "forced": 2158,
      "concl": 2159,
      "cot": 2160,
      "doing": 2161,
      "procur": 2162,
      "raised": 2163,
      "disappeared": 2164,
      "presence": 2165,
      "fifty": 2166,
      "employ": 2167,
      "lounge": 2168,
      "Every": 2169,
      "Mor": 2170,
      "besides": 2171,
      "dut": 2172,
      "fit": 2173,
      "hes": 2174,
      "ia": 2175,
      "latter": 2176,
      "uff": 2177,
      "inside": 2178,
      "enjoy": 2179,
      "nobody": 2180,
      "across": 2181,
      "constant": 2182,
      "shar": 2183,
      "raid": 2184,
      "prud": 2185,
      "pressed": 2186,
      "presently": 2187,
      "venture": 2188,
      "wrong": 2189,
      "suffic": 2190,
      "Iceland": 2191,
      "Did": 2192,
      "Lady": 2193,
      "mat": 2194,
      "mus": 2195,
      "slight": 2196,
      "ug": 2197,
      "exe": 2198,
      "likely": 2199,
      "underwater": 2200,
      "women": 2201,
      "purpose": 2202,
      "steamer": 2203,
      "wounded": 2204,
      "school": 2205,
      "bes": 2206,
      "east": 2207,
      "ays": 2208,
      "broke": 2209,
      "direction": 2210,
      "dreadful": 2211,
      "pocket": 2212,
      "platform": 2213,
      "Europe": 2214,
      ".”": 2215,
      "gri": 2216,
      "kne": 2217,
      "mad": 2218,
      "send": 2219,
      "thor": 2220,
      "ented": 2221,
      "unity": 2222,
      "usion": 2223,
      "afraid": 2224,
      "mention": 2225,
      "preser": 2226,
      "please": 2227,
      "attach": 2228,
      "distur": 2229,
      "running": 2230,
      "Becky": 2231,
      "travell": 2232,
      "ES": 2233,
      "Pro": 2234,
      "pal": 2235,
      "prof": 2236,
      "serious": 2237,
      "desc": 2238,
      "double": 2239,
      "further": 2240,
      "sharp": 2241,
      "execut": 2242,
      ",”": 2243,
      "18": 2244,
      "HI": 2245,
      "avo": 2246,
      "bas": 2247,
      "gest": 2248,
      "pun": 2249,
      "raft": 2250,
      "tle": 2251,
      "heat": 2252,
      "river": 2253,
      "tel": 2254,
      "venge": 2255,
      "Nothing": 2256,
      "happiness": 2257,
      "confidence": 2258,
      "depth": 2259,
      "Middleton": 2260,
      "ON": 2261,
      "espe": 2262,
      "uni": 2263,
      "proceed": 2264,
      "earnest": 2265,
      "attack": 2266,
      "depths": 2267,
      "surprised": 2268,
      "Good": 2269,
      "convin": 2270,
      "paper": 2271,
      "period": 2272,
      "storm": 2273,
      "AR": 2274,
      "Don": 2275,
      "Pal": 2276,
      "fut": 2277,
      "threw": 2278,
      "whis": 2279,
      "whatever": 2280,
      "forgot": 2281,
      "liber": 2282,
      "indic": 2283,
      "cks": 2284,
      "spite": 2285,
      "story": 2286,
      "gged": 2287,
      "pleasant": 2288,
      "chair": 2289,
      "cabin": 2290,
      "straight": 2291,
      "iver": 2292,
      "luck": 2293,
      "twi": 2294,
      "iting": 2295,
      "ford": 2296,
      "consu": 2297,
      "comes": 2298,
      "firm": 2299,
      "thinking": 2300,
      "stream": 2301,
      "contrary": 2302,
      "conduct": 2303,
      "filled": 2304,
      "knowledge": 2305,
      "especially": 2306,
      "dinner": 2307,
      "test": 2308,
      "regre": 2309,
      "station": 2310,
      "wide": 2311,
      "ury": 2312,
      "unic": 2313,
      "unfortun": 2314,
      "delay": 2315,
      "ilt": 2316,
      "cost": 2317,
      "aked": 2318,
      "cloud": 2319,
      "pressure": 2320,
      "drink": 2321,
      "exactly": 2322,
      "La": 2323,
      "eth": 2324,
      "fain": 2325,
      "gain": 2326,
      "mut": 2327,
      "pull": 2328,
      "heaven": 2329,
      "although": 2330,
      "lice": 2331,
      "weak": 2332,
      "ctive": 2333,
      "observ": 2334,
      "flow": 2335,
      "impat": 2336,
      "temp": 2337,
      "duke": 2338,
      "rising": 2339,
      "worthy": 2340,
      "Lo": 2341,
      "bay": 2342,
      "pit": 2343,
      "sw": 2344,
      "itions": 2345,
      "fool": 2346,
      "caught": 2347,
      "assist": 2348,
      "greatest": 2349,
      "deser": 2350,
      "heads": 2351,
      "creatures": 2352,
      "flu": 2353,
      "ships": 2354,
      "lower": 2355,
      "mistaken": 2356,
      "frequ": 2357,
      "acquaint": 2358,
      "Bart": 2359,
      "Har": 2360,
      "anch": 2361,
      "arrest": 2362,
      "changed": 2363,
      "forty": 2364,
      "soci": 2365,
      "ified": 2366,
      "party": 2367,
      "fles": 2368,
      "animals": 2369,
      "favour": 2370,
      "anxious": 2371,
      "kni": 2372,
      "enor": 2373,
      "lean": 2374,
      "beha": 2375,
      "iment": 2376,
      "weather": 2377,
      "ourselves": 2378,
      "poon": 2379,
      "corn": 2380,
      "silent": 2381,
      "vided": 2382,
      "middle": 2383,
      "instantly": 2384,
      "sorry": 2385,
      "children": 2386,
      "learned": 2387,
      "whale": 2388,
      "accept": 2389,
      "clothes": 2390,
      "bird": 2391,
      "Al": 2392,
      "fight": 2393,
      "asc": 2394,
      "stone": 2395,
      "forget": 2396,
      "ours": 2397,
      "appre": 2398,
      "ishing": 2399,
      "opport": 2400,
      "died": 2401,
      "spread": 2402,
      "offered": 2403,
      "compass": 2404,
      "following": 2405,
      "talking": 2406,
      "minute": 2407,
      "huge": 2408,
      "mistress": 2409,
      "observe": 2410,
      "directly": 2411,
      "osity": 2412,
      "Stre": 2413,
      "Was": 2414,
      "sand": 2415,
      "vre": 2416,
      "inform": 2417,
      "notice": 2418,
      "provis": 2419,
      "willing": 2420,
      "assured": 2421,
      "forest": 2422,
      "passeng": 2423,
      "ordinary": 2424,
      "feeling": 2425,
      "suspect": 2426,
      "duty": 2427,
      "future": 2428,
      "ba": 2429,
      "gy": 2430,
      "jun": 2431,
      "ende": 2432,
      "immen": 2433,
      "former": 2434,
      "hadn": 2435,
      "los": 2436,
      "thern": 2437,
      "ices": 2438,
      "box": 2439,
      "news": 2440,
      "pleased": 2441,
      "feelings": 2442,
      "darkness": 2443,
      "listened": 2444,
      "acquaintance": 2445,
      "enorm": 2446,
      "Had": 2447,
      "fli": 2448,
      "fac": 2449,
      "langu": 2450,
      "magn": 2451,
      "tro": 2452,
      "wit": 2453,
      "edge": 2454,
      "onn": 2455,
      "ises": 2456,
      "llent": 2457,
      "liqu": 2458,
      "saved": 2459,
      "loved": 2460,
      "tears": 2461,
      "wouldn": 2462,
      "thank": 2463,
      "cross": 2464,
      "shadow": 2465,
      "occurred": 2466,
      "convinced": 2467,
      "Of": 2468,
      "Yet": 2469,
      "bread": 2470,
      "tly": 2471,
      "vil": 2472,
      "escap": 2473,
      "proved": 2474,
      "offer": 2475,
      "New": 2476,
      "cru": 2477,
      "occup": 2478,
      "village": 2479,
      "rub": 2480,
      "considered": 2481,
      "suddenly": 2482,
      "search": 2483,
      "settled": 2484,
      "Perhaps": 2485,
      "Barton": 2486,
      "endeav": 2487,
      "bers": 2488,
      "cord": 2489,
      "ges": 2490,
      "rate": 2491,
      "spl": 2492,
      "ony": 2493,
      "ality": 2494,
      "appoint": 2495,
      "ille": 2496,
      "teeth": 2497,
      "plant": 2498,
      "ends": 2499,
      "hol": 2500,
      "surround": 2501,
      "Franc": 2502,
      "augh": 2503,
      "harpoon": 2504,
      "crossed": 2505,
      "savages": 2506,
      "week": 2507,
      "knife": 2508,
      "Du": 2509,
      "Have": 2510,
      "city": 2511,
      "kno": 2512,
      "armed": 2513,
      "lig": 2514,
      "iced": 2515,
      "knowing": 2516,
      "handsome": 2517,
      "possi": 2518,
      "grou": 2519,
      "speaking": 2520,
      "opening": 2521,
      "expression": 2522,
      "pistoles": 2523,
      "character": 2524,
      "regret": 2525,
      "Ax": 2526,
      "Ste": 2527,
      "daugh": 2528,
      "ming": 2529,
      "olog": 2530,
      "tast": 2531,
      "reh": 2532,
      "shell": 2533,
      "proof": 2534,
      "likewise": 2535,
      "engine": 2536,
      "Francis": 2537,
      "Axel": 2538,
      "Are": 2539,
      "due": 2540,
      "mit": 2541,
      "zen": 2542,
      "theless": 2543,
      "betr": 2544,
      "charm": 2545,
      "terror": 2546,
      "nel": 2547,
      "moving": 2548,
      "exper": 2549,
      "justice": 2550,
      "treme": 2551,
      "exceed": 2552,
      "powerful": 2553,
      "promise": 2554,
      "faction": 2555,
      "suspic": 2556,
      "succeed": 2557,
      "murm": 2558,
      "approached": 2559,
      "beginning": 2560,
      "enormous": 2561,
      "AS": 2562,
      "bag": 2563,
      "bank": 2564,
      "cing": 2565,
      "ker": 2566,
      "loud": 2567,
      "nation": 2568,
      "pardon": 2569,
      "sad": 2570,
      "relie": 2571,
      "eness": 2572,
      "seized": 2573,
      "beast": 2574,
      "acy": 2575,
      "acted": 2576,
      "ilo": 2577,
      "extreme": 2578,
      "Aronn": 2579,
      "prote": 2580,
      "famili": 2581,
      "arrival": 2582,
      "satisfaction": 2583,
      "floor": 2584,
      "Indian": 2585,
      "current": 2586,
      "apartment": 2587,
      "opportunity": 2588,
      "Aronnax": 2589,
      ".—": 2590,
      "Ex": 2591,
      "Very": 2592,
      "ich": 2593,
      "ron": 2594,
      "thrown": 2595,
      "hab": 2596,
      "stir": 2597,
      "anybody": 2598,
      "rail": 2599,
      "compreh": 2600,
      "rows": 2601,
      "ption": 2602,
      "finished": 2603,
      "calcul": 2604,
      "equal": 2605,
      "admir": 2606,
      "simply": 2607,
      "Am": 2608,
      "bour": 2609,
      "dare": 2610,
      "ives": 2611,
      "nav": 2612,
      "tent": 2613,
      "ture": 2614,
      "tide": 2615,
      "ys": 2616,
      "informed": 2617,
      "height": 2618,
      "sac": 2619,
      "neigh": 2620,
      "outside": 2621,
      "showed": 2622,
      "Its": 2623,
      "class": 2624,
      "glance": 2625,
      "ignor": 2626,
      "early": 2627,
      "powder": 2628,
      "fifteen": 2629,
      "concern": 2630,
      "whisper": 2631,
      "betray": 2632,
      "bility": 2633,
      "sli": 2634,
      "reed": 2635,
      "ative": 2636,
      "ences": 2637,
      "cher": 2638,
      "utter": 2639,
      "sole": 2640,
      "weight": 2641,
      "pell": 2642,
      "shout": 2643,
      "ety": 2644,
      "dog": 2645,
      "pron": 2646,
      "ears": 2647,
      "lines": 2648,
      "remark": 2649,
      "Atl": 2650,
      "ference": 2651,
      "coral": 2652,
      "eleven": 2653,
      "skiff": 2654,
      "promised": 2655,
      "drawing": 2656,
      "completely": 2657,
      "according": 2658,
      "detective": 2659,
      "immense": 2660,
      "dry": 2661,
      "fig": 2662,
      "path": 2663,
      "sides": 2664,
      "wreck": 2665,
      "memor": 2666,
      "une": 2667,
      "devo": 2668,
      "demand": 2669,
      "amond": 2670,
      "ests": 2671,
      "thanks": 2672,
      "grap": 2673,
      "shook": 2674,
      "engaged": 2675,
      "brea": 2676,
      "accus": 2677,
      "OR": 2678,
      "Sid": 2679,
      "sof": 2680,
      "uous": 2681,
      "uary": 2682,
      "inst": 2683,
      "inten": 2684,
      "resem": 2685,
      "ener": 2686,
      "lives": 2687,
      "unable": 2688,
      "resist": 2689,
      "exer": 2690,
      "exha": 2691,
      "ustri": 2692,
      "trans": 2693,
      "itten": 2694,
      "diamond": 2695,
      "stranger": 2696,
      "excellent": 2697,
      "enemy": 2698,
      "cheer": 2699,
      "express": 2700,
      "grave": 2701,
      "favor": 2702,
      "astonishment": 2703,
      "decided": 2704,
      "species": 2705,
      "produced": 2706,
      "magnific": 2707,
      "Ho": 2708,
      "jum": 2709,
      "mal": 2710,
      "rushed": 2711,
      "threat": 2712,
      "unknown": 2713,
      "deck": 2714,
      "design": 2715,
      "interrup": 2716,
      "ordered": 2717,
      "corner": 2718,
      "advanced": 2719,
      "charge": 2720,
      "walk": 2721,
      "drawn": 2722,
      "sweet": 2723,
      "considerable": 2724,
      "learn": 2725,
      "globe": 2726,
      "concealed": 2727,
      "increased": 2728,
      "stairs": 2729,
      "?--": 2730,
      "Bra": 2731,
      "Two": 2732,
      "XX": 2733,
      "bright": 2734,
      "da": 2735,
      "gather": 2736,
      "sink": 2737,
      "tomorrow": 2738,
      "ister": 2739,
      "allowed": 2740,
      "sake": 2741,
      "sheet": 2742,
      "persu": 2743,
      "worse": 2744,
      "ties": 2745,
      "hoped": 2746,
      "letters": 2747,
      "shoulders": 2748,
      "pping": 2749,
      "supposed": 2750,
      "court": 2751,
      "married": 2752,
      "joined": 2753,
      "drag": 2754,
      "result": 2755,
      "front": 2756,
      "departure": 2757,
      "narrow": 2758,
      "crowd": 2759,
      "Palmer": 2760,
      "Look": 2761,
      "Rue": 2762,
      "mile": 2763,
      "ines": 2764,
      "encoun": 2765,
      "ades": 2766,
      "terday": 2767,
      "conven": 2768,
      "quet": 2769,
      "cool": 2770,
      "caused": 2771,
      "hopes": 2772,
      "yours": 2773,
      "Indeed": 2774,
      "tender": 2775,
      "finally": 2776,
      "depend": 2777,
      "paid": 2778,
      "prisoner": 2779,
      "important": 2780,
      "avoid": 2781,
      "exhaust": 2782,
      "Shol": 2783,
      "mn": 2784,
      "mber": 2785,
      "wed": 2786,
      "atmo": 2787,
      "agreed": 2788,
      "save": 2789,
      "fet": 2790,
      "prove": 2791,
      "served": 2792,
      "talked": 2793,
      "honest": 2794,
      "comfortable": 2795,
      "dropped": 2796,
      "spring": 2797,
      "Sholto": 2798,
      "atmosp": 2799,
      "Car": 2800,
      "gar": 2801,
      "mast": 2802,
      "rise": 2803,
      "ata": 2804,
      "itated": 2805,
      "stup": 2806,
      "abs": 2807,
      "conne": 2808,
      "sigh": 2809,
      "share": 2810,
      "curi": 2811,
      "guess": 2812,
      "breath": 2813,
      "kindness": 2814,
      "inquir": 2815,
      "Rochell": 2816,
      "behavi": 2817,
      "magnificent": 2818,
      "Ab": 2819,
      "field": 2820,
      "tur": 2821,
      "intell": 2822,
      "stretched": 2823,
      "bell": 2824,
      "delic": 2825,
      "ify": 2826,
      "food": 2827,
      "gry": 2828,
      "bless": 2829,
      "monster": 2830,
      "moments": 2831,
      "render": 2832,
      "distress": 2833,
      "communic": 2834,
      "built": 2835,
      "driven": 2836,
      "supply": 2837,
      "slowly": 2838,
      "twice": 2839,
      "unfortunate": 2840,
      "liquid": 2841,
      "ais": 2842,
      "dim": 2843,
      "fru": 2844,
      "lted": 2845,
      "yield": 2846,
      "season": 2847,
      "stared": 2848,
      "roy": 2849,
      "cell": 2850,
      "entr": 2851,
      "absol": 2852,
      "amid": 2853,
      "green": 2854,
      "bles": 2855,
      "blue": 2856,
      "monseigneur": 2857,
      "attle": 2858,
      "returning": 2859,
      "effort": 2860,
      "places": 2861,
      "degree": 2862,
      "judge": 2863,
      "acquainted": 2864,
      "smoke": 2865,
      "swift": 2866,
      "engagement": 2867,
      "cott": 2868,
      "liberty": 2869,
      "passengers": 2870,
      "familiar": 2871,
      "behaviour": 2872,
      ".'": 2873,
      "RE": 2874,
      "cand": 2875,
      "een": 2876,
      "fis": 2877,
      "fun": 2878,
      "ik": 2879,
      "ners": 2880,
      "obey": 2881,
      "zz": 2882,
      "request": 2883,
      "melan": 2884,
      "stan": 2885,
      "While": 2886,
      "dig": 2887,
      "useless": 2888,
      "uded": 2889,
      "carefully": 2890,
      "suffered": 2891,
      "required": 2892,
      "Street": 2893,
      "Cal": 2894,
      "During": 2895,
      "OF": 2896,
      "dressed": 2897,
      "eper": 2898,
      "gained": 2899,
      "iers": 2900,
      "latitude": 2901,
      "makes": 2902,
      "pi": 2903,
      "rays": 2904,
      "orted": 2905,
      "chan": 2906,
      "wid": 2907,
      "ils": 2908,
      "ams": 2909,
      "comr": 2910,
      "hole": 2911,
      "raise": 2912,
      "laun": 2913,
      "hung": 2914,
      "ize": 2915,
      "written": 2916,
      "grace": 2917,
      "difficult": 2918,
      "brave": 2919,
      "astonished": 2920,
      "recognized": 2921,
      "agreeable": 2922,
      "existence": 2923,
      "procurator": 2924,
      "Morstan": 2925,
      "murmured": 2926,
      "\"'": 2927,
      "15": 2928,
      "IS": 2929,
      "bill": 2930,
      "bered": 2931,
      "cou": 2932,
      "cere": 2933,
      "ler": 2934,
      "mir": 2935,
      "vity": 2936,
      "ince": 2937,
      "relig": 2938,
      "star": 2939,
      "forth": 2940,
      "note": 2941,
      "acle": 2942,
      "lock": 2943,
      "peak": 2944,
      "peace": 2945,
      "track": 2946,
      "obst": 2947,
      "shoulder": 2948,
      "appears": 2949,
      "regular": 2950,
      "famous": 2951,
      "choly": 2952,
      "fallen": 2953,
      "swear": 2954,
      "yesterday": 2955,
      "movement": 2956,
      "violent": 2957,
      "flesh": 2958,
      "navig": 2959,
      "Gas": 2960,
      "LE": 2961,
      "May": 2962,
      "fash": 2963,
      "oth": 2964,
      "por": 2965,
      "tic": 2966,
      "assure": 2967,
      "hall": 2968,
      "meas": 2969,
      "chur": 2970,
      "acific": 2971,
      "weigh": 2972,
      "bold": 2973,
      "project": 2974,
      "hotel": 2975,
      "oppos": 2976,
      "month": 2977,
      "Because": 2978,
      "walking": 2979,
      "imagine": 2980,
      "probably": 2981,
      "prepared": 2982,
      "mountains": 2983,
      "collect": 2984,
      "despair": 2985,
      "sufficient": 2986,
      "intellig": 2987,
      "absolute": 2988,
      "melancholy": 2989,
      "),": 2990,
      ",'": 2991,
      "bs": 2992,
      "bing": 2993,
      "ga": 2994,
      "game": 2995,
      "ime": 2996,
      "muske": 2997,
      "van": 2998,
      "influ": 2999,
      "iter": 3000,
      "rodu": 3001,
      "vey": 3002,
      "perceive": 3003,
      "hood": 3004,
      "ump": 3005,
      "umph": 3006,
      "introdu": 3007,
      "reading": 3008,
      "ots": 3009,
      "miserable": 3010,
      "woods": 3011,
      "valu": 3012,
      "build": 3013,
      "ublic": 3014,
      "gallant": 3015,
      "named": 3016,
      "Sea": 3017,
      "finger": 3018,
      "curiosity": 3019,
      "EN": 3020,
      "Lied": 3021,
      "Upon": 3022,
      "mas": 3023,
      "oy": 3024,
      "pir": 3025,
      "thod": 3026,
      "enbro": 3027,
      "ingu": 3028,
      "secur": 3029,
      "ley": 3030,
      "beat": 3031,
      "uttered": 3032,
      "abandon": 3033,
      "expen": 3034,
      "prov": 3035,
      "watched": 3036,
      "embar": 3037,
      "putting": 3038,
      "miss": 3039,
      "distingu": 3040,
      "listen": 3041,
      "sprang": 3042,
      "frightful": 3043,
      "motionless": 3044,
      "knees": 3045,
      "language": 3046,
      "escaped": 3047,
      "kerchief": 3048,
      "fashion": 3049,
      "Liedenbro": 3050,
      "Liedenbrock": 3051,
      "Cha": 3052,
      "Pacific": 3053,
      "ben": 3054,
      "bal": 3055,
      "fted": 3056,
      "gment": 3057,
      "mag": 3058,
      "sitting": 3059,
      "ane": 3060,
      "onto": 3061,
      "recovered": 3062,
      "atic": 3063,
      "ory": 3064,
      "llect": 3065,
      "seated": 3066,
      "ict": 3067,
      "Their": 3068,
      "hot": 3069,
      "discover": 3070,
      "setting": 3071,
      "hearing": 3072,
      "honour": 3073,
      "ranean": 3074,
      "Englishman": 3075,
      "recollect": 3076,
      "ladies": 3077,
      "....": 3078,
      "possession": 3079,
      "fancy": 3080,
      "hanging": 3081,
      "profound": 3082,
      "execution": 3083,
      "appointment": 3084,
      "charming": 3085,
      "Bom": 3086,
      "Baz": 3087,
      "Fin": 3088,
      "dart": 3089,
      "pter": 3090,
      "pier": 3091,
      "tles": 3092,
      "method": 3093,
      "iments": 3094,
      "irt": 3095,
      "ries": 3096,
      "lod": 3097,
      "lot": 3098,
      "apped": 3099,
      "expl": 3100,
      "exped": 3101,
      "complain": 3102,
      "handkerchief": 3103,
      "gratitude": 3104,
      "cloak": 3105,
      "passion": 3106,
      "gging": 3107,
      "prev": 3108,
      "happen": 3109,
      "nearer": 3110,
      "Only": 3111,
      "murder": 3112,
      "empty": 3113,
      "whales": 3114,
      "quietly": 3115,
      "provisions": 3116,
      "Duke": 3117,
      "Atlantic": 3118,
      "Bombay": 3119,
      "Bazin": 3120,
      "17": 3121,
      "Rob": 3122,
      "brow": 3123,
      "camp": 3124,
      "drun": 3125,
      "iently": 3126,
      "mess": 3127,
      "public": 3128,
      "tong": 3129,
      "insu": 3130,
      "recomm": 3131,
      "receive": 3132,
      "attr": 3133,
      "today": 3134,
      "whist": 3135,
      "vert": 3136,
      "impres": 3137,
      "lies": 3138,
      "weap": 3139,
      "moder": 3140,
      "feared": 3141,
      "ounce": 3142,
      "fold": 3143,
      "pers": 3144,
      "ols": 3145,
      "fail": 3146,
      "udder": 3147,
      "smiled": 3148,
      "distant": 3149,
      "marked": 3150,
      "ceiving": 3151,
      "finite": 3152,
      "sky": 3153,
      "wishes": 3154,
      "penet": 3155,
      "azed": 3156,
      "stayed": 3157,
      "yellow": 3158,
      "America": 3159,
      "separated": 3160,
      "tails": 3161,
      "fatig": 3162,
      "Spani": 3163,
      "opposite": 3164,
      "16": 3165,
      "Kong": 3166,
      "Port": 3167,
      "itor": 3168,
      "paces": 3169,
      "sit": 3170,
      "snow": 3171,
      "tin": 3172,
      "vain": 3173,
      "asing": 3174,
      "issu": 3175,
      "kets": 3176,
      "police": 3177,
      "sire": 3178,
      "gran": 3179,
      "compar": 3180,
      "frigate": 3181,
      "failed": 3182,
      "ancient": 3183,
      "fulness": 3184,
      "udge": 3185,
      "content": 3186,
      "conditions": 3187,
      "finding": 3188,
      "trying": 3189,
      "aware": 3190,
      "audi": 3191,
      "Smith": 3192,
      "mentioned": 3193,
      "appreh": 3194,
      "cottage": 3195,
      "Gascon": 3196,
      "Hong": 3197,
      "Mean": 3198,
      "Would": 3199,
      "bare": 3200,
      "cous": 3201,
      "pity": 3202,
      "leep": 3203,
      "accompl": 3204,
      "ressing": 3205,
      "repair": 3206,
      "Injun": 3207,
      "address": 3208,
      "attered": 3209,
      "holding": 3210,
      "slept": 3211,
      "castle": 3212,
      "events": 3213,
      "Islands": 3214,
      "tranqu": 3215,
      "vengeance": 3216,
      "loss": 3217,
      "Meanwhile": 3218,
      "Fort": 3219,
      "Ger": 3220,
      "bid": 3221,
      "bowed": 3222,
      "gle": 3223,
      "hid": 3224,
      "hous": 3225,
      "ius": 3226,
      "wand": 3227,
      "itable": 3228,
      "ading": 3229,
      "history": 3230,
      "abl": 3231,
      "appointed": 3232,
      "reser": 3233,
      "serve": 3234,
      "silver": 3235,
      "related": 3236,
      "plainly": 3237,
      "resolution": 3238,
      "meeting": 3239,
      "rolled": 3240,
      "conceal": 3241,
      "III": 3242,
      "granite": 3243,
      "Lin": 3244,
      "Mous": 3245,
      "eld": 3246,
      "ox": 3247,
      "pul": 3248,
      "rout": 3249,
      "rough": 3250,
      "sank": 3251,
      "reve": 3252,
      "repro": 3253,
      "asleep": 3254,
      "arily": 3255,
      "haz": 3256,
      "cet": 3257,
      "alley": 3258,
      "neck": 3259,
      "ount": 3260,
      "comb": 3261,
      "plun": 3262,
      "indif": 3263,
      "retired": 3264,
      "fired": 3265,
      "intim": 3266,
      "hither": 3267,
      "support": 3268,
      "solid": 3269,
      "marry": 3270,
      "value": 3271,
      "ushing": 3272,
      "vidence": 3273,
      "capable": 3274,
      "presented": 3275,
      "falling": 3276,
      "quarters": 3277,
      "equally": 3278,
      "risk": 3279,
      "windows": 3280,
      "ensions": 3281,
      "India": 3282,
      "excite": 3283,
      "observation": 3284,
      "queton": 3285,
      "entrance": 3286,
      "church": 3287,
      "Mousqueton": 3288,
      "Ac": 3289,
      "Cer": 3290,
      "DI": 3291,
      "bon": 3292,
      "ease": 3293,
      "fu": 3294,
      "slo": 3295,
      "tw": 3296,
      "vig": 3297,
      "thro": 3298,
      "aries": 3299,
      "som": 3300,
      "aging": 3301,
      "omen": 3302,
      "quen": 3303,
      "otherwise": 3304,
      "thrust": 3305,
      "broad": 3306,
      "ashed": 3307,
      "crust": 3308,
      "eleg": 3309,
      "accident": 3310,
      "dangerous": 3311,
      "Poor": 3312,
      "savage": 3313,
      "carrying": 3314,
      "violence": 3315,
      "American": 3316,
      "conscious": 3317,
      "labour": 3318,
      "lackeys": 3319,
      "Louvre": 3320,
      "Cape": 3321,
      "indicated": 3322,
      "splend": 3323,
      "group": 3324,
      "daughter": 3325,
      "influence": 3326,
      "Abra": 3327,
      "Me": 3328,
      "Pres": 3329,
      "Such": 3330,
      "dull": 3331,
      "gig": 3332,
      "hull": 3333,
      "ike": 3334,
      "nal": 3335,
      "pace": 3336,
      "sick": 3337,
      "enem": 3338,
      "assu": 3339,
      "orig": 3340,
      "health": 3341,
      "meat": 3342,
      "liar": 3343,
      "myster": 3344,
      "acious": 3345,
      "amed": 3346,
      "amen": 3347,
      "repres": 3348,
      "sport": 3349,
      "stock": 3350,
      "igned": 3351,
      "lava": 3352,
      "submer": 3353,
      "phen": 3354,
      "islands": 3355,
      "aboard": 3356,
      "THAT": 3357,
      "wonderful": 3358,
      "stern": 3359,
      "spirit": 3360,
      "admit": 3361,
      "ladder": 3362,
      "reflected": 3363,
      "catch": 3364,
      "anxiety": 3365,
      "delivered": 3366,
      "temperature": 3367,
      "disturbed": 3368,
      "forgotten": 3369,
      "taste": 3370,
      "intense": 3371,
      "Abraham": 3372,
      "enemies": 3373,
      "Med": 3374,
      "Red": 3375,
      "bac": 3376,
      "ech": 3377,
      "ires": 3378,
      "tall": 3379,
      "yr": 3380,
      "ency": 3381,
      "ision": 3382,
      "ites": 3383,
      "ceased": 3384,
      "accompan": 3385,
      "abroad": 3386,
      "polit": 3387,
      "gover": 3388,
      "excess": 3389,
      "caut": 3390,
      "worked": 3391,
      "greatly": 3392,
      "scient": 3393,
      "fined": 3394,
      "spoken": 3395,
      "skin": 3396,
      "aze": 3397,
      "coln": 3398,
      "imagination": 3399,
      "played": 3400,
      "concerned": 3401,
      "Command": 3402,
      "incip": 3403,
      "importance": 3404,
      "touched": 3405,
      "Louis": 3406,
      "victim": 3407,
      "study": 3408,
      "ignorant": 3409,
      "Lincoln": 3410,
      "Certain": 3411,
      "phenomen": 3412,
      "PAR": 3413,
      "ec": 3414,
      "hide": 3415,
      "mil": 3416,
      "mill": 3417,
      "mach": 3418,
      "maj": 3419,
      "thed": 3420,
      "orous": 3421,
      "sevent": 3422,
      "stro": 3423,
      "sacri": 3424,
      "moon": 3425,
      "iction": 3426,
      "coal": 3427,
      "aret": 3428,
      "size": 3429,
      "plants": 3430,
      "wore": 3431,
      "race": 3432,
      "blind": 3433,
      "monstr": 3434,
      "contri": 3435,
      "sooner": 3436,
      "join": 3437,
      "triumph": 3438,
      "charged": 3439,
      "priv": 3440,
      "entering": 3441,
      "frightened": 3442,
      "beauty": 3443,
      "commander": 3444,
      "custom": 3445,
      "sym": 3446,
      "superior": 3447,
      "various": 3448,
      "square": 3449,
      "consequence": 3450,
      "uniform": 3451,
      "fisher": 3452,
      "Bar": 3453,
      "bent": 3454,
      "bull": 3455,
      "emotion": 3456,
      "fow": 3457,
      "iable": 3458,
      "mix": 3459,
      "pick": 3460,
      "pond": 3461,
      "rum": 3462,
      "inous": 3463,
      "angl": 3464,
      "tools": 3465,
      "itary": 3466,
      "urs": 3467,
      "goes": 3468,
      "explain": 3469,
      "urely": 3470,
      "everybody": 3471,
      "shores": 3472,
      "flat": 3473,
      "otter": 3474,
      "awful": 3475,
      "write": 3476,
      "writing": 3477,
      "signal": 3478,
      "advice": 3479,
      "gallery": 3480,
      "delighted": 3481,
      "merely": 3482,
      "weeks": 3483,
      "legs": 3484,
      "absence": 3485,
      "fruit": 3486,
      "absolutely": 3487,
      "valuable": 3488,
      "cetace": 3489,
      "Che": 3490,
      "Jones": 3491,
      "Or": 3492,
      "dy": 3493,
      "drow": 3494,
      "fied": 3495,
      "fier": 3496,
      "mort": 3497,
      "mark": 3498,
      "pted": 3499,
      "tar": 3500,
      "tired": 3501,
      "ume": 3502,
      "removed": 3503,
      "arose": 3504,
      "ital": 3505,
      "noble": 3506,
      "unless": 3507,
      "ability": 3508,
      "pecu": 3509,
      "fever": 3510,
      "amm": 3511,
      "establ": 3512,
      "ples": 3513,
      "princip": 3514,
      "Anne": 3515,
      "spare": 3516,
      "angers": 3517,
      "curious": 3518,
      "horror": 3519,
      "scene": 3520,
      "crim": 3521,
      "marriage": 3522,
      "author": 3523,
      "portion": 3524,
      "mounted": 3525,
      "Coquen": 3526,
      "circumstance": 3527,
      "Norland": 3528,
      "evidently": 3529,
      "witness": 3530,
      "surrounded": 3531,
      "devoted": 3532,
      "houses": 3533,
      "gigantic": 3534,
      "accompanied": 3535,
      "Commander": 3536,
      "peculiar": 3537,
      "Coquenard": 3538,
      ".’": 3539,
      "Austri": 3540,
      "Card": 3541,
      "Jap": 3542,
      "Qu": 3543,
      "Still": 3544,
      "dress": 3545,
      "fal": 3546,
      "gas": 3547,
      "oom": 3548,
      "pu": 3549,
      "sper": 3550,
      "vation": 3551,
      "wing": 3552,
      "wro": 3553,
      "tomed": 3554,
      "isn": 3555,
      "argu": 3556,
      "level": 3557,
      "stones": 3558,
      "chest": 3559,
      "wear": 3560,
      "upper": 3561,
      "indis": 3562,
      "wholly": 3563,
      "worn": 3564,
      "afford": 3565,
      "grate": 3566,
      "ancing": 3567,
      "directed": 3568,
      "volcano": 3569,
      "hurried": 3570,
      "reflection": 3571,
      "laughing": 3572,
      "deliverance": 3573,
      "faithful": 3574,
      "declared": 3575,
      "pulled": 3576,
      "arrested": 3577,
      "Braz": 3578,
      "drunk": 3579,
      "Certainly": 3580,
      "wrote": 3581,
      "Aunt": 3582,
      "Even": 3583,
      "ell": 3584,
      "emer": 3585,
      "gard": 3586,
      "hit": 3587,
      "iant": 3588,
      "pair": 3589,
      "sadd": 3590,
      "rever": 3591,
      "enthus": 3592,
      "ork": 3593,
      "sters": 3594,
      "chant": 3595,
      "roof": 3596,
      "veget": 3597,
      "alive": 3598,
      "alarm": 3599,
      "ague": 3600,
      "myst": 3601,
      "aced": 3602,
      "abb": 3603,
      "ardes": 3604,
      "shed": 3605,
      "ets": 3606,
      "astic": 3607,
      "extra": 3608,
      "dozen": 3609,
      "propell": 3610,
      "aflo": 3611,
      "hosp": 3612,
      "reek": 3613,
      "fault": 3614,
      "shape": 3615,
      "hunting": 3616,
      "preced": 3617,
      "missed": 3618,
      "misfortune": 3619,
      "doors": 3620,
      "treat": 3621,
      "visible": 3622,
      "sisters": 3623,
      "centre": 3624,
      "skill": 3625,
      "sensible": 3626,
      "sentence": 3627,
      "travel": 3628,
      "anny": 3629,
      "Polly": 3630,
      "trait": 3631,
      "names": 3632,
      "describe": 3633,
      "swim": 3634,
      "prudent": 3635,
      "gesture": 3636,
      "clouds": 3637,
      "accustomed": 3638,
      "daily": 3639,
      "tongue": 3640,
      "route": 3641,
      "enthusi": 3642,
      "30": 3643,
      "Bank": 3644,
      "SE": 3645,
      "Sh": 3646,
      "dish": 3647,
      "lord": 3648,
      "ral": 3649,
      "thunder": 3650,
      "inj": 3651,
      "angry": 3652,
      "enced": 3653,
      "stater": 3654,
      "wash": 3655,
      "lifted": 3656,
      "iche": 3657,
      "covery": 3658,
      "tied": 3659,
      "retch": 3660,
      "ideas": 3661,
      "strata": 3662,
      "brain": 3663,
      "speech": 3664,
      "desired": 3665,
      "ggle": 3666,
      "interior": 3667,
      "misery": 3668,
      "addition": 3669,
      "signs": 3670,
      "keeping": 3671,
      "generally": 3672,
      "color": 3673,
      "crossing": 3674,
      "prisoners": 3675,
      "imagined": 3676,
      "reflections": 3677,
      "Without": 3678,
      "judgment": 3679,
      "examined": 3680,
      "excuse": 3681,
      "rolling": 3682,
      "flew": 3683,
      "streets": 3684,
      "employed": 3685,
      "constantly": 3686,
      "prudence": 3687,
      "grief": 3688,
      "extremely": 3689,
      "pronounced": 3690,
      "interrupted": 3691,
      "sacrif": 3692,
      "Austria": 3693,
      "Japan": 3694,
      "stateroom": 3695,
      "?”": 3696,
      "Ber": 3697,
      "King": 3698,
      "Potter": 3699,
      "battle": 3700,
      "fro": 3701,
      "fled": 3702,
      "pper": 3703,
      "tures": 3704,
      "uced": 3705,
      "yards": 3706,
      "erous": 3707,
      "rec": 3708,
      "orn": 3709,
      "sty": 3710,
      "whence": 3711,
      "adventure": 3712,
      "soil": 3713,
      "del": 3714,
      "acknowled": 3715,
      "contained": 3716,
      "respond": 3717,
      "manners": 3718,
      "ante": 3719,
      "estim": 3720,
      "Which": 3721,
      "discovery": 3722,
      "div": 3723,
      "angle": 3724,
      "lights": 3725,
      "shoot": 3726,
      "maybe": 3727,
      "steep": 3728,
      "genus": 3729,
      "doubted": 3730,
      "southern": 3731,
      "cries": 3732,
      "struggle": 3733,
      "interested": 3734,
      "drive": 3735,
      "bottles": 3736,
      "hurry": 3737,
      "destroy": 3738,
      "Sometimes": 3739,
      "growing": 3740,
      "explo": 3741,
      "frequently": 3742,
      "birds": 3743,
      "information": 3744,
      "exceedingly": 3745,
      "Rochelle": 3746,
      "Chapter": 3747,
      "reproach": 3748,
      "excitement": 3749,
      "Fanny": 3750,
      "York": 3751,
      "kes": 3752,
      "mater": 3753,
      "pack": 3754,
      "ism": 3755,
      "imprison": 3756,
      "using": 3757,
      "ouring": 3758,
      "loaded": 3759,
      "convent": 3760,
      "apor": 3761,
      "plans": 3762,
      "seek": 3763,
      "prospect": 3764,
      "hollow": 3765,
      "report": 3766,
      "divided": 3767,
      "posing": 3768,
      "grat": 3769,
      "afternoon": 3770,
      "flash": 3771,
      "horri": 3772,
      "attent": 3773,
      "easiness": 3774,
      "refused": 3775,
      "remembr": 3776,
      "remembered": 3777,
      "eaten": 3778,
      "remains": 3779,
      "approaching": 3780,
      "delightful": 3781,
      "furnished": 3782,
      "touch": 3783,
      "robber": 3784,
      "Spanish": 3785,
      "concluded": 3786,
      "assistance": 3787,
      "society": 3788,
      "experience": 3789,
      "shouted": 3790,
      "expedition": 3791,
      "extraordinary": 3792,
      "propeller": 3793,
      "Ro": 3794,
      "Wardes": 3795,
      "aving": 3796,
      "ded": 3797,
      "dying": 3798,
      "evil": 3799,
      "fly": 3800,
      "zed": 3801,
      "edom": 3802,
      "mechan": 3803,
      "stick": 3804,
      "alous": 3805,
      "youth": 3806,
      "uneasiness": 3807,
      "deceived": 3808,
      "acti": 3809,
      "acles": 3810,
      "resto": 3811,
      "tains": 3812,
      "pract": 3813,
      "proud": 3814,
      "parts": 3815,
      "disappointment": 3816,
      "posit": 3817,
      "lets": 3818,
      "seriously": 3819,
      "looks": 3820,
      "hib": 3821,
      "wooden": 3822,
      "breast": 3823,
      "purch": 3824,
      "fastened": 3825,
      "mistake": 3826,
      "eighty": 3827,
      "doesn": 3828,
      "reflect": 3829,
      "Gulf": 3830,
      "announced": 3831,
      "difference": 3832,
      "affairs": 3833,
      "soldier": 3834,
      "soldiers": 3835,
      "throwing": 3836,
      "eagerly": 3837,
      "proceeded": 3838,
      "relief": 3839,
      "solemn": 3840,
      "memory": 3841,
      "Char": 3842,
      "Ju": 3843,
      "Mary": 3844,
      "Sn": 3845,
      "Sue": 3846,
      "TO": 3847,
      "Take": 3848,
      "Tell": 3849,
      "cred": 3850,
      "fate": 3851,
      "lest": 3852,
      "swords": 3853,
      "tun": 3854,
      "thin": 3855,
      "ina": 3856,
      "aside": 3857,
      "itch": 3858,
      "sell": 3859,
      "becoming": 3860,
      "velo": 3861,
      "alo": 3862,
      "advers": 3863,
      "tering": 3864,
      "noticed": 3865,
      "ilar": 3866,
      "ilty": 3867,
      "aped": 3868,
      "trun": 3869,
      "bore": 3870,
      "affli": 3871,
      "Thus": 3872,
      "retreat": 3873,
      "counted": 3874,
      "intention": 3875,
      "mercer": 3876,
      "crater": 3877,
      "pointing": 3878,
      "secure": 3879,
      "sails": 3880,
      "volunt": 3881,
      "bottle": 3882,
      "hurt": 3883,
      "supported": 3884,
      "safety": 3885,
      "papers": 3886,
      "probable": 3887,
      "belonged": 3888,
      "suffering": 3889,
      "fingers": 3890,
      "climbed": 3891,
      "engineer": 3892,
      "succeeded": 3893,
      "remarkable": 3894,
      "figure": 3895,
      "widow": 3896,
      "iterranean": 3897,
      "mysterious": 3898,
      "Suez": 3899,
      "20": 3900,
      "AL": 3901,
      "Pe": 3902,
      "TE": 3903,
      "bun": 3904,
      "fond": 3905,
      "lamp": 3906,
      "pil": 3907,
      "rass": 3908,
      "sought": 3909,
      "tanks": 3910,
      "uc": 3911,
      "vest": 3912,
      "yer": 3913,
      "thither": 3914,
      "reward": 3915,
      "seat": 3916,
      "stit": 3917,
      "nose": 3918,
      "ids": 3919,
      "imper": 3920,
      "advent": 3921,
      "wealth": 3922,
      "fee": 3923,
      "ama": 3924,
      "shire": 3925,
      "odd": 3926,
      "quit": 3927,
      "shel": 3928,
      "cking": 3929,
      "tible": 3930,
      "assass": 3931,
      "profess": 3932,
      "posal": 3933,
      "clam": 3934,
      "grant": 3935,
      "anging": 3936,
      "lightning": 3937,
      "cleared": 3938,
      "remar": 3939,
      "telling": 3940,
      "smiling": 3941,
      "ventured": 3942,
      "wanting": 3943,
      "bodies": 3944,
      "valier": 3945,
      "aws": 3946,
      "higher": 3947,
      "crime": 3948,
      "needed": 3949,
      "picked": 3950,
      "bringing": 3951,
      "welcome": 3952,
      "naturally": 3953,
      "painful": 3954,
      "leaves": 3955,
      "books": 3956,
      "vessels": 3957,
      "described": 3958,
      "instruments": 3959,
      "conscience": 3960,
      "inclination": 3961,
      "attached": 3962,
      "occupied": 3963,
      "betrayed": 3964,
      "exerc": 3965,
      "embarrass": 3966,
      "Mediterranean": 3967,
      "14": 3968,
      "25": 3969,
      "Riche": 3970,
      "SH": 3971,
      "Sher": 3972,
      "Sak": 3973,
      "Tr": 3974,
      "gue": 3975,
      "iest": 3976,
      "kilo": 3977,
      "non": 3978,
      "nay": 3979,
      "nus": 3980,
      "oper": 3981,
      "rare": 3982,
      "ugu": 3983,
      "viz": 3984,
      "æfell": 3985,
      "inhabit": 3986,
      "inhab": 3987,
      "org": 3988,
      "uneasy": 3989,
      "unusual": 3990,
      "uses": 3991,
      "aming": 3992,
      "sugg": 3993,
      "quant": 3994,
      "goat": 3995,
      "provided": 3996,
      "discus": 3997,
      "glow": 3998,
      "obtain": 3999,
      "guilty": 4000,
      "rent": 4001,
      "hama": 4002,
      "craft": 4003,
      "highest": 4004,
      "advance": 4005,
      "fishing": 4006,
      "devoured": 4007,
      "views": 4008,
      "repeat": 4009,
      "invitation": 4010,
      "arranged": 4011,
      "guns": 4012,
      "semm": 4013,
      "trembling": 4014,
      "Rochefort": 4015,
      "Nevertheless": 4016,
      "descended": 4017,
      "anchor": 4018,
      "knocked": 4019,
      "About": 4020,
      "penetr": 4021,
      "Accord": 4022,
      "Presently": 4023,
      "Snæfell": 4024,
      "remarked": 4025,
      "Saknus": 4026,
      "Saknussemm": 4027,
      "WHI": 4028,
      "ggl": 4029,
      "harm": 4030,
      "ium": 4031,
      "phe": 4032,
      "rage": 4033,
      "sity": 4034,
      "takes": 4035,
      "renew": 4036,
      "atur": 4037,
      "llus": 4038,
      "beach": 4039,
      "wasn": 4040,
      "aloud": 4041,
      "terms": 4042,
      "agon": 4043,
      "hero": 4044,
      "acity": 4045,
      "weary": 4046,
      "conver": 4047,
      "amuse": 4048,
      "explan": 4049,
      "composed": 4050,
      "tract": 4051,
      "caution": 4052,
      "woke": 4053,
      "prodig": 4054,
      "Three": 4055,
      "discourse": 4056,
      "reef": 4057,
      "grad": 4058,
      "pearl": 4059,
      "lieu": 4060,
      "hunger": 4061,
      "guards": 4062,
      "calling": 4063,
      "crack": 4064,
      "marine": 4065,
      "fins": 4066,
      "ruin": 4067,
      "barrel": 4068,
      "questions": 4069,
      "severe": 4070,
      "ification": 4071,
      "buried": 4072,
      "expressed": 4073,
      "fellows": 4074,
      "crying": 4075,
      "lantern": 4076,
      "Dece": 4077,
      "brill": 4078,
      "evident": 4079,
      "impatience": 4080,
      "leaning": 4081,
      "cruel": 4082,
      "launch": 4083,
      "intelligence": 4084,
      "private": 4085,
      "horrible": 4086,
      "Richelieu": 4087,
      "100": 4088,
      "Fe": 4089,
      "Four": 4090,
      "Im": 4091,
      "Jan": 4092,
      "Le": 4093,
      "Ma": 4094,
      "NO": 4095,
      "Sun": 4096,
      "bones": 4097,
      "dam": 4098,
      "hence": 4099,
      "ipped": 4100,
      "rant": 4101,
      "vous": 4102,
      "wretched": 4103,
      "recover": 4104,
      "itate": 4105,
      "stance": 4106,
      "bearing": 4107,
      "utmost": 4108,
      "altogether": 4109,
      "lift": 4110,
      "rice": 4111,
      "deb": 4112,
      "abund": 4113,
      "contem": 4114,
      "features": 4115,
      "amb": 4116,
      "pol": 4117,
      "pole": 4118,
      "pool": 4119,
      "govern": 4120,
      "plent": 4121,
      "someone": 4122,
      "anyone": 4123,
      "spur": 4124,
      "grand": 4125,
      "kingdom": 4126,
      "headed": 4127,
      "supper": 4128,
      "forms": 4129,
      "dug": 4130,
      "cial": 4131,
      "eleph": 4132,
      "highly": 4133,
      "regions": 4134,
      "sixteen": 4135,
      "Before": 4136,
      "cript": 4137,
      "circle": 4138,
      "quarrel": 4139,
      "listening": 4140,
      "drop": 4141,
      "officers": 4142,
      "effects": 4143,
      "shade": 4144,
      "smooth": 4145,
      "precious": 4146,
      "More": 4147,
      "Small": 4148,
      "preserved": 4149,
      "tempted": 4150,
      "possibly": 4151,
      "suspicion": 4152,
      "beasts": 4153,
      "whispered": 4154,
      "soft": 4155,
      "jumped": 4156,
      "gathered": 4157,
      "exhausted": 4158,
      "fetch": 4159,
      "atmosphere": 4160,
      "couple": 4161,
      "introduced": 4162,
      "expense": 4163,
      "Finally": 4164,
      "prevail": 4165,
      "Cardinal": 4166,
      "false": 4167,
      "inhabited": 4168,
      "December": 4169,
      "\"’": 4170,
      "Gent": 4171,
      "Yok": 4172,
      "ahead": 4173,
      "bree": 4174,
      "fence": 4175,
      "naked": 4176,
      "ohama": 4177,
      "tour": 4178,
      "yard": 4179,
      "ows": 4180,
      "ables": 4181,
      "loose": 4182,
      "convey": 4183,
      "fears": 4184,
      "indi": 4185,
      "works": 4186,
      "oked": 4187,
      "tire": 4188,
      "whenever": 4189,
      "disposition": 4190,
      "space": 4191,
      "overcome": 4192,
      "longitude": 4193,
      "cler": 4194,
      "watching": 4195,
      "mighty": 4196,
      "nevertheless": 4197,
      "interval": 4198,
      "prefer": 4199,
      "scr": 4200,
      "Thatcher": 4201,
      "centi": 4202,
      "midnight": 4203,
      "struggl": 4204,
      "fearsome": 4205,
      "necessity": 4206,
      "floating": 4207,
      "playing": 4208,
      "laughed": 4209,
      "invited": 4210,
      "conducted": 4211,
      "born": 4212,
      "specim": 4213,
      "Under": 4214,
      "See": 4215,
      "possessed": 4216,
      "spotted": 4217,
      "studs": 4218,
      "travellers": 4219,
      "leaned": 4220,
      "suspected": 4221,
      "harpooner": 4222,
      "slipped": 4223,
      "dragged": 4224,
      "barely": 4225,
      "plunged": 4226,
      "suggest": 4227,
      "WHICH": 4228,
      "Yokohama": 4229,
      "Ben": 4230,
      "June": 4231,
      "mitted": 4232,
      "nin": 4233,
      "pin": 4234,
      "swall": 4235,
      "ware": 4236,
      "infinite": 4237,
      "rect": 4238,
      "asm": 4239,
      "metal": 4240,
      "measure": 4241,
      "belt": 4242,
      "rot": 4243,
      "iding": 4244,
      "uten": 4245,
      "unhappy": 4246,
      "mollus": 4247,
      "conde": 4248,
      "ics": 4249,
      "aps": 4250,
      "disposed": 4251,
      "gray": 4252,
      "office": 4253,
      "shame": 4254,
      "shoes": 4255,
      "intended": 4256,
      "clean": 4257,
      "heading": 4258,
      "backward": 4259,
      "flag": 4260,
      "izing": 4261,
      "genu": 4262,
      "corrid": 4263,
      "reasons": 4264,
      "fairly": 4265,
      "freedom": 4266,
      "resume": 4267,
      "clearly": 4268,
      "objects": 4269,
      "calmness": 4270,
      "salt": 4271,
      "increase": 4272,
      "belonging": 4273,
      "fancied": 4274,
      "thorough": 4275,
      "disturb": 4276,
      "deserted": 4277,
      "admiration": 4278,
      "explained": 4279,
      "Spaniard": 4280,
      "issue": 4281,
      "governor": 4282,
      "phenomenon": 4283,
      "grateful": 4284,
      "garden": 4285,
      ".,": 4286,
      "10": 4287,
      "Could": 4288,
      "Great": 4289,
      "Hen": 4290,
      "Has": 4291,
      "Near": 4292,
      "Oc": 4293,
      "Since": 4294,
      "crown": 4295,
      "dust": 4296,
      "eu": 4297,
      "ky": 4298,
      "ny": 4299,
      "pushed": 4300,
      "rag": 4301,
      "vres": 4302,
      "win": 4303,
      "inated": 4304,
      "inconven": 4305,
      "atin": 4306,
      "atri": 4307,
      "asking": 4308,
      "seamen": 4309,
      "lemen": 4310,
      "rol": 4311,
      "ads": 4312,
      "ador": 4313,
      "locom": 4314,
      "ifying": 4315,
      "commission": 4316,
      "pred": 4317,
      "repent": 4318,
      "glimp": 4319,
      "strain": 4320,
      "cargo": 4321,
      "ancy": 4322,
      "pearls": 4323,
      "attend": 4324,
      "science": 4325,
      "marve": 4326,
      "continue": 4327,
      "visitor": 4328,
      "servants": 4329,
      "ruined": 4330,
      "cutta": 4331,
      "central": 4332,
      "sixty": 4333,
      "arrive": 4334,
      "meaning": 4335,
      "wonders": 4336,
      "wondered": 4337,
      "fury": 4338,
      "furious": 4339,
      "sounded": 4340,
      "difficulties": 4341,
      "laughter": 4342,
      "produce": 4343,
      "despite": 4344,
      "earnestly": 4345,
      "impatient": 4346,
      "railway": 4347,
      "comprehend": 4348,
      "demanded": 4349,
      "instinct": 4350,
      "Calcutta": 4351,
      "secured": 4352,
      "impression": 4353,
      "accomplished": 4354,
      "splendid": 4355,
      "pilot": 4356,
      "contempl": 4357,
      "13": 4358,
      "Aug": 4359,
      "Farr": 4360,
      "Latin": 4361,
      "San": 4362,
      "Say": 4363,
      "South": 4364,
      "XIII": 4365,
      "YOU": 4366,
      "bast": 4367,
      "brown": 4368,
      "cart": 4369,
      "ding": 4370,
      "dared": 4371,
      "faces": 4372,
      "fasc": 4373,
      "grown": 4374,
      "mild": 4375,
      "ometer": 4376,
      "uge": 4377,
      "infer": 4378,
      "revenge": 4379,
      "tobac": 4380,
      "iture": 4381,
      "meal": 4382,
      "withstanding": 4383,
      "agut": 4384,
      "notes": 4385,
      "notion": 4386,
      "absor": 4387,
      "permission": 4388,
      "working": 4389,
      "somewhat": 4390,
      "geon": 4391,
      "hose": 4392,
      "pressing": 4393,
      "bran": 4394,
      "brand": 4395,
      "brid": 4396,
      "lighted": 4397,
      "minister": 4398,
      "hunter": 4399,
      "distinct": 4400,
      "heartily": 4401,
      "winds": 4402,
      "Soon": 4403,
      "singular": 4404,
      "boats": 4405,
      "sincere": 4406,
      "baron": 4407,
      "expectation": 4408,
      "uben": 4409,
      "warn": 4410,
      "Indians": 4411,
      "conviction": 4412,
      "league": 4413,
      "arrange": 4414,
      "Comte": 4415,
      "pistols": 4416,
      "patience": 4417,
      "haste": 4418,
      "burning": 4419,
      "rapidly": 4420,
      "Providence": 4421,
      "forests": 4422,
      "troop": 4423,
      "Steele": 4424,
      "shells": 4425,
      "Among": 4426,
      "graph": 4427,
      "comrades": 4428,
      "scientific": 4429,
      "mystery": 4430,
      "style": 4431,
      "January": 4432,
      "Gentlemen": 4433,
      "Farragut": 4434,
      "tobacco": 4435,
      "DE": 4436,
      "EU": 4437,
      "Thad": 4438,
      "aux": 4439,
      "cit": 4440,
      "garet": 4441,
      "marks": 4442,
      "pse": 4443,
      "pag": 4444,
      "sions": 4445,
      "äuben": 4446,
      "thou": 4447,
      "encour": 4448,
      "tober": 4449,
      "army": 4450,
      "leve": 4451,
      "libr": 4452,
      "ribut": 4453,
      "deus": 4454,
      "details": 4455,
      "active": 4456,
      "net": 4457,
      "feather": 4458,
      "sharks": 4459,
      "ctic": 4460,
      "illy": 4461,
      "exchange": 4462,
      "este": 4463,
      "pled": 4464,
      "docu": 4465,
      "worst": 4466,
      "daylight": 4467,
      "parted": 4468,
      "umn": 4469,
      "spark": 4470,
      "obv": 4471,
      "landed": 4472,
      "desper": 4473,
      "friendship": 4474,
      "hunt": 4475,
      "March": 4476,
      "Therefore": 4477,
      "laying": 4478,
      "genius": 4479,
      "dense": 4480,
      "refre": 4481,
      "doubtless": 4482,
      "stepped": 4483,
      "personal": 4484,
      "immediate": 4485,
      "starting": 4486,
      "equip": 4487,
      "movements": 4488,
      "Gräuben": 4489,
      "example": 4490,
      "accepted": 4491,
      "currents": 4492,
      "hesitation": 4493,
      "European": 4494,
      "Harper": 4495,
      "possibility": 4496,
      "pipe": 4497,
      "Robert": 4498,
      "tranquil": 4499,
      "oxy": 4500,
      "quantity": 4501,
      "October": 4502,
      "August": 4503,
      "Thaddeus": 4504,
      "11": 4505,
      "Afri": 4506,
      "IL": 4507,
      "IV": 4508,
      "Like": 4509,
      "RO": 4510,
      "Strait": 4511,
      "ban": 4512,
      "bul": 4513,
      "bade": 4514,
      "cro": 4515,
      "cated": 4516,
      "dwell": 4517,
      "god": 4518,
      "gust": 4519,
      "gress": 4520,
      "lam": 4521,
      "nice": 4522,
      "omy": 4523,
      "tes": 4524,
      "anno": 4525,
      "eds": 4526,
      "remo": 4527,
      "revol": 4528,
      "remove": 4529,
      "seaflo": 4530,
      "leis": 4531,
      "livres": 4532,
      "agger": 4533,
      "usually": 4534,
      "mod": 4535,
      "confined": 4536,
      "shudder": 4537,
      "cture": 4538,
      "antly": 4539,
      "compo": 4540,
      "doctor": 4541,
      "selfish": 4542,
      "tip": 4543,
      "process": 4544,
      "assur": 4545,
      "Thom": 4546,
      "umber": 4547,
      "diver": 4548,
      "branch": 4549,
      "landing": 4550,
      "remind": 4551,
      "Margaret": 4552,
      "northern": 4553,
      "committed": 4554,
      "reaching": 4555,
      "choice": 4556,
      "Dashwoods": 4557,
      "sailors": 4558,
      "bitter": 4559,
      "seconds": 4560,
      "interesting": 4561,
      "staying": 4562,
      "numerous": 4563,
      "remaining": 4564,
      "deeply": 4565,
      "excited": 4566,
      "truly": 4567,
      "apparen": 4568,
      "strike": 4569,
      "prepar": 4570,
      "Reform": 4571,
      "description": 4572,
      "hypo": 4573,
      "fatal": 4574,
      "jealous": 4575,
      "slightly": 4576,
      "attacked": 4577,
      "faint": 4578,
      "compassion": 4579,
      "plantation": 4580,
      "energy": 4581,
      "resistance": 4582,
      "cheerful": 4583,
      "abandoned": 4584,
      "benef": 4585,
      "cousin": 4586,
      "throat": 4587,
      "seventy": 4588,
      "mixed": 4589,
      "remembrance": 4590,
      "explanation": 4591,
      "prodigious": 4592,
      "genuine": 4593,
      "seafloor": 4594,
      "Bo": 4595,
      "Del": 4596,
      "Jes": 4597,
      "Lapor": 4598,
      "Master": 4599,
      "aid": 4600,
      "cli": 4601,
      "lack": 4602,
      "tions": 4603,
      "virt": 4604,
      "wager": 4605,
      "invent": 4606,
      "erup": 4607,
      "tos": 4608,
      "ingen": 4609,
      "stu": 4610,
      "chim": 4611,
      "chart": 4612,
      "alter": 4613,
      "noted": 4614,
      "whither": 4615,
      "local": 4616,
      "feed": 4617,
      "appe": 4618,
      "folly": 4619,
      "oused": 4620,
      "proposed": 4621,
      "hore": 4622,
      "raw": 4623,
      "forever": 4624,
      "foreseen": 4625,
      "pride": 4626,
      "serp": 4627,
      "bruary": 4628,
      "desir": 4629,
      "isely": 4630,
      "actual": 4631,
      "Monseigneur": 4632,
      "gives": 4633,
      "continent": 4634,
      "tors": 4635,
      "civil": 4636,
      "consent": 4637,
      "finish": 4638,
      "aught": 4639,
      "placing": 4640,
      "observing": 4641,
      "persons": 4642,
      "pretended": 4643,
      "cases": 4644,
      "chee": 4645,
      "busy": 4646,
      "pictures": 4647,
      "frag": 4648,
      "settle": 4649,
      "hastened": 4650,
      "instrument": 4651,
      "prevented": 4652,
      "separate": 4653,
      "meantime": 4654,
      "pursued": 4655,
      "besto": 4656,
      "attachment": 4657,
      "descend": 4658,
      "encounter": 4659,
      "stupef": 4660,
      "missary": 4661,
      "executioner": 4662,
      "July": 4663,
      "adventures": 4664,
      "organ": 4665,
      "February": 4666,
      "Sunday": 4667,
      "locomo": 4668,
      "bastion": 4669,
      "document": 4670,
      "Laporte": 4671,
      "\"--": 4672,
      "Ad": 4673,
      "Having": 4674,
      "Long": 4675,
      "Liver": 4676,
      "ME": 4677,
      "Sud": 4678,
      "Saw": 4679,
      "aly": 4680,
      "aver": 4681,
      "ares": 4682,
      "cable": 4683,
      "flight": 4684,
      "gently": 4685,
      "ome": 4686,
      "park": 4687,
      "rad": 4688,
      "scre": 4689,
      "zo": 4690,
      "ators": 4691,
      "ora": 4692,
      "esc": 4693,
      "secut": 4694,
      "halt": 4695,
      "lease": 4696,
      "alt": 4697,
      "lia": 4698,
      "unwilling": 4699,
      "notwithstanding": 4700,
      "lover": 4701,
      "constru": 4702,
      "amount": 4703,
      "pot": 4704,
      "coat": 4705,
      "ulated": 4706,
      "ulations": 4707,
      "raising": 4708,
      "rept": 4709,
      "everywhere": 4710,
      "shaking": 4711,
      "attended": 4712,
      "treated": 4713,
      "astern": 4714,
      "rooms": 4715,
      "signed": 4716,
      "sens": 4717,
      "smallest": 4718,
      "pause": 4719,
      "generous": 4720,
      "plains": 4721,
      "driving": 4722,
      "error": 4723,
      "maid": 4724,
      "gallop": 4725,
      "destru": 4726,
      "defend": 4727,
      "electricity": 4728,
      "habitation": 4729,
      "matters": 4730,
      "preserve": 4731,
      "observations": 4732,
      "frequent": 4733,
      "thankful": 4734,
      "sacred": 4735,
      "neighbor": 4736,
      "connection": 4737,
      "inquiry": 4738,
      "weapon": 4739,
      "monstrous": 4740,
      "cetacean": 4741,
      "principal": 4742,
      "Brazils": 4743,
      "tunnel": 4744,
      "Sherlock": 4745,
      "government": 4746,
      "library": 4747,
      "Liverpool": 4748,
      "21": 4749,
      "500": 4750,
      "Bay": 4751,
      "Judge": 4752,
      "List": 4753,
      "Ocean": 4754,
      "Those": 4755,
      "aunt": 4756,
      "cow": 4757,
      "hate": 4758,
      "lum": 4759,
      "ras": 4760,
      "tu": 4761,
      "tit": 4762,
      "tack": 4763,
      "inno": 4764,
      "insp": 4765,
      "env": 4766,
      "ense": 4767,
      "encourage": 4768,
      "oring": 4769,
      "itating": 4770,
      "hell": 4771,
      "vex": 4772,
      "pel": 4773,
      "shining": 4774,
      "poly": 4775,
      "goats": 4776,
      "exposed": 4777,
      "experi": 4778,
      "managed": 4779,
      "perfor": 4780,
      "blew": 4781,
      "glim": 4782,
      "monsters": 4783,
      "miner": 4784,
      "mercy": 4785,
      "waterways": 4786,
      "lasted": 4787,
      "surely": 4788,
      "solitary": 4789,
      "breaking": 4790,
      "addressed": 4791,
      "denly": 4792,
      "smaller": 4793,
      "considering": 4794,
      "susp": 4795,
      "ignation": 4796,
      "affected": 4797,
      "warrant": 4798,
      "sorrow": 4799,
      "gloom": 4800,
      "increasing": 4801,
      "leading": 4802,
      "ING": 4803,
      "variety": 4804,
      "require": 4805,
      "tavern": 4806,
      "consequently": 4807,
      "conclusion": 4808,
      "travelling": 4809,
      "lucky": 4810,
      "shadows": 4811,
      "breathe": 4812,
      "encountered": 4813,
      "atmospher": 4814,
      "rendered": 4815,
      "religion": 4816,
      "obstacle": 4817,
      "vertical": 4818,
      "fatigue": 4819,
      "assumed": 4820,
      "adversary": 4821,
      "plenty": 4822,
      "individ": 4823,
      "branches": 4824,
      "composure": 4825,
      "locomotive": 4826,
      "Suddenly": 4827,
      "Sawyer": 4828,
      "Cl": 4829,
      "Him": 4830,
      "HER": 4831,
      "Satur": 4832,
      "Xury": 4833,
      "daz": 4834,
      "gay": 4835,
      "gers": 4836,
      "hedge": 4837,
      "lves": 4838,
      "valley": 4839,
      "thom": 4840,
      "inn": 4841,
      "attempted": 4842,
      "ashore": 4843,
      "arch": 4844,
      "lled": 4845,
      "haul": 4846,
      "begged": 4847,
      "vember": 4848,
      "uted": 4849,
      "improve": 4850,
      "agitation": 4851,
      "wet": 4852,
      "keeper": 4853,
      "locked": 4854,
      "conqu": 4855,
      "feast": 4856,
      "suit": 4857,
      "poison": 4858,
      "residence": 4859,
      "excur": 4860,
      "arest": 4861,
      "perform": 4862,
      "somebody": 4863,
      "seeking": 4864,
      "geolog": 4865,
      "Heaven": 4866,
      "ophy": 4867,
      "canic": 4868,
      "dismal": 4869,
      "handed": 4870,
      "diving": 4871,
      "fathom": 4872,
      "lessly": 4873,
      "November": 4874,
      "berry": 4875,
      "founded": 4876,
      "appearing": 4877,
      "gulf": 4878,
      "turns": 4879,
      "hearts": 4880,
      "corpse": 4881,
      "fortunately": 4882,
      "licity": 4883,
      "wishing": 4884,
      "price": 4885,
      "volcanic": 4886,
      "understanding": 4887,
      "admitted": 4888,
      "examining": 4889,
      "extended": 4890,
      "girls": 4891,
      "dreams": 4892,
      "hastily": 4893,
      "furniture": 4894,
      "limbs": 4895,
      "AND": 4896,
      "sufficiently": 4897,
      "Alas": 4898,
      "obeyed": 4899,
      "comrade": 4900,
      "represent": 4901,
      "drowned": 4902,
      "enthusiasm": 4903,
      "restored": 4904,
      "Accordingly": 4905,
      "elephant": 4906,
      "corridor": 4907,
      "citiz": 4908,
      "oxygen": 4909,
      "individual": 4910,
      "dazz": 4911,
      ",’": 4912,
      "12": 4913,
      "Apri": 4914,
      "Sever": 4915,
      "Wat": 4916,
      "banks": 4917,
      "dain": 4918,
      "dried": 4919,
      "ev": 4920,
      "etern": 4921,
      "flying": 4922,
      "ib": 4923,
      "oo": 4924,
      "ray": 4925,
      "sch": 4926,
      "tum": 4927,
      "uit": 4928,
      "vit": 4929,
      "independ": 4930,
      "oux": 4931,
      "leen": 4932,
      "chron": 4933,
      "cep": 4934,
      "adop": 4935,
      "unexpected": 4936,
      "deaf": 4937,
      "accompany": 4938,
      "ody": 4939,
      "estic": 4940,
      "estate": 4941,
      "perceiving": 4942,
      "teach": 4943,
      "ulous": 4944,
      "ulate": 4945,
      "cavern": 4946,
      "aff": 4947,
      "print": 4948,
      "spend": 4949,
      "undertaking": 4950,
      "gram": 4951,
      "store": 4952,
      "carpet": 4953,
      "reduced": 4954,
      "closing": 4955,
      "actually": 4956,
      "contented": 4957,
      "begun": 4958,
      "readily": 4959,
      "stem": 4960,
      "joining": 4961,
      "refuge": 4962,
      "phys": 4963,
      "relations": 4964,
      "tric": 4965,
      "wheel": 4966,
      "footsteps": 4967,
      "prompt": 4968,
      "column": 4969,
      "picture": 4970,
      "sunk": 4971,
      "burg": 4972,
      "enterpr": 4973,
      "terrified": 4974,
      "Parsee": 4975,
      "pistol": 4976,
      "borne": 4977,
      "affectionate": 4978,
      "declare": 4979,
      "inclined": 4980,
      "canoe": 4981,
      "beside": 4982,
      "basket": 4983,
      "consult": 4984,
      "foolish": 4985,
      "Francisco": 4986,
      "delicate": 4987,
      "candle": 4988,
      "distinguish": 4989,
      "darted": 4990,
      "lotte": 4991,
      "indifference": 4992,
      "hitherto": 4993,
      "Charlotte": 4994,
      "brilliant": 4995,
      "breeze": 4996,
      "condem": 4997,
      "Listen": 4998,
      "April": 4999,
      "Several": 5000,
      "!”": 5001,
      "Bast": 5002,
      "CE": 5003,
      "IT": 5004,
      "Pardon": 5005,
      "Surely": 5006,
      "aford": 5007,
      "awoke": 5008,
      "bush": 5009,
      "fan": 5010,
      "gif": 5011,
      "kitch": 5012,
      "lat": 5013,
      "ram": 5014,
      "swell": 5015,
      "tto": 5016,
      "tight": 5017,
      "ude": 5018,
      "vable": 5019,
      "vice": 5020,
      "thy": 5021,
      "lling": 5022,
      "seld": 5023,
      "wicked": 5024,
      "robe": 5025,
      "ceiling": 5026,
      "idents": 5027,
      "irr": 5028,
      "urged": 5029,
      "hers": 5030,
      "accent": 5031,
      "ussac": 5032,
      "amiable": 5033,
      "suits": 5034,
      "popul": 5035,
      "qual": 5036,
      "respon": 5037,
      "indul": 5038,
      "hoping": 5039,
      "prim": 5040,
      "eles": 5041,
      "umb": 5042,
      "cles": 5043,
      "shaped": 5044,
      "acting": 5045,
      "berg": 5046,
      "counsel": 5047,
      "intent": 5048,
      "clever": 5049,
      "siege": 5050,
      "happily": 5051,
      "natic": 5052,
      "native": 5053,
      "vision": 5054,
      "kindly": 5055,
      "points": 5056,
      "cutting": 5057,
      "relation": 5058,
      "azing": 5059,
      "amongst": 5060,
      "entertained": 5061,
      "closely": 5062,
      "summer": 5063,
      "examine": 5064,
      "satisfy": 5065,
      "occasions": 5066,
      "probability": 5067,
      "Chris": 5068,
      "staircase": 5069,
      "masses": 5070,
      "burned": 5071,
      "regarded": 5072,
      "canoes": 5073,
      "Icelandic": 5074,
      "music": 5075,
      "punishment": 5076,
      "swam": 5077,
      "vreuse": 5078,
      "Steeles": 5079,
      "Carnatic": 5080,
      "swiftly": 5081,
      "musket": 5082,
      "building": 5083,
      "recommended": 5084,
      "folded": 5085,
      "apprehensions": 5086,
      "repaired": 5087,
      "wandered": 5088,
      "DIEU": 5089,
      "elegant": 5090,
      "origin": 5091,
      "Chevreuse": 5092,
      "affliction": 5093,
      "specimens": 5094,
      "Africa": 5095,
      "leisure": 5096,
      "Thomas": 5097,
      "Delaford": 5098,
      "Bastille": 5099,
      "seldom": 5100,
      "Bet": 5101,
      "Dess": 5102,
      "Each": 5103,
      "Jussac": 5104,
      "Pap": 5105,
      "Right": 5106,
      "base": 5107,
      "eb": 5108,
      "fare": 5109,
      "len": 5110,
      "mate": 5111,
      "mers": 5112,
      "narr": 5113,
      "ore": 5114,
      "oath": 5115,
      "ride": 5116,
      "sme": 5117,
      "tally": 5118,
      "ued": 5119,
      "vague": 5120,
      "thread": 5121,
      "thesis": 5122,
      "tori": 5123,
      "toler": 5124,
      "llen": 5125,
      "heels": 5126,
      "nod": 5127,
      "nois": 5128,
      "agony": 5129,
      "acon": 5130,
      "contempt": 5131,
      "shru": 5132,
      "quay": 5133,
      "golia": 5134,
      "perple": 5135,
      "performed": 5136,
      "Thank": 5137,
      "Thanks": 5138,
      "parties": 5139,
      "spy": 5140,
      "glor": 5141,
      "grass": 5142,
      "series": 5143,
      "obtained": 5144,
      "mony": 5145,
      "goodness": 5146,
      "counter": 5147,
      "curate": 5148,
      "friendly": 5149,
      "merid": 5150,
      "created": 5151,
      "wants": 5152,
      "ashing": 5153,
      "ashes": 5154,
      "Mongolia": 5155,
      "march": 5156,
      "tons": 5157,
      "philo": 5158,
      "confused": 5159,
      "purse": 5160,
      "ails": 5161,
      "reasonable": 5162,
      "eighteen": 5163,
      "fearful": 5164,
      "facts": 5165,
      "particulars": 5166,
      "entertain": 5167,
      "swept": 5168,
      "flood": 5169,
      "stronger": 5170,
      "strongly": 5171,
      "steamers": 5172,
      "secrets": 5173,
      "drove": 5174,
      "judged": 5175,
      "pains": 5176,
      "summit": 5177,
      "decide": 5178,
      "similar": 5179,
      "hatred": 5180,
      "strict": 5181,
      "striking": 5182,
      "ballast": 5183,
      "rapidity": 5184,
      "warmly": 5185,
      "Everything": 5186,
      "muttered": 5187,
      "ascended": 5188,
      "breathing": 5189,
      "cellar": 5190,
      "religious": 5191,
      "distinguished": 5192,
      "weapons": 5193,
      "comparison": 5194,
      "fierce": 5195,
      "puzz": 5196,
      "saddle": 5197,
      "abbess": 5198,
      "sacrifice": 5199,
      "antechamber": 5200,
      "material": 5201,
      "credit": 5202,
      "profession": 5203,
      "gradually": 5204,
      "destruction": 5205,
      "suspended": 5206,
      "Saturday": 5207,
      "perplex": 5208,
      "philoso": 5209,
      "Ano": 5210,
      "Nob": 5211,
      "Sil": 5212,
      "Spain": 5213,
      "ale": 5214,
      "bark": 5215,
      "daw": 5216,
      "egg": 5217,
      "fant": 5218,
      "fra": 5219,
      "gazed": 5220,
      "jac": 5221,
      "kis": 5222,
      "lake": 5223,
      "nut": 5224,
      "ost": 5225,
      "tame": 5226,
      "tured": 5227,
      "task": 5228,
      "uart": 5229,
      "vac": 5230,
      "tha": 5231,
      "inate": 5232,
      "income": 5233,
      "revi": 5234,
      "assa": 5235,
      "beacon": 5236,
      "whir": 5237,
      "aground": 5238,
      "unately": 5239,
      "unpleasant": 5240,
      "herd": 5241,
      "ource": 5242,
      "conject": 5243,
      "ames": 5244,
      "ouncing": 5245,
      "essart": 5246,
      "coo": 5247,
      "artic": 5248,
      "trade": 5249,
      "wolves": 5250,
      "tie": 5251,
      "cannon": 5252,
      "umes": 5253,
      "disappointed": 5254,
      "dies": 5255,
      "gras": 5256,
      "everyone": 5257,
      "useum": 5258,
      "firmed": 5259,
      "wherever": 5260,
      "actions": 5261,
      "intri": 5262,
      "voices": 5263,
      "interro": 5264,
      "ferent": 5265,
      "hearted": 5266,
      "believing": 5267,
      "natives": 5268,
      "addressing": 5269,
      "torn": 5270,
      "torrent": 5271,
      "cordi": 5272,
      "eff": 5273,
      "angel": 5274,
      "refuse": 5275,
      "skir": 5276,
      "capital": 5277,
      "lication": 5278,
      "expecting": 5279,
      "thousands": 5280,
      "shortly": 5281,
      "member": 5282,
      "Stuart": 5283,
      "complex": 5284,
      "reality": 5285,
      "lively": 5286,
      "Pole": 5287,
      "devilfish": 5288,
      "respectable": 5289,
      "traver": 5290,
      "preparing": 5291,
      "reckoning": 5292,
      "trembled": 5293,
      "narwhale": 5294,
      "passageway": 5295,
      "hills": 5296,
      "match": 5297,
      "baleen": 5298,
      "formerly": 5299,
      "daughters": 5300,
      "persuaded": 5301,
      "communication": 5302,
      "weighed": 5303,
      "muskets": 5304,
      "messeng": 5305,
      "moderate": 5306,
      "Fortunately": 5307,
      "German": 5308,
      "hazard": 5309,
      "politeness": 5310,
      "angled": 5311,
      "established": 5312,
      "preceding": 5313,
      "swimming": 5314,
      "amusement": 5315,
      "thoroughly": 5316,
      "adorned": 5317,
      "esteem": 5318,
      "annoy": 5319,
      "preparations": 5320,
      "kitchen": 5321,
      "Dessessart": 5322,
      "Another": 5323,
      "Nobody": 5324,
      "23": 5325,
      "Bun": 5326,
      "Cleve": 5327,
      "Dan": 5328,
      "Gover": 5329,
      "Mal": 5330,
      "ST": 5331,
      "Spe": 5332,
      "Speak": 5333,
      "Wa": 5334,
      "creek": 5335,
      "dining": 5336,
      "dangers": 5337,
      "eating": 5338,
      "fla": 5339,
      "hut": 5340,
      "ians": 5341,
      "lof": 5342,
      "mute": 5343,
      "oon": 5344,
      "pum": 5345,
      "poured": 5346,
      "rank": 5347,
      "soften": 5348,
      "taught": 5349,
      "von": 5350,
      "wis": 5351,
      "wart": 5352,
      "whel": 5353,
      "inable": 5354,
      "theory": 5355,
      "ona": 5356,
      "onder": 5357,
      "atives": 5358,
      "ascertain": 5359,
      "orrow": 5360,
      "seed": 5361,
      "leberry": 5362,
      "stal": 5363,
      "stuff": 5364,
      "beating": 5365,
      "whit": 5366,
      "chests": 5367,
      "entreat": 5368,
      "solic": 5369,
      "owe": 5370,
      "rival": 5371,
      "deeper": 5372,
      "acing": 5373,
      "ache": 5374,
      "actory": 5375,
      "negro": 5376,
      "ilities": 5377,
      "contain": 5378,
      "appar": 5379,
      "cting": 5380,
      "existed": 5381,
      "maneu": 5382,
      "commissary": 5383,
      "plus": 5384,
      "doll": 5385,
      "progress": 5386,
      "anywhere": 5387,
      "prin": 5388,
      "oped": 5389,
      "disput": 5390,
      "Any": 5391,
      "abouts": 5392,
      "eping": 5393,
      "letting": 5394,
      "gracious": 5395,
      "stopping": 5396,
      "blame": 5397,
      "useful": 5398,
      "anges": 5399,
      "desert": 5400,
      "uding": 5401,
      "merchant": 5402,
      "thinks": 5403,
      "Tomorrow": 5404,
      "steady": 5405,
      "nights": 5406,
      "cards": 5407,
      "winding": 5408,
      "follows": 5409,
      "rested": 5410,
      "consisted": 5411,
      "confusion": 5412,
      "sailor": 5413,
      "Huckleberry": 5414,
      "colored": 5415,
      "wonderfully": 5416,
      "consideration": 5417,
      "completed": 5418,
      "convul": 5419,
      "humanity": 5420,
      "male": 5421,
      "extinct": 5422,
      "applied": 5423,
      "Devon": 5424,
      "reckoned": 5425,
      "OUT": 5426,
      "guarded": 5427,
      "Frenchman": 5428,
      "warmth": 5429,
      "pursue": 5430,
      "enjoyment": 5431,
      "weakness": 5432,
      "favourite": 5433,
      "neighbour": 5434,
      "exertion": 5435,
      "threatening": 5436,
      "revealed": 5437,
      "indifferent": 5438,
      "major": 5439,
      "sympath": 5440,
      "fishermen": 5441,
      "Japanese": 5442,
      "SHE": 5443,
      "glimpse": 5444,
      "pagod": 5445,
      "equipment": 5446,
      "chimney": 5447,
      "kissed": 5448,
      "Cleveland": 5449,
      "Patri": 5450,
      "Sep": 5451,
      "Sav": 5452,
      "fitted": 5453,
      "jaws": 5454,
      "kiss": 5455,
      "lately": 5456,
      "oh": 5457,
      "praise": 5458,
      "sending": 5459,
      "uce": 5460,
      "wer": 5461,
      "wake": 5462,
      "winter": 5463,
      "wretch": 5464,
      "insol": 5465,
      "retire": 5466,
      "toms": 5467,
      "asha": 5468,
      "seal": 5469,
      "haven": 5470,
      "stif": 5471,
      "agitated": 5472,
      "abdu": 5473,
      "load": 5474,
      "upward": 5475,
      "amaze": 5476,
      "sugar": 5477,
      "copper": 5478,
      "rescent": 5479,
      "persecut": 5480,
      "pless": 5481,
      "endation": 5482,
      "bosom": 5483,
      "proportion": 5484,
      "partial": 5485,
      "retches": 5486,
      "spared": 5487,
      "glit": 5488,
      "press": 5489,
      "grade": 5490,
      "shaken": 5491,
      "passport": 5492,
      "goods": 5493,
      "cursed": 5494,
      "armchair": 5495,
      "Martha": 5496,
      "embr": 5497,
      "missing": 5498,
      "treas": 5499,
      "fourth": 5500,
      "giant": 5501,
      "crushed": 5502,
      "restri": 5503,
      "correct": 5504,
      "visited": 5505,
      "doubts": 5506,
      "phy": 5507,
      "depri": 5508,
      "sensi": 5509,
      "parall": 5510,
      "accused": 5511,
      "Toby": 5512,
      "helped": 5513,
      "thirst": 5514,
      "grounds": 5515,
      "harvest": 5516,
      "colour": 5517,
      "startled": 5518,
      "buy": 5519,
      "sounds": 5520,
      "panels": 5521,
      "cats": 5522,
      "calmly": 5523,
      "heavily": 5524,
      "incred": 5525,
      "sorts": 5526,
      "situated": 5527,
      "succession": 5528,
      "accordingly": 5529,
      "blowing": 5530,
      "groan": 5531,
      "precisely": 5532,
      "employment": 5533,
      "186": 5534,
      "suspicions": 5535,
      "protection": 5536,
      "sinking": 5537,
      "stupid": 5538,
      "fields": 5539,
      "yielded": 5540,
      "........": 5541,
      "apprehen": 5542,
      "combat": 5543,
      "vigor": 5544,
      "elegance": 5545,
      "submerged": 5546,
      "submersible": 5547,
      "sperm": 5548,
      "acknowledged": 5549,
      "responded": 5550,
      "exercise": 5551,
      "desperate": 5552,
      "zoophy": 5553,
      "escort": 5554,
      "luminous": 5555,
      "performan": 5556,
      "Club": 5557,
      "excursion": 5558,
      "Christi": 5559,
      "meridian": 5560,
      "puzzled": 5561,
      "complexion": 5562,
      "Devonshire": 5563,
      "Patrick": 5564,
      "ashamed": 5565,
      "!’": 5566,
      "28": 5567,
      "Dou": 5568,
      "Hold": 5569,
      "Trem": 5570,
      "UR": 5571,
      "Van": 5572,
      "ald": 5573,
      "cam": 5574,
      "cret": 5575,
      "duch": 5576,
      "gs": 5577,
      "hanged": 5578,
      "lou": 5579,
      "lux": 5580,
      "map": 5581,
      "pup": 5582,
      "padd": 5583,
      "ration": 5584,
      "rudder": 5585,
      "snat": 5586,
      "vap": 5587,
      "vated": 5588,
      "inating": 5589,
      "thee": 5590,
      "rear": 5591,
      "receiving": 5592,
      "ender": 5593,
      "enclo": 5594,
      "total": 5595,
      "aspect": 5596,
      "mew": 5597,
      "stic": 5598,
      "changing": 5599,
      "rode": 5600,
      "irres": 5601,
      "uries": 5602,
      "uncertain": 5603,
      "united": 5604,
      "rib": 5605,
      "rig": 5606,
      "located": 5607,
      "constit": 5608,
      "thermo": 5609,
      "amazed": 5610,
      "essence": 5611,
      "cts": 5612,
      "resc": 5613,
      "exhib": 5614,
      "manage": 5615,
      "anting": 5616,
      "commen": 5617,
      "area": 5618,
      "tea": 5619,
      "trace": 5620,
      "endous": 5621,
      "bolt": 5622,
      "oking": 5623,
      "provid": 5624,
      "overwhel": 5625,
      "longboat": 5626,
      "stomach": 5627,
      "brush": 5628,
      "obed": 5629,
      "lands": 5630,
      "closet": 5631,
      "special": 5632,
      "descent": 5633,
      "shock": 5634,
      "ledge": 5635,
      "linen": 5636,
      "fortnight": 5637,
      "voc": 5638,
      "interview": 5639,
      "contact": 5640,
      "steel": 5641,
      "Neither": 5642,
      "calls": 5643,
      "breed": 5644,
      "element": 5645,
      "assem": 5646,
      "substance": 5647,
      "Once": 5648,
      "fortunes": 5649,
      "senses": 5650,
      "trial": 5651,
      "careful": 5652,
      "roads": 5653,
      "volume": 5654,
      "gravity": 5655,
      "murmur": 5656,
      "objection": 5657,
      "supplied": 5658,
      "extrem": 5659,
      "catching": 5660,
      "invest": 5661,
      "troubles": 5662,
      "hatche": 5663,
      "badly": 5664,
      "laws": 5665,
      "recognize": 5666,
      "instructions": 5667,
      "balls": 5668,
      "showing": 5669,
      "confessed": 5670,
      "Guardsmen": 5671,
      "avoided": 5672,
      "unique": 5673,
      "consul": 5674,
      "unfortunately": 5675,
      "Although": 5676,
      "appreci": 5677,
      "groups": 5678,
      "concerns": 5679,
      "pelled": 5680,
      "Hotel": 5681,
      "tenderness": 5682,
      "guessed": 5683,
      "inquiries": 5684,
      "Rochellais": 5685,
      "blessed": 5686,
      "dimin": 5687,
      "Robin": 5688,
      "reserved": 5689,
      "elder": 5690,
      "eldest": 5691,
      "PARDIEU": 5692,
      "milk": 5693,
      "bullets": 5694,
      "Quite": 5695,
      "Henri": 5696,
      "serpent": 5697,
      "Silence": 5698,
      "coolly": 5699,
      "messenger": 5700,
      "Wait": 5701,
      "parallel": 5702,
      "irresis": 5703,
      "27": 5704,
      "AD": 5705,
      "East": 5706,
      "Far": 5707,
      "Gre": 5708,
      "Ham": 5709,
      "NE": 5710,
      "OG": 5711,
      "Oma": 5712,
      "River": 5713,
      "daring": 5714,
      "fi": 5715,
      "gau": 5716,
      "hint": 5717,
      "lst": 5718,
      "pill": 5719,
      "pure": 5720,
      "pical": 5721,
      "phosp": 5722,
      "rash": 5723,
      "tend": 5724,
      "vor": 5725,
      "wings": 5726,
      "iny": 5727,
      "involunt": 5728,
      "ouille": 5729,
      "itive": 5730,
      "sealed": 5731,
      "metric": 5732,
      "stars": 5733,
      "staring": 5734,
      "belly": 5735,
      "chances": 5736,
      "ception": 5737,
      "forbid": 5738,
      "liked": 5739,
      "detail": 5740,
      "acknowledge": 5741,
      "keen": 5742,
      "negle": 5743,
      "whilst": 5744,
      "abled": 5745,
      "abys": 5746,
      "consp": 5747,
      "confirmed": 5748,
      "shif": 5749,
      "sures": 5750,
      "poet": 5751,
      "etta": 5752,
      "asted": 5753,
      "tear": 5754,
      "sia": 5755,
      "sip": 5756,
      "plate": 5757,
      "boil": 5758,
      "canni": 5759,
      "clas": 5760,
      "grams": 5761,
      "strangers": 5762,
      "merit": 5763,
      "merch": 5764,
      "waist": 5765,
      "sche": 5766,
      "scent": 5767,
      "smart": 5768,
      "shipwreck": 5769,
      "lowered": 5770,
      "sons": 5771,
      "breach": 5772,
      "avail": 5773,
      "marvel": 5774,
      "beds": 5775,
      "finest": 5776,
      "powers": 5777,
      "continually": 5778,
      "centric": 5779,
      "wrapped": 5780,
      "confident": 5781,
      "bargain": 5782,
      "barley": 5783,
      "capti": 5784,
      "tries": 5785,
      "personage": 5786,
      "harbour": 5787,
      "Does": 5788,
      "block": 5789,
      "drift": 5790,
      "hurled": 5791,
      "elsewhere": 5792,
      "ridicul": 5793,
      "examination": 5794,
      "extent": 5795,
      "satisfactory": 5796,
      "trains": 5797,
      "freely": 5798,
      "searched": 5799,
      "tremble": 5800,
      "inquired": 5801,
      "evidence": 5802,
      "transport": 5803,
      "HIS": 5804,
      "basin": 5805,
      "flowers": 5806,
      "favourable": 5807,
      "launched": 5808,
      "measures": 5809,
      "ENT": 5810,
      "masters": 5811,
      "persist": 5812,
      "reserve": 5813,
      "fulf": 5814,
      "doubtedly": 5815,
      "granted": 5816,
      "polite": 5817,
      "utenant": 5818,
      "crowns": 5819,
      "stupefied": 5820,
      "experienced": 5821,
      "eternal": 5822,
      "condemned": 5823,
      "frame": 5824,
      "lofty": 5825,
      "amazement": 5826,
      "Tremouille": 5827,
      "duchess": 5828,
      "rescue": 5829,
      "Henrietta": 5830,
      "Omaha": 5831,
      "300": 5832,
      "AY": 5833,
      "Agra": 5834,
      "Dum": 5835,
      "Fir": 5836,
      "ION": 5837,
      "Mis": 5838,
      "None": 5839,
      "Next": 5840,
      "Park": 5841,
      "Twenty": 5842,
      "Ur": 5843,
      "Wel": 5844,
      "XV": 5845,
      "bits": 5846,
      "cig": 5847,
      "date": 5848,
      "final": 5849,
      "gang": 5850,
      "lerable": 5851,
      "mart": 5852,
      "na": 5853,
      "py": 5854,
      "rush": 5855,
      "swo": 5856,
      "ua": 5857,
      "xim": 5858,
      "yonder": 5859,
      "zing": 5860,
      "recon": 5861,
      "rejo": 5862,
      "asy": 5863,
      "sex": 5864,
      "leaped": 5865,
      "whar": 5866,
      "roar": 5867,
      "advis": 5868,
      "lip": 5869,
      "terrestri": 5870,
      "rivers": 5871,
      "accom": 5872,
      "accomp": 5873,
      "loqu": 5874,
      "loves": 5875,
      "consol": 5876,
      "shrew": 5877,
      "suited": 5878,
      "quiver": 5879,
      "pla": 5880,
      "cavalier": 5881,
      "prosper": 5882,
      "proposal": 5883,
      "holy": 5884,
      "Hel": 5885,
      "practi": 5886,
      "thanked": 5887,
      "handle": 5888,
      "spong": 5889,
      "strained": 5890,
      "serene": 5891,
      "blance": 5892,
      "beforehand": 5893,
      "hungry": 5894,
      "fling": 5895,
      "flatter": 5896,
      "reader": 5897,
      "ferry": 5898,
      "belief": 5899,
      "fourteen": 5900,
      "continents": 5901,
      "tember": 5902,
      "deny": 5903,
      "century": 5904,
      "mists": 5905,
      "Willi": 5906,
      "needle": 5907,
      "drank": 5908,
      "promising": 5909,
      "prize": 5910,
      "sweat": 5911,
      "frank": 5912,
      "announce": 5913,
      "coasts": 5914,
      "contrad": 5915,
      "gloomy": 5916,
      "property": 5917,
      "dreamed": 5918,
      "departed": 5919,
      "furnish": 5920,
      "superb": 5921,
      "limit": 5922,
      "compliments": 5923,
      "prayer": 5924,
      "transp": 5925,
      "explic": 5926,
      "climb": 5927,
      "grie": 5928,
      "travelled": 5929,
      "Proctor": 5930,
      "drinking": 5931,
      "knock": 5932,
      "calculated": 5933,
      "slip": 5934,
      "devotion": 5935,
      "softly": 5936,
      "instance": 5937,
      "resembled": 5938,
      "threatened": 5939,
      "coolness": 5940,
      "connected": 5941,
      "dimensions": 5942,
      "efforts": 5943,
      "graceful": 5944,
      "recollection": 5945,
      "modern": 5946,
      "Spaniards": 5947,
      "intimate": 5948,
      "slope": 5949,
      "feverish": 5950,
      "arguments": 5951,
      "trunks": 5952,
      "shelter": 5953,
      "reefs": 5954,
      "intervals": 5955,
      "struggling": 5956,
      "swallowed": 5957,
      "inconvenience": 5958,
      "bridge": 5959,
      "tossed": 5960,
      "studied": 5961,
      "sensation": 5962,
      "atmospheres": 5963,
      "Watson": 5964,
      "dollars": 5965,
      "pagoda": 5966,
      "September": 5967,
      "gauge": 5968,
      "First": 5969,
      "terrestrial": 5970,
      "accommod": 5971,
      "practice": 5972,
      "19": 5973,
      "40": 5974,
      "AM": 5975,
      "Ay": 5976,
      "Bou": 5977,
      "Bah": 5978,
      "Count": 5979,
      "Des": 5980,
      "Grace": 5981,
      "Mad": 5982,
      "OS": 5983,
      "Ran": 5984,
      "Sa": 5985,
      "Sing": 5986,
      "Were": 5987,
      "awaited": 5988,
      "bone": 5989,
      "bars": 5990,
      "cree": 5991,
      "dumb": 5992,
      "ee": 5993,
      "fed": 5994,
      "fought": 5995,
      "gin": 5996,
      "ially": 5997,
      "jah": 5998,
      "kn": 5999,
      "lon": 6000,
      "mend": 6001,
      "nig": 6002,
      "rust": 6003,
      "ssil": 6004,
      "tap": 6005,
      "ule": 6006,
      "uction": 6007,
      "ino": 6008,
      "infamous": 6009,
      "oul": 6010,
      "educ": 6011,
      "oned": 6012,
      "reme": 6013,
      "recalled": 6014,
      "repose": 6015,
      "associ": 6016,
      "ories": 6017,
      "inging": 6018,
      "seals": 6019,
      "stable": 6020,
      "stage": 6021,
      "chat": 6022,
      "vet": 6023,
      "utions": 6024,
      "aling": 6025,
      "ghost": 6026,
      "liz": 6027,
      "det": 6028,
      "deter": 6029,
      "definite": 6030,
      "develo": 6031,
      "access": 6032,
      "nephe": 6033,
      "modest": 6034,
      "lomew": 6035,
      "upright": 6036,
      "congrat": 6037,
      "icing": 6038,
      "amped": 6039,
      "coach": 6040,
      "goon": 6041,
      "eteen": 6042,
      "illon": 6043,
      "fossil": 6044,
      "perish": 6045,
      "ounded": 6046,
      "trap": 6047,
      "Arri": 6048,
      "propri": 6049,
      "tholomew": 6050,
      "ieu": 6051,
      "iece": 6052,
      "disposal": 6053,
      "ached": 6054,
      "glanced": 6055,
      "stolen": 6056,
      "comprom": 6057,
      "mons": 6058,
      "shake": 6059,
      "desol": 6060,
      "lined": 6061,
      "remarks": 6062,
      "supreme": 6063,
      "guided": 6064,
      "precaution": 6065,
      "rence": 6066,
      "covering": 6067,
      "villain": 6068,
      "consist": 6069,
      "ruins": 6070,
      "continuing": 6071,
      "awake": 6072,
      "barbar": 6073,
      "signific": 6074,
      "Beth": 6075,
      "relate": 6076,
      "falls": 6077,
      "careless": 6078,
      "check": 6079,
      "checked": 6080,
      "comfortably": 6081,
      "traveling": 6082,
      "directions": 6083,
      "violently": 6084,
      "troubled": 6085,
      "conductor": 6086,
      "incident": 6087,
      "application": 6088,
      "China": 6089,
      "fleet": 6090,
      "patron": 6091,
      "system": 6092,
      "labor": 6093,
      "sufferings": 6094,
      "paying": 6095,
      "characters": 6096,
      "enjoyed": 6097,
      "doublet": 6098,
      "sharply": 6099,
      "consulted": 6100,
      "firmly": 6101,
      "costume": 6102,
      "tempor": 6103,
      "tempest": 6104,
      "fighting": 6105,
      "endeavored": 6106,
      "ology": 6107,
      "relieved": 6108,
      "stirred": 6109,
      "utterly": 6110,
      "grapes": 6111,
      "persuas": 6112,
      "measured": 6113,
      "vanished": 6114,
      "message": 6115,
      "audience": 6116,
      "hidden": 6117,
      "consciousness": 6118,
      "cautiously": 6119,
      "Bartholomew": 6120,
      "fiery": 6121,
      "injured": 6122,
      "destroyed": 6123,
      "positive": 6124,
      "positively": 6125,
      "inhabitants": 6126,
      "prevailed": 6127,
      "nineteen": 6128,
      "mollusks": 6129,
      "absorbed": 6130,
      "obviously": 6131,
      "average": 6132,
      "innocent": 6133,
      "inspired": 6134,
      "dazzling": 6135,
      "bushes": 6136,
      "intentions": 6137,
      "eggs": 6138,
      "negroes": 6139,
      "sympathy": 6140,
      "investig": 6141,
      "Hamburg": 6142,
      "Urville": 6143,
      "shrewd": 6144,
      "Rangoon": 6145,
      "nephew": 6146,
      "200": 6147,
      "50": 6148,
      "AU": 6149,
      "Aur": 6150,
      "BLE": 6151,
      "GE": 6152,
      "Hum": 6153,
      "Jim": 6154,
      "Jona": 6155,
      "Ke": 6156,
      "Pur": 6157,
      "RI": 6158,
      "Si": 6159,
      "Sw": 6160,
      "Stop": 6161,
      "Shall": 6162,
      "Tor": 6163,
      "Tours": 6164,
      "US": 6165,
      "Vir": 6166,
      "awhile": 6167,
      "bi": 6168,
      "bis": 6169,
      "cil": 6170,
      "cure": 6171,
      "crept": 6172,
      "dancing": 6173,
      "echo": 6174,
      "jk": 6175,
      "kers": 6176,
      "lu": 6177,
      "mic": 6178,
      "museum": 6179,
      "oted": 6180,
      "oars": 6181,
      "pav": 6182,
      "rouse": 6183,
      "roused": 6184,
      "sca": 6185,
      "wretches": 6186,
      "ini": 6187,
      "incon": 6188,
      "inations": 6189,
      "inches": 6190,
      "eries": 6191,
      "edy": 6192,
      "reast": 6193,
      "enchant": 6194,
      "totally": 6195,
      "ornam": 6196,
      "llor": 6197,
      "haun": 6198,
      "leather": 6199,
      "legged": 6200,
      "stump": 6201,
      "bel": 6202,
      "idly": 6203,
      "alike": 6204,
      "forgive": 6205,
      "ayed": 6206,
      "irty": 6207,
      "owing": 6208,
      "rier": 6209,
      "uscript": 6210,
      "absent": 6211,
      "abreast": 6212,
      "losing": 6213,
      "aman": 6214,
      "arded": 6215,
      "suitable": 6216,
      "polar": 6217,
      "quitted": 6218,
      "extr": 6219,
      "manuscript": 6220,
      "articul": 6221,
      "ested": 6222,
      "permit": 6223,
      "tele": 6224,
      "ulating": 6225,
      "traces": 6226,
      "tia": 6227,
      "proble": 6228,
      "protest": 6229,
      "providence": 6230,
      "tholic": 6231,
      "holes": 6232,
      "horescent": 6233,
      "assisted": 6234,
      "anyway": 6235,
      "rajah": 6236,
      "mented": 6237,
      "oppressed": 6238,
      "parting": 6239,
      "partly": 6240,
      "elbow": 6241,
      "disgust": 6242,
      "dice": 6243,
      "dium": 6244,
      "spap": 6245,
      "longed": 6246,
      "glory": 6247,
      "offering": 6248,
      "brings": 6249,
      "countries": 6250,
      "intend": 6251,
      "beings": 6252,
      "newspap": 6253,
      "control": 6254,
      "supposing": 6255,
      "gues": 6256,
      "scrup": 6257,
      "scattered": 6258,
      "steward": 6259,
      "timber": 6260,
      "household": 6261,
      "civi": 6262,
      "easier": 6263,
      "submit": 6264,
      "pleasing": 6265,
      "awk": 6266,
      "barometer": 6267,
      "depended": 6268,
      "larger": 6269,
      "fortunate": 6270,
      "sentiment": 6271,
      "arriving": 6272,
      "trick": 6273,
      "chosen": 6274,
      "choose": 6275,
      "paused": 6276,
      "thirteen": 6277,
      "priests": 6278,
      "wondering": 6279,
      "slee": 6280,
      "interests": 6281,
      "float": 6282,
      "franc": 6283,
      "traveled": 6284,
      "astonishing": 6285,
      "sleeping": 6286,
      "safely": 6287,
      "commanded": 6288,
      "properly": 6289,
      "Rejk": 6290,
      "collision": 6291,
      "syll": 6292,
      "storms": 6293,
      "brick": 6294,
      "tremendous": 6295,
      "tale": 6296,
      "clothed": 6297,
      "crowned": 6298,
      "humble": 6299,
      "humili": 6300,
      "Guardsman": 6301,
      "Catholic": 6302,
      "arent": 6303,
      "procured": 6304,
      "hesitated": 6305,
      "hesitate": 6306,
      "palace": 6307,
      "executed": 6308,
      "streams": 6309,
      "mutual": 6310,
      "heavens": 6311,
      "provision": 6312,
      "bald": 6313,
      "faced": 6314,
      "planted": 6315,
      "mingled": 6316,
      "comprehen": 6317,
      "figures": 6318,
      "resemblance": 6319,
      "ustrious": 6320,
      "masts": 6321,
      "delicious": 6322,
      "communicated": 6323,
      "navigating": 6324,
      "collection": 6325,
      "pirates": 6326,
      "beaten": 6327,
      "insula": 6328,
      "Portugu": 6329,
      "audible": 6330,
      "cousins": 6331,
      "twisted": 6332,
      "vigorous": 6333,
      "represented": 6334,
      "ecst": 6335,
      "machine": 6336,
      "fowl": 6337,
      "mortal": 6338,
      "crimes": 6339,
      "publ": 6340,
      "vegetation": 6341,
      "Bern": 6342,
      "explosion": 6343,
      "imprisoned": 6344,
      "severely": 6345,
      "scrat": 6346,
      "centigrade": 6347,
      "visitors": 6348,
      "arrangement": 6349,
      "ributed": 6350,
      "dwelling": 6351,
      "reminded": 6352,
      "apparently": 6353,
      "Jesuit": 6354,
      "eruption": 6355,
      "alteration": 6356,
      "locality": 6357,
      "picturesque": 6358,
      "coward": 6359,
      "encouragement": 6360,
      "treasures": 6361,
      "performance": 6362,
      "thermometer": 6363,
      "commenced": 6364,
      "irresistible": 6365,
      "accomplice": 6366,
      "Bethune": 6367,
      "Jonathan": 6368,
      "Swiss": 6369,
      "pavil": 6370,
      "Portuguese": 6371,
      "22": 6372,
      "Both": 6373,
      "Cor": 6374,
      "Dav": 6375,
      "Hon": 6376,
      "Much": 6377,
      "Muff": 6378,
      "PHI": 6379,
      "Que": 6380,
      "Row": 6381,
      "Script": 6382,
      "Ten": 6383,
      "Tur": 6384,
      "Tank": 6385,
      "UN": 6386,
      "Ver": 6387,
      "aved": 6388,
      "ds": 6389,
      "din": 6390,
      "dance": 6391,
      "dict": 6392,
      "gal": 6393,
      "gation": 6394,
      "iav": 6395,
      "ials": 6396,
      "ju": 6397,
      "lun": 6398,
      "lone": 6399,
      "lap": 6400,
      "mits": 6401,
      "nes": 6402,
      "puff": 6403,
      "rul": 6404,
      "rushing": 6405,
      "sso": 6406,
      "sledge": 6407,
      "inher": 6408,
      "ouch": 6409,
      "refer": 6410,
      "reappeared": 6411,
      "enable": 6412,
      "toe": 6413,
      "isol": 6414,
      "islet": 6415,
      "orge": 6416,
      "arse": 6417,
      "secre": 6418,
      "lee": 6419,
      "stun": 6420,
      "stakes": 6421,
      "stiff": 6422,
      "whim": 6423,
      "chill": 6424,
      "chase": 6425,
      "veins": 6426,
      "alarmed": 6427,
      "adere": 6428,
      "irs": 6429,
      "unjust": 6430,
      "omer": 6431,
      "riks": 6432,
      "wels": 6433,
      "motions": 6434,
      "ources": 6435,
      "consum": 6436,
      "shman": 6437,
      "shop": 6438,
      "butter": 6439,
      "coats": 6440,
      "illness": 6441,
      "illustrious": 6442,
      "exchanged": 6443,
      "ulation": 6444,
      "ults": 6445,
      "Arab": 6446,
      "boiling": 6447,
      "thereabouts": 6448,
      "Whatever": 6449,
      "Though": 6450,
      "dispat": 6451,
      "dign": 6452,
      "offended": 6453,
      "brated": 6454,
      "earthen": 6455,
      "compared": 6456,
      "whereas": 6457,
      "closer": 6458,
      "survey": 6459,
      "cerity": 6460,
      "flour": 6461,
      "prey": 6462,
      "scen": 6463,
      "throughout": 6464,
      "Mont": 6465,
      "formation": 6466,
      "impul": 6467,
      "nervous": 6468,
      "restless": 6469,
      "correspond": 6470,
      "sincerity": 6471,
      "subter": 6472,
      "continual": 6473,
      "phr": 6474,
      "rounded": 6475,
      "advise": 6476,
      "region": 6477,
      "relative": 6478,
      "trip": 6479,
      "trifle": 6480,
      "boards": 6481,
      "casket": 6482,
      "needs": 6483,
      "surprising": 6484,
      "Place": 6485,
      "insist": 6486,
      "sights": 6487,
      "sighted": 6488,
      "circular": 6489,
      "equipped": 6490,
      "rises": 6491,
      "Fridriks": 6492,
      "admire": 6493,
      "numbers": 6494,
      "chiefly": 6495,
      "brace": 6496,
      "decision": 6497,
      "steadily": 6498,
      "Comp": 6499,
      "saluted": 6500,
      "hatch": 6501,
      "filling": 6502,
      "Chin": 6503,
      "United": 6504,
      "North": 6505,
      "brig": 6506,
      "brief": 6507,
      "crewmen": 6508,
      "compliment": 6509,
      "domestic": 6510,
      "pursuit": 6511,
      "jewel": 6512,
      "madam": 6513,
      "gestures": 6514,
      "Stream": 6515,
      "passenger": 6516,
      "tropical": 6517,
      "escaping": 6518,
      "surrounding": 6519,
      "resembling": 6520,
      "cheerfulness": 6521,
      "jumping": 6522,
      "requested": 6523,
      "collected": 6524,
      "oyster": 6525,
      "balance": 6526,
      "methods": 6527,
      "insult": 6528,
      "attracted": 6529,
      "assume": 6530,
      "original": 6531,
      "excessive": 6532,
      "cautions": 6533,
      "millions": 6534,
      "cetaceans": 6535,
      "emerged": 6536,
      "imprisonment": 6537,
      "attentively": 6538,
      "trunk": 6539,
      "embarrassed": 6540,
      "embarrassment": 6541,
      "operation": 6542,
      "penetrated": 6543,
      "renewed": 6544,
      "NOT": 6545,
      "encouraging": 6546,
      "refresh": 6547,
      "assurance": 6548,
      "desirous": 6549,
      "bestowed": 6550,
      "rascal": 6551,
      "schol": 6552,
      "vitably": 6553,
      "enterprise": 6554,
      "vigorously": 6555,
      "enclosure": 6556,
      "phosphorescent": 6557,
      "merchants": 6558,
      "Welshman": 6559,
      "propriety": 6560,
      "biscu": 6561,
      "awkward": 6562,
      "francs": 6563,
      "Rejkiav": 6564,
      "pavilion": 6565,
      "Tankadere": 6566,
      "Fridrikssen": 6567,
      "Rejkiavik": 6568,
      "!'": 6569,
      "\";": 6570,
      "?’": 6571,
      "Athe": 6572,
      "CO": 6573,
      "Dear": 6574,
      "EL": 6575,
      "Five": 6576,
      "FOG": 6577,
      "Ge": 6578,
      "Hal": 6579,
      "Lis": 6580,
      "MOR": 6581,
      "Ob": 6582,
      "Shang": 6583,
      "batter": 6584,
      "dun": 6585,
      "fid": 6586,
      "fil": 6587,
      "faded": 6588,
      "fires": 6589,
      "iance": 6590,
      "iens": 6591,
      "jail": 6592,
      "kid": 6593,
      "lung": 6594,
      "mud": 6595,
      "nd": 6596,
      "ores": 6597,
      "ote": 6598,
      "pend": 6599,
      "pip": 6600,
      "vility": 6601,
      "zy": 6602,
      "thouse": 6603,
      "innum": 6604,
      "theories": 6605,
      "atively": 6606,
      "atically": 6607,
      "enqu": 6608,
      "enham": 6609,
      "tore": 6610,
      "ases": 6611,
      "oro": 6612,
      "itations": 6613,
      "heap": 6614,
      "hai": 6615,
      "stuck": 6616,
      "stroll": 6617,
      "stretch": 6618,
      "bears": 6619,
      "novice": 6620,
      "utation": 6621,
      "forgiven": 6622,
      "withdraw": 6623,
      "iring": 6624,
      "somed": 6625,
      "uncomfortable": 6626,
      "untie": 6627,
      "alled": 6628,
      "ria": 6629,
      "sam": 6630,
      "weed": 6631,
      "usive": 6632,
      "nets": 6633,
      "absur": 6634,
      "poli": 6635,
      "core": 6636,
      "etc": 6637,
      "exclam": 6638,
      "manif": 6639,
      "fol": 6640,
      "indignation": 6641,
      "trail": 6642,
      "bother": 6643,
      "boots": 6644,
      "aker": 6645,
      "assed": 6646,
      "owner": 6647,
      "foreign": 6648,
      "cane": 6649,
      "disgu": 6650,
      "discour": 6651,
      "display": 6652,
      "hereafter": 6653,
      "overboard": 6654,
      "clad": 6655,
      "clay": 6656,
      "club": 6657,
      "glided": 6658,
      "inevitably": 6659,
      "offence": 6660,
      "blade": 6661,
      "blushed": 6662,
      "bris": 6663,
      "earli": 6664,
      "type": 6665,
      "rowed": 6666,
      "carp": 6667,
      "passages": 6668,
      "desk": 6669,
      "lightly": 6670,
      "justify": 6671,
      "surgeon": 6672,
      "tooth": 6673,
      "precautions": 6674,
      "lowering": 6675,
      "torture": 6676,
      "resting": 6677,
      "temple": 6678,
      "civility": 6679,
      "vile": 6680,
      "tonight": 6681,
      "regain": 6682,
      "verses": 6683,
      "paign": 6684,
      "pretend": 6685,
      "wheels": 6686,
      "harness": 6687,
      "priest": 6688,
      "horseback": 6689,
      "bury": 6690,
      "chain": 6691,
      "States": 6692,
      "keys": 6693,
      "drops": 6694,
      "Brit": 6695,
      "wounds": 6696,
      "maxim": 6697,
      "glasses": 6698,
      "slack": 6699,
      "slumber": 6700,
      "coldly": 6701,
      "effectually": 6702,
      "avenge": 6703,
      "chancellor": 6704,
      "anticip": 6705,
      "subjects": 6706,
      "opinions": 6707,
      "defence": 6708,
      "Dec": 6709,
      "northward": 6710,
      "trusted": 6711,
      "limest": 6712,
      "agreement": 6713,
      "pockets": 6714,
      "inquire": 6715,
      "Middletons": 6716,
      "prayers": 6717,
      "spectacle": 6718,
      "eagerness": 6719,
      "snare": 6720,
      "consequences": 6721,
      "knee": 6722,
      "twilight": 6723,
      "behaved": 6724,
      "rubber": 6725,
      "rubbed": 6726,
      "habits": 6727,
      "bourg": 6728,
      "ignorance": 6729,
      "uttering": 6730,
      "persuade": 6731,
      "tenderly": 6732,
      "blessing": 6733,
      "royal": 6734,
      "candles": 6735,
      "150": 6736,
      "LEAS": 6737,
      "projects": 6738,
      "intelligent": 6739,
      "security": 6740,
      "penetrate": 6741,
      "Germain": 6742,
      "eccentric": 6743,
      "seventeen": 6744,
      "Chevalier": 6745,
      "criminal": 6746,
      "authority": 6747,
      "purchase": 6748,
      "kilograms": 6749,
      "cruelty": 6750,
      "abundance": 6751,
      "marvell": 6752,
      "remote": 6753,
      "virtue": 6754,
      "cheeks": 6755,
      "neighborhood": 6756,
      "improvement": 6757,
      "fathoms": 6758,
      "citizen": 6759,
      "tolerably": 6760,
      "Danish": 6761,
      "softened": 6762,
      "Christian": 6763,
      "campaign": 6764,
      "ridiculous": 6765,
      "fulfill": 6766,
      "Dumont": 6767,
      "consolation": 6768,
      "explicable": 6769,
      "Aurora": 6770,
      "subterranean": 6771,
      "phrase": 6772,
      "FOGG": 6773,
      "Lisbon": 6774,
      "Shanghai": 6775,
      "innumerable": 6776,
      "someday": 6777,
      "26": 6778,
      "Bible": 6779,
      "Cey": 6780,
      "ED": 6781,
      "Give": 6782,
      "Happ": 6783,
      "Hugu": 6784,
      "IR": 6785,
      "Mess": 6786,
      "Tow": 6787,
      "VER": 6788,
      "bout": 6789,
      "bought": 6790,
      "brows": 6791,
      "cod": 6792,
      "cra": 6793,
      "dressing": 6794,
      "gon": 6795,
      "gaze": 6796,
      "io": 6797,
      "iences": 6798,
      "job": 6799,
      "lor": 6800,
      "lney": 6801,
      "mour": 6802,
      "mul": 6803,
      "nations": 6804,
      "range": 6805,
      "song": 6806,
      "sque": 6807,
      "sworn": 6808,
      "uish": 6809,
      "inch": 6810,
      "insensible": 6811,
      "inexplicable": 6812,
      "reentered": 6813,
      "attain": 6814,
      "tops": 6815,
      "aris": 6816,
      "seizing": 6817,
      "hable": 6818,
      "stained": 6819,
      "behold": 6820,
      "churn": 6821,
      "waste": 6822,
      "cele": 6823,
      "ado": 6824,
      "irregular": 6825,
      "ligh": 6826,
      "unconscious": 6827,
      "dex": 6828,
      "notions": 6829,
      "saving": 6830,
      "nearest": 6831,
      "abate": 6832,
      "abrup": 6833,
      "moan": 6834,
      "moist": 6835,
      "loving": 6836,
      "icted": 6837,
      "icine": 6838,
      "ardent": 6839,
      "poles": 6840,
      "illum": 6841,
      "anti": 6842,
      "comfor": 6843,
      "plates": 6844,
      "somewhere": 6845,
      "akened": 6846,
      "willingly": 6847,
      "yourselves": 6848,
      "moreover": 6849,
      "retre": 6850,
      "eling": 6851,
      "disorder": 6852,
      "Antar": 6853,
      "handful": 6854,
      "digging": 6855,
      "stories": 6856,
      "blast": 6857,
      "cared": 6858,
      "foundation": 6859,
      "shots": 6860,
      "cured": 6861,
      "lieutenant": 6862,
      "horn": 6863,
      "scal": 6864,
      "forming": 6865,
      "crit": 6866,
      "stands": 6867,
      "corps": 6868,
      "awakened": 6869,
      "relatives": 6870,
      "sentin": 6871,
      "sentiments": 6872,
      "chose": 6873,
      "devour": 6874,
      "Allenham": 6875,
      "animated": 6876,
      "sailing": 6877,
      "Englishmen": 6878,
      "members": 6879,
      "burden": 6880,
      "affections": 6881,
      "terrif": 6882,
      "repeating": 6883,
      "official": 6884,
      "springs": 6885,
      "realized": 6886,
      "ridge": 6887,
      "devils": 6888,
      "invar": 6889,
      "pounding": 6890,
      "liter": 6891,
      "prepare": 6892,
      "smoking": 6893,
      "belongs": 6894,
      "Remember": 6895,
      "defic": 6896,
      "posture": 6897,
      "valet": 6898,
      "pursuing": 6899,
      "jewels": 6900,
      "precip": 6901,
      "simplicity": 6902,
      "Icelander": 6903,
      "ugly": 6904,
      "punct": 6905,
      "ONE": 6906,
      "flower": 6907,
      "flowing": 6908,
      "pitch": 6909,
      "spreading": 6910,
      "comprehended": 6911,
      "Amiens": 6912,
      "neighb": 6913,
      "intensity": 6914,
      "diamonds": 6915,
      "ikoro": 6916,
      "ceremony": 6917,
      "mirac": 6918,
      "vanity": 6919,
      "provide": 6920,
      "embarked": 6921,
      "pierre": 6922,
      "pierced": 6923,
      "complaints": 6924,
      "whistle": 6925,
      "fatigued": 6926,
      "reveal": 6927,
      "intimacy": 6928,
      "excessively": 6929,
      "PART": 6930,
      "military": 6931,
      "contriv": 6932,
      "argument": 6933,
      "afforded": 6934,
      "treatment": 6935,
      "frozen": 6936,
      "divine": 6937,
      "mechanically": 6938,
      "kilometers": 6939,
      "lifting": 6940,
      "clerk": 6941,
      "procession": 6942,
      "hauled": 6943,
      "ceptible": 6944,
      "fanatic": 6945,
      "qualities": 6946,
      "primitive": 6947,
      "farewell": 6948,
      "philosop": 6949,
      "jacket": 6950,
      "traversed": 6951,
      "pumps": 6952,
      "zoophytes": 6953,
      "Vanikoro": 6954,
      "cretion": 6955,
      "martyr": 6956,
      "determine": 6957,
      "Purit": 6958,
      "PHILEAS": 6959,
      "impulse": 6960,
      "Chinese": 6961,
      "Athelney": 6962,
      "Half": 6963,
      "lungs": 6964,
      "absurd": 6965,
      "policy": 6966,
      "Ceylon": 6967,
      "Huguen": 6968,
      "Antarctic": 6969,
      "24": 6970,
      "400": 6971,
      "?'": 6972,
      "DO": 6973,
      "Dr": 6974,
      "Dut": 6975,
      "Egy": 6976,
      "LD": 6977,
      "Li": 6978,
      "MY": 6979,
      "Many": 6980,
      "Mort": 6981,
      "PAS": 6982,
      "PRO": 6983,
      "Please": 6984,
      "Ru": 6985,
      "Sco": 6986,
      "TTE": 6987,
      "UM": 6988,
      "Wor": 6989,
      "West": 6990,
      "aha": 6991,
      "bab": 6992,
      "bation": 6993,
      "bals": 6994,
      "cade": 6995,
      "cket": 6996,
      "dled": 6997,
      "eloqu": 6998,
      "faster": 6999,
      "mamm": 7000,
      "nur": 7001,
      "nour": 7002,
      "rist": 7003,
      "rained": 7004,
      "rors": 7005,
      "sid": 7006,
      "sla": 7007,
      "ws": 7008,
      "wes": 7009,
      "xic": 7010,
      "inward": 7011,
      "insur": 7012,
      "recall": 7013,
      "reassured": 7014,
      "record": 7015,
      "rejoined": 7016,
      "reigned": 7017,
      "restrain": 7018,
      "release": 7019,
      "enet": 7020,
      "enabled": 7021,
      "heed": 7022,
      "heel": 7023,
      "seats": 7024,
      "lect": 7025,
      "becomes": 7026,
      "beloved": 7027,
      "cease": 7028,
      "idores": 7029,
      "alight": 7030,
      "altar": 7031,
      "imprudence": 7032,
      "forces": 7033,
      "forgetting": 7034,
      "sodium": 7035,
      "unition": 7036,
      "unnecessary": 7037,
      "riages": 7038,
      "detain": 7039,
      "depos": 7040,
      "keley": 7041,
      "neg": 7042,
      "abhor": 7043,
      "mol": 7044,
      "mode": 7045,
      "mood": 7046,
      "motive": 7047,
      "moidores": 7048,
      "loading": 7049,
      "contains": 7050,
      "feature": 7051,
      "female": 7052,
      "shared": 7053,
      "appet": 7054,
      "quality": 7055,
      "resounded": 7056,
      "astro": 7057,
      "astly": 7058,
      "iller": 7059,
      "mankind": 7060,
      "foc": 7061,
      "foli": 7062,
      "perished": 7063,
      "dol": 7064,
      "oundrel": 7065,
      "tives": 7066,
      "geons": 7067,
      "hook": 7068,
      "grey": 7069,
      "owns": 7070,
      "mental": 7071,
      "oping": 7072,
      "opposition": 7073,
      "Through": 7074,
      "partner": 7075,
      "canv": 7076,
      "repast": 7077,
      "umbled": 7078,
      "dispose": 7079,
      "discretion": 7080,
      "diame": 7081,
      "undertake": 7082,
      "underground": 7083,
      "clue": 7084,
      "pression": 7085,
      "grin": 7086,
      "blan": 7087,
      "earn": 7088,
      "earned": 7089,
      "passions": 7090,
      "designed": 7091,
      "desires": 7092,
      "ully": 7093,
      "counts": 7094,
      "merry": 7095,
      "backs": 7096,
      "contents": 7097,
      "creet": 7098,
      "readiness": 7099,
      "guests": 7100,
      "sets": 7101,
      "younger": 7102,
      "broid": 7103,
      "embroid": 7104,
      "distressed": 7105,
      "solitude": 7106,
      "formid": 7107,
      "avar": 7108,
      "natured": 7109,
      "jected": 7110,
      "nerves": 7111,
      "certainty": 7112,
      "joke": 7113,
      "dued": 7114,
      "itudes": 7115,
      "hundreds": 7116,
      "strewn": 7117,
      "centuries": 7118,
      "souls": 7119,
      "regiment": 7120,
      "abode": 7121,
      "honesty": 7122,
      "husac": 7123,
      "devouring": 7124,
      "pense": 7125,
      "generosity": 7126,
      "walks": 7127,
      "floated": 7128,
      "claiming": 7129,
      "earthly": 7130,
      "warning": 7131,
      "warned": 7132,
      "imaginable": 7133,
      "hurri": 7134,
      "answering": 7135,
      "concerning": 7136,
      "salvation": 7137,
      "saloon": 7138,
      "hatches": 7139,
      "apply": 7140,
      "Unfortunately": 7141,
      "recognised": 7142,
      "vault": 7143,
      "companionway": 7144,
      "touching": 7145,
      "shutter": 7146,
      "victory": 7147,
      "blows": 7148,
      "westward": 7149,
      "Cahusac": 7150,
      "hesitating": 7151,
      "slightest": 7152,
      "punish": 7153,
      "proceeding": 7154,
      "delayed": 7155,
      "Duc": 7156,
      "national": 7157,
      "protected": 7158,
      "Exe": 7159,
      "calculations": 7160,
      "breathed": 7161,
      "Hope": 7162,
      "sheets": 7163,
      "results": 7164,
      "turtle": 7165,
      "peaks": 7166,
      "halloo": 7167,
      "lodging": 7168,
      "recommendation": 7169,
      "issued": 7170,
      "wandering": 7171,
      "hazy": 7172,
      "political": 7173,
      "stroke": 7174,
      "contrived": 7175,
      "symp": 7176,
      "fowls": 7177,
      "ammunition": 7178,
      "vegetable": 7179,
      "Should": 7180,
      "Berkeley": 7181,
      "estimate": 7182,
      "packed": 7183,
      "voluntarily": 7184,
      "Peter": 7185,
      "impertin": 7186,
      "discussion": 7187,
      "NOW": 7188,
      "Moreover": 7189,
      "rags": 7190,
      "repentance": 7191,
      "fascinating": 7192,
      "inferior": 7193,
      "sincerely": 7194,
      "encouraged": 7195,
      "refreshed": 7196,
      "gods": 7197,
      "cliff": 7198,
      "ingenious": 7199,
      "Admir": 7200,
      "title": 7201,
      "tackle": 7202,
      "glorious": 7203,
      "perplexed": 7204,
      "Governor": 7205,
      "Speedy": 7206,
      "maneuver": 7207,
      "Saville": 7208,
      "weren": 7209,
      "extremity": 7210,
      "involuntary": 7211,
      "wharf": 7212,
      "serenely": 7213,
      "desolate": 7214,
      "problem": 7215,
      "syllable": 7216,
      "Company": 7217,
      "brisk": 7218,
      "limestone": 7219,
      "marvellous": 7220,
      "Morton": 7221,
      "mammals": 7222,
      "diameter": 7223,
      "32": 7224,
      "BE": 7225,
      "Bas": 7226,
      "DAY": 7227,
      "Em": 7228,
      "Fine": 7229,
      "High": 7230,
      "IC": 7231,
      "IX": 7232,
      "Ki": 7233,
      "Man": 7234,
      "Moun": 7235,
      "Other": 7236,
      "Pa": 7237,
      "Roy": 7238,
      "Sik": 7239,
      "Wed": 7240,
      "_No": 7241,
      "aves": 7242,
      "bough": 7243,
      "cen": 7244,
      "dur": 7245,
      "dined": 7246,
      "hm": 7247,
      "iably": 7248,
      "jet": 7249,
      "jok": 7250,
      "kor": 7251,
      "kins": 7252,
      "mou": 7253,
      "nim": 7254,
      "olive": 7255,
      "pra": 7256,
      "pian": 7257,
      "piles": 7258,
      "rang": 7259,
      "ske": 7260,
      "screw": 7261,
      "source": 7262,
      "thre": 7263,
      "thic": 7264,
      "invol": 7265,
      "invisible": 7266,
      "rely": 7267,
      "toi": 7268,
      "assi": 7269,
      "islets": 7270,
      "anded": 7271,
      "hem": 7272,
      "haught": 7273,
      "leaf": 7274,
      "stout": 7275,
      "wick": 7276,
      "altered": 7277,
      "sob": 7278,
      "unlike": 7279,
      "rifle": 7280,
      "demon": 7281,
      "detained": 7282,
      "wept": 7283,
      "ains": 7284,
      "neat": 7285,
      "abilities": 7286,
      "concent": 7287,
      "petri": 7288,
      "ament": 7289,
      "ample": 7290,
      "shark": 7291,
      "shiver": 7292,
      "shirt": 7293,
      "shipped": 7294,
      "pover": 7295,
      "pots": 7296,
      ",\"--": 7297,
      "quently": 7298,
      "excl": 7299,
      "expan": 7300,
      "exert": 7301,
      "peril": 7302,
      "plank": 7303,
      "inding": 7304,
      "endless": 7305,
      "aks": 7306,
      "theirs": 7307,
      "intoxic": 7308,
      "disappearance": 7309,
      "tedious": 7310,
      "positions": 7311,
      "grim": 7312,
      "string": 7313,
      "stole": 7314,
      "serge": 7315,
      "bred": 7316,
      "brist": 7317,
      "Instead": 7318,
      "mustn": 7319,
      "mostly": 7320,
      "carbon": 7321,
      "eyed": 7322,
      "counting": 7323,
      "curred": 7324,
      "crest": 7325,
      "ords": 7326,
      "horrid": 7327,
      "attending": 7328,
      "treach": 7329,
      "gible": 7330,
      "hammer": 7331,
      "marble": 7332,
      "torted": 7333,
      "density": 7334,
      "openly": 7335,
      "Consequently": 7336,
      "ciples": 7337,
      "consented": 7338,
      "services": 7339,
      "subdued": 7340,
      "finishing": 7341,
      "rule": 7342,
      "rude": 7343,
      "center": 7344,
      "confide": 7345,
      "confine": 7346,
      "spoiled": 7347,
      "hardened": 7348,
      "skull": 7349,
      "capacity": 7350,
      "helm": 7351,
      "device": 7352,
      "pensive": 7353,
      "peninsula": 7354,
      "Allaha": 7355,
      "resolute": 7356,
      "Forrest": 7357,
      "sailed": 7358,
      "drum": 7359,
      "colors": 7360,
      "colonel": 7361,
      "coloured": 7362,
      "chap": 7363,
      "admired": 7364,
      "terribly": 7365,
      "objections": 7366,
      "sorrows": 7367,
      "errand": 7368,
      "mathem": 7369,
      "anxiously": 7370,
      "logical": 7371,
      "Combe": 7372,
      "shaded": 7373,
      "planks": 7374,
      "Major": 7375,
      "apping": 7376,
      "searching": 7377,
      "posts": 7378,
      "declined": 7379,
      "Norwood": 7380,
      "rainy": 7381,
      "loyal": 7382,
      "limited": 7383,
      "maintained": 7384,
      "horizontal": 7385,
      "engagements": 7386,
      "detected": 7387,
      "climbing": 7388,
      "attempts": 7389,
      "cabinet": 7390,
      "testim": 7391,
      "fainted": 7392,
      "gaining": 7393,
      "Harley": 7394,
      "facul": 7395,
      "liquor": 7396,
      "regretted": 7397,
      "ological": 7398,
      "exceeding": 7399,
      "sadly": 7400,
      "protector": 7401,
      "habitu": 7402,
      "tentacles": 7403,
      "pronounce": 7404,
      "Holl": 7405,
      "convenient": 7406,
      "delicacy": 7407,
      "billet": 7408,
      "pirate": 7409,
      "expenses": 7410,
      "bench": 7411,
      "Finn": 7412,
      "attraction": 7413,
      "hideous": 7414,
      "fisherman": 7415,
      "fowling": 7416,
      "volcanoes": 7417,
      "Brazil": 7418,
      "hospit": 7419,
      "preceded": 7420,
      "skillful": 7421,
      "additional": 7422,
      "divide": 7423,
      "reports": 7424,
      "purchased": 7425,
      "penetrating": 7426,
      "cracked": 7427,
      "Impossible": 7428,
      "recovering": 7429,
      "dugong": 7430,
      "sixteenth": 7431,
      "clerks": 7432,
      "mollusk": 7433,
      "feathers": 7434,
      "crop": 7435,
      "assurances": 7436,
      "hypothesis": 7437,
      "fragments": 7438,
      "constructed": 7439,
      "envy": 7440,
      "conquer": 7441,
      "independent": 7442,
      "chronometer": 7443,
      "gift": 7444,
      "Between": 7445,
      "article": 7446,
      "dispute": 7447,
      "apprehension": 7448,
      "hatchet": 7449,
      "abyss": 7450,
      "captivity": 7451,
      "Help": 7452,
      "education": 7453,
      "persuasion": 7454,
      "BLEU": 7455,
      "Sioux": 7456,
      "baldric": 7457,
      "comprehensible": 7458,
      "ecstasy": 7459,
      "secrecy": 7460,
      "stunned": 7461,
      "squee": 7462,
      "comforted": 7463,
      "Ruhm": 7464,
      "formidable": 7465,
      "Sikh": 7466,
      "korff": 7467,
      "Allahabad": 7468,
      "Ruhmkorff": 7469,
      "Cam": 7470,
      "Cru": 7471,
      "CON": 7472,
      "El": 7473,
      "Fri": 7474,
      "FOR": 7475,
      "Gi": 7476,
      "Gener": 7477,
      "Greek": 7478,
      "HE": 7479,
      "Je": 7480,
      "Pé": 7481,
      "Pic": 7482,
      "Ral": 7483,
      "Six": 7484,
      "WAS": 7485,
      "bable": 7486,
      "cun": 7487,
      "cum": 7488,
      "cip": 7489,
      "cub": 7490,
      "dup": 7491,
      "drown": 7492,
      "eel": 7493,
      "foun": 7494,
      "fits": 7495,
      "gates": 7496,
      "hom": 7497,
      "iot": 7498,
      "ibly": 7499,
      "jest": 7500,
      "knot": 7501,
      "lion": 7502,
      "lust": 7503,
      "rd": 7504,
      "sby": 7505,
      "tick": 7506,
      "uf": 7507,
      "vul": 7508,
      "wri": 7509,
      "wave": 7510,
      "inha": 7511,
      "inction": 7512,
      "incomprehensible": 7513,
      "annel": 7514,
      "analy": 7515,
      "eddy": 7516,
      "review": 7517,
      "revel": 7518,
      "removing": 7519,
      "reception": 7520,
      "envelo": 7521,
      "toric": 7522,
      "asks": 7523,
      "orb": 7524,
      "orse": 7525,
      "arat": 7526,
      "heated": 7527,
      "haw": 7528,
      "stat": 7529,
      "beheld": 7530,
      "noises": 7531,
      "chin": 7532,
      "chast": 7533,
      "changes": 7534,
      "wire": 7535,
      "cept": 7536,
      "idle": 7537,
      "adise": 7538,
      "historic": 7539,
      "sow": 7540,
      "sobs": 7541,
      "liking": 7542,
      "agg": 7543,
      "aggl": 7544,
      "unk": 7545,
      "rill": 7546,
      "deceive": 7547,
      "defined": 7548,
      ".\"--": 7549,
      "weeds": 7550,
      "usions": 7551,
      "nels": 7552,
      "whipped": 7553,
      "motives": 7554,
      "therly": 7555,
      "shown": 7556,
      "cook": 7557,
      "colos": 7558,
      "resent": 7559,
      "resisted": 7560,
      "exult": 7561,
      "mans": 7562,
      "arty": 7563,
      "sheer": 7564,
      "compelled": 7565,
      "permitted": 7566,
      "doom": 7567,
      "traced": 7568,
      "!\"--": 7569,
      "tiger": 7570,
      "promo": 7571,
      "greed": 7572,
      "thence": 7573,
      "Thurs": 7574,
      "reputation": 7575,
      "bleed": 7576,
      "distrust": 7577,
      "discharge": 7578,
      "disdain": 7579,
      "howling": 7580,
      "diagon": 7581,
      "clust": 7582,
      "inea": 7583,
      "grating": 7584,
      "sermon": 7585,
      "compact": 7586,
      "mustache": 7587,
      "inkled": 7588,
      "cars": 7589,
      "carriages": 7590,
      "lesson": 7591,
      "lighting": 7592,
      "lightened": 7593,
      "shovel": 7594,
      "justly": 7595,
      "lav": 7596,
      "clearing": 7597,
      "curacy": 7598,
      "merits": 7599,
      "readers": 7600,
      "preference": 7601,
      "atting": 7602,
      "attitude": 7603,
      "scor": 7604,
      "scraw": 7605,
      "scoundrel": 7606,
      "happens": 7607,
      "embark": 7608,
      "Monday": 7609,
      "Constance": 7610,
      "lowest": 7611,
      "icular": 7612,
      "finds": 7613,
      "visits": 7614,
      "duel": 7615,
      "satur": 7616,
      "denied": 7617,
      "subs": 7618,
      "valves": 7619,
      "silently": 7620,
      "spots": 7621,
      "signify": 7622,
      "advancing": 7623,
      "Beware": 7624,
      "dearly": 7625,
      "portions": 7626,
      "paradise": 7627,
      "lovely": 7628,
      "Isle": 7629,
      "Pray": 7630,
      "speaks": 7631,
      "reasoning": 7632,
      "alongside": 7633,
      "helpless": 7634,
      "mediately": 7635,
      "promises": 7636,
      "privile": 7637,
      "circus": 7638,
      "risked": 7639,
      "ajoux": 7640,
      "gravel": 7641,
      "approve": 7642,
      "approbation": 7643,
      "necessarily": 7644,
      "considerably": 7645,
      "igny": 7646,
      "speedily": 7647,
      "earthqu": 7648,
      "lads": 7649,
      "fifth": 7650,
      "judges": 7651,
      "whitewash": 7652,
      "summon": 7653,
      "summits": 7654,
      "convict": 7655,
      "deepest": 7656,
      "strangely": 7657,
      "deliber": 7658,
      "bearer": 7659,
      "bearable": 7660,
      "velvet": 7661,
      "fixing": 7662,
      "Union": 7663,
      "flee": 7664,
      "patient": 7665,
      "leads": 7666,
      "atory": 7667,
      "collar": 7668,
      "southward": 7669,
      "occasional": 7670,
      "bounded": 7671,
      "furnace": 7672,
      "bower": 7673,
      "labyr": 7674,
      "squid": 7675,
      "robbed": 7676,
      "humor": 7677,
      "grove": 7678,
      "seeming": 7679,
      "duties": 7680,
      "punished": 7681,
      "univers": 7682,
      "impatiently": 7683,
      "deserved": 7684,
      "corners": 7685,
      "occupation": 7686,
      "suspicious": 7687,
      "murmuring": 7688,
      "sadness": 7689,
      "calculate": 7690,
      "betraying": 7691,
      "pronouncing": 7692,
      "memories": 7693,
      "energet": 7694,
      "transl": 7695,
      "expressions": 7696,
      "sighed": 7697,
      "swiftness": 7698,
      "funer": 7699,
      "funnel": 7700,
      "starboard": 7701,
      "tracks": 7702,
      "obstacles": 7703,
      "portrait": 7704,
      "tickets": 7705,
      "measuring": 7706,
      "provin": 7707,
      "darting": 7708,
      "lodged": 7709,
      "complaint": 7710,
      "ancients": 7711,
      "marrying": 7712,
      "DID": 7713,
      "Meung": 7714,
      "million": 7715,
      "establishment": 7716,
      ".’\"": 7717,
      "afloat": 7718,
      "travelers": 7719,
      "southernmost": 7720,
      "activity": 7721,
      "restore": 7722,
      "People": 7723,
      "feeble": 7724,
      "Immediately": 7725,
      "abundant": 7726,
      "ambition": 7727,
      "infinitely": 7728,
      "ragged": 7729,
      "distinctly": 7730,
      "troops": 7731,
      "obvious": 7732,
      "apparent": 7733,
      "21st": 7734,
      "mineralo": 7735,
      "poisoned": 7736,
      "adopt": 7737,
      "adopted": 7738,
      "physic": 7739,
      "promptly": 7740,
      "smell": 7741,
      "shrugging": 7742,
      "dawn": 7743,
      "skirts": 7744,
      "Bunsby": 7745,
      "embraced": 7746,
      "pupils": 7747,
      "vapours": 7748,
      "constitution": 7749,
      "bolts": 7750,
      "assembled": 7751,
      "Williams": 7752,
      "develop": 7753,
      "barbarous": 7754,
      "Bernajoux": 7755,
      "Queen": 7756,
      "nesday": 7757,
      "British": 7758,
      "Scotia": 7759,
      "enetr": 7760,
      "Exeter": 7761,
      "Wednesday": 7762,
      "petrified": 7763,
      "Forrester": 7764,
      "Pérouse": 7765,
      "Ralph": 7766,
      "cunning": 7767,
      "Thursday": 7768,
      "labyrin": 7769,
      ".)": 7770,
      "2nd": 7771,
      "800": 7772,
      ";”": 7773,
      "Bro": 7774,
      "Bic": 7775,
      "BRE": 7776,
      "Bearn": 7777,
      "Cour": 7778,
      "Crom": 7779,
      "Eight": 7780,
      "Fer": 7781,
      "Get": 7782,
      "Hill": 7783,
      "LO": 7784,
      "Little": 7785,
      "Law": 7786,
      "Magn": 7787,
      "Mama": 7788,
      "OL": 7789,
      "Ori": 7790,
      "Pen": 7791,
      "Pass": 7792,
      "RA": 7793,
      "Sam": 7794,
      "Tru": 7795,
      "Vi": 7796,
      "WI": 7797,
      "Wal": 7798,
      "awaiting": 7799,
      "bust": 7800,
      "batt": 7801,
      "bending": 7802,
      "cies": 7803,
      "cush": 7804,
      "dine": 7805,
      "dagger": 7806,
      "econ": 7807,
      "eastern": 7808,
      "gou": 7809,
      "gam": 7810,
      "gage": 7811,
      "gments": 7812,
      "hilar": 7813,
      "leness": 7814,
      "nic": 7815,
      "prem": 7816,
      "rab": 7817,
      "rated": 7818,
      "ratt": 7819,
      "raged": 7820,
      "sway": 7821,
      "uity": 7822,
      "vary": 7823,
      "zvous": 7824,
      "inf": 7825,
      "init": 7826,
      "infl": 7827,
      "inspir": 7828,
      "infli": 7829,
      "incapable": 7830,
      "theast": 7831,
      "edges": 7832,
      "enclosed": 7833,
      "encing": 7834,
      "isite": 7835,
      "lley": 7836,
      "heir": 7837,
      "sees": 7838,
      "seize": 7839,
      "halted": 7840,
      "lem": 7841,
      "stamm": 7842,
      "bean": 7843,
      "beck": 7844,
      "cemeter": 7845,
      "ental": 7846,
      "imprudent": 7847,
      "imposing": 7848,
      "withdrew": 7849,
      "histori": 7850,
      "iries": 7851,
      "soo": 7852,
      "terior": 7853,
      "una": 7854,
      "unfolded": 7855,
      "undoubtedly": 7856,
      "defe": 7857,
      "demonstr": 7858,
      "dezvous": 7859,
      "sable": 7860,
      "acr": 7861,
      "weep": 7862,
      "neath": 7863,
      "outward": 7864,
      "movable": 7865,
      "lovers": 7866,
      "icy": 7867,
      "icable": 7868,
      "bye": 7869,
      "amoun": 7870,
      "amused": 7871,
      "shr": 7872,
      "shill": 7873,
      "suck": 7874,
      "ifully": 7875,
      "quitting": 7876,
      "resignation": 7877,
      "exting": 7878,
      "exagger": 7879,
      "commer": 7880,
      "perpet": 7881,
      "perpend": 7882,
      "wholes": 7883,
      "ulted": 7884,
      "endowed": 7885,
      "Arment": 7886,
      "tile": 7887,
      "proposition": 7888,
      "owned": 7889,
      "forehead": 7890,
      "ops": 7891,
      "opium": 7892,
      "canal": 7893,
      "repul": 7894,
      "dismissed": 7895,
      "ackson": 7896,
      "howl": 7897,
      "spin": 7898,
      "spade": 7899,
      "overheard": 7900,
      "underneath": 7901,
      "clung": 7902,
      "glas": 7903,
      "serving": 7904,
      "bluish": 7905,
      "Andrew": 7906,
      "firing": 7907,
      "rowing": 7908,
      "mont": 7909,
      "downward": 7910,
      "shaft": 7911,
      "redou": 7912,
      "cloth": 7913,
      "actly": 7914,
      "shold": 7915,
      "fortification": 7916,
      "volley": 7917,
      "gets": 7918,
      "contest": 7919,
      "fectly": 7920,
      "flung": 7921,
      "setshire": 7922,
      "steer": 7923,
      "steered": 7924,
      "venturing": 7925,
      "Fosso": 7926,
      "engines": 7927,
      "happiest": 7928,
      "rendezvous": 7929,
      "misfortunes": 7930,
      "miseries": 7931,
      "asterly": 7932,
      "sonage": 7933,
      "marched": 7934,
      "imped": 7935,
      "impenetr": 7936,
      "minds": 7937,
      "dub": 7938,
      "kinds": 7939,
      "elements": 7940,
      "submitted": 7941,
      "silk": 7942,
      "commence": 7943,
      "awaken": 7944,
      "soup": 7945,
      "signals": 7946,
      "harder": 7947,
      "regained": 7948,
      "capture": 7949,
      "ieres": 7950,
      "tricks": 7951,
      "circl": 7952,
      "accuse": 7953,
      "accidents": 7954,
      "reasonably": 7955,
      "hopeless": 7956,
      "helms": 7957,
      "killing": 7958,
      "resolutions": 7959,
      "ieties": 7960,
      "aimed": 7961,
      "expressive": 7962,
      "chaise": 7963,
      "chains": 7964,
      "sweep": 7965,
      "flock": 7966,
      "mounting": 7967,
      "questioned": 7968,
      "accountable": 7969,
      "drifted": 7970,
      "imaginary": 7971,
      "acquired": 7972,
      "painted": 7973,
      "frighted": 7974,
      "Indies": 7975,
      "bands": 7976,
      "lengths": 7977,
      "contrast": 7978,
      "naturalist": 7979,
      "naturalists": 7980,
      "cabaret": 7981,
      "incidents": 7982,
      "destination": 7983,
      "honorable": 7984,
      "leader": 7985,
      "yeurs": 7986,
      "replying": 7987,
      "hasty": 7988,
      "straw": 7989,
      "strait": 7990,
      "maintain": 7991,
      "determination": 7992,
      "successively": 7993,
      "Perfectly": 7994,
      "remembering": 7995,
      "including": 7996,
      "snap": 7997,
      "robbers": 7998,
      "detect": 7999,
      "humour": 8000,
      "attempting": 8001,
      "conclude": 8002,
      "besie": 8003,
      "eastward": 8004,
      "grip": 8005,
      "ESS": 8006,
      "palm": 8007,
      "descending": 8008,
      "HIM": 8009,
      "fainting": 8010,
      "pulling": 8011,
      "pitched": 8012,
      "fools": 8013,
      "deserve": 8014,
      "facing": 8015,
      "facial": 8016,
      "thankfulness": 8017,
      "Often": 8018,
      "split": 8019,
      "baggage": 8020,
      "Exactly": 8021,
      "admirable": 8022,
      "classified": 8023,
      "yielding": 8024,
      "channel": 8025,
      "Maybe": 8026,
      "boldly": 8027,
      "magic": 8028,
      "discoveries": 8029,
      "insulted": 8030,
      "whistling": 8031,
      "hiding": 8032,
      "twist": 8033,
      "yramid": 8034,
      "cautious": 8035,
      "triumphant": 8036,
      "devotedness": 8037,
      "enthusiastic": 8038,
      "delir": 8039,
      "estimated": 8040,
      "flashes": 8041,
      "attentive": 8042,
      "attentions": 8043,
      "reflecting": 8044,
      "bundle": 8045,
      "True": 8046,
      "polished": 8047,
      "conveyed": 8048,
      "centimeters": 8049,
      "suggested": 8050,
      "rotten": 8051,
      "cartil": 8052,
      "ILL": 8053,
      "bulk": 8054,
      "lamps": 8055,
      "jealousy": 8056,
      "benefit": 8057,
      "invented": 8058,
      "vexation": 8059,
      "glimmer": 8060,
      "latest": 8061,
      "Papu": 8062,
      "narrative": 8063,
      "fantastic": 8064,
      "revived": 8065,
      "grasped": 8066,
      "intrigues": 8067,
      "solicitude": 8068,
      "neighbourhood": 8069,
      "stifled": 8070,
      "partiality": 8071,
      "sensibly": 8072,
      "incredible": 8073,
      "Douglas": 8074,
      "louis": 8075,
      "luxur": 8076,
      "rational": 8077,
      "sticks": 8078,
      "overwhelmed": 8079,
      "tendency": 8080,
      "cannibals": 8081,
      "sponges": 8082,
      "tapest": 8083,
      "Keep": 8084,
      "lonely": 8085,
      "isolated": 8086,
      "biscuit": 8087,
      "exclamation": 8088,
      "celebrated": 8089,
      "dexter": 8090,
      "Dutch": 8091,
      "PASSE": 8092,
      "Admiral": 8093,
      "Mountains": 8094,
      "threshold": 8095,
      "toilet": 8096,
      "poverty": 8097,
      "expanse": 8098,
      "sergeant": 8099,
      "enveloped": 8100,
      "colossal": 8101,
      "labyrinth": 8102,
      "Bicarat": 8103,
      "rabbit": 8104,
      "stammered": 8105,
      "cemetery": 8106,
      "perpendicular": 8107,
      "Armentieres": 8108,
      "Fossoyeurs": 8109,
      "impenetrable": 8110,
      "Aye": 8111,
      "Bur": 8112,
      "Bus": 8113,
      "Cap": 8114,
      "Cres": 8115,
      "DER": 8116,
      "Ell": 8117,
      "Fif": 8118,
      "Fah": 8119,
      "Gard": 8120,
      "Gree": 8121,
      "Hence": 8122,
      "James": 8123,
      "Jeff": 8124,
      "Lake": 8125,
      "Lux": 8126,
      "Mand": 8127,
      "Mur": 8128,
      "Night": 8129,
      "Nature": 8130,
      "Over": 8131,
      "Sus": 8132,
      "Str": 8133,
      "Sire": 8134,
      "SOU": 8135,
      "Tem": 8136,
      "_May": 8137,
      "_June": 8138,
      "aqu": 8139,
      "auntie": 8140,
      "cities": 8141,
      "damp": 8142,
      "hip": 8143,
      "iv": 8144,
      "ien": 8145,
      "iation": 8146,
      "lur": 8147,
      "lump": 8148,
      "mum": 8149,
      "mask": 8150,
      "mult": 8151,
      "ns": 8152,
      "nted": 8153,
      "pang": 8154,
      "purely": 8155,
      "panting": 8156,
      "pyramid": 8157,
      "sly": 8158,
      "sne": 8159,
      "swarm": 8160,
      "til": 8161,
      "tinted": 8162,
      "zes": 8163,
      "iner": 8164,
      "inder": 8165,
      "incess": 8166,
      "inexpres": 8167,
      "theses": 8168,
      "ero": 8169,
      "remed": 8170,
      "replaced": 8171,
      "recru": 8172,
      "rejoin": 8173,
      "tow": 8174,
      "token": 8175,
      "isins": 8176,
      "arre": 8177,
      "arly": 8178,
      "arise": 8179,
      "arrows": 8180,
      "esp": 8181,
      "heaved": 8182,
      "stab": 8183,
      "stub": 8184,
      "stony": 8185,
      "stancy": 8186,
      "bees": 8187,
      "beam": 8188,
      "bearded": 8189,
      "nobles": 8190,
      "charms": 8191,
      "wasted": 8192,
      "roaring": 8193,
      "ceasing": 8194,
      "alga": 8195,
      "imes": 8196,
      "immed": 8197,
      "agged": 8198,
      "unbearable": 8199,
      "rip": 8200,
      "rigging": 8201,
      "decre": 8202,
      "detest": 8203,
      "saur": 8204,
      "sack": 8205,
      "achable": 8206,
      "wearing": 8207,
      "abated": 8208,
      "abuse": 8209,
      "cone": 8210,
      "conceived": 8211,
      "aments": 8212,
      "shone": 8213,
      "button": 8214,
      "aping": 8215,
      "apore": 8216,
      "romantic": 8217,
      "odor": 8218,
      "resigned": 8219,
      "illot": 8220,
      "exas": 8221,
      "expose": 8222,
      "fog": 8223,
      "arets": 8224,
      "sian": 8225,
      "indes": 8226,
      "endure": 8227,
      "cake": 8228,
      "cares": 8229,
      "causes": 8230,
      "worry": 8231,
      "geo": 8232,
      "asser": 8233,
      "raven": 8234,
      "raisins": 8235,
      "Ital": 8236,
      "intolerable": 8237,
      "eless": 8238,
      "ideal": 8239,
      "disper": 8240,
      "dislike": 8241,
      "displayed": 8242,
      "divers": 8243,
      "spit": 8244,
      "poses": 8245,
      "clut": 8246,
      "leton": 8247,
      "strand": 8248,
      "stray": 8249,
      "straggl": 8250,
      "stores": 8251,
      "blunder": 8252,
      "blushing": 8253,
      "brass": 8254,
      "compare": 8255,
      "inking": 8256,
      "landlord": 8257,
      "reddish": 8258,
      "isement": 8259,
      "ggage": 8260,
      "appearances": 8261,
      "labe": 8262,
      "minis": 8263,
      "kings": 8264,
      "surrender": 8265,
      "hunted": 8266,
      "tells": 8267,
      "scri": 8268,
      "scabb": 8269,
      "smith": 8270,
      "smouth": 8271,
      "oting": 8272,
      "embourg": 8273,
      "mistrust": 8274,
      "distributed": 8275,
      "gotten": 8276,
      "crue": 8277,
      "crushing": 8278,
      "standard": 8279,
      "avag": 8280,
      "layers": 8281,
      "market": 8282,
      "housekeeper": 8283,
      "torren": 8284,
      "via": 8285,
      "commit": 8286,
      "commonly": 8287,
      "continuous": 8288,
      "phan": 8289,
      "queer": 8290,
      "barrier": 8291,
      "advances": 8292,
      "skies": 8293,
      "relating": 8294,
      "parce": 8295,
      "personally": 8296,
      "medium": 8297,
      "fearing": 8298,
      "animation": 8299,
      "dram": 8300,
      "bug": 8301,
      "appropri": 8302,
      "necessaries": 8303,
      "casting": 8304,
      "recovery": 8305,
      "bloom": 8306,
      "Guinea": 8307,
      "sumpt": 8308,
      "blackish": 8309,
      "remainder": 8310,
      "slid": 8311,
      "slave": 8312,
      "catastro": 8313,
      "inviting": 8314,
      "gunpowder": 8315,
      "temptation": 8316,
      "planet": 8317,
      "dreaded": 8318,
      "axe": 8319,
      "axes": 8320,
      "Christ": 8321,
      "dreaming": 8322,
      "lane": 8323,
      "occasioned": 8324,
      "settling": 8325,
      "furnaces": 8326,
      "OULD": 8327,
      "bowing": 8328,
      "strengthen": 8329,
      "rains": 8330,
      "limits": 8331,
      "prayed": 8332,
      "bigger": 8333,
      "golden": 8334,
      "domin": 8335,
      "grotto": 8336,
      "climate": 8337,
      "thickness": 8338,
      "matic": 8339,
      "madness": 8340,
      "Protest": 8341,
      "palms": 8342,
      "seriousness": 8343,
      "stationed": 8344,
      "ascending": 8345,
      "flies": 8346,
      "trot": 8347,
      "cruising": 8348,
      "endeavor": 8349,
      "endeavour": 8350,
      "endeavoured": 8351,
      "stirring": 8352,
      "admiring": 8353,
      "favorable": 8354,
      "designs": 8355,
      "sweetness": 8356,
      "learnt": 8357,
      "XXX": 8358,
      "fetched": 8359,
      "garret": 8360,
      "miracle": 8361,
      "peaceful": 8362,
      "gaiety": 8363,
      "provoked": 8364,
      "piercing": 8365,
      "folds": 8366,
      "Portsmouth": 8367,
      "tiny": 8368,
      "comparable": 8369,
      "accomplish": 8370,
      "sompierre": 8371,
      "stockings": 8372,
      "phenomena": 8373,
      "strokes": 8374,
      "customary": 8375,
      "bullet": 8376,
      "fruitless": 8377,
      "indispen": 8378,
      "reverie": 8379,
      "injury": 8380,
      "sacrificed": 8381,
      "recently": 8382,
      "mechanism": 8383,
      "practicable": 8384,
      "exercises": 8385,
      "14th": 8386,
      "beaches": 8387,
      "converse": 8388,
      "tracts": 8389,
      "debt": 8390,
      "falsehood": 8391,
      "scrut": 8392,
      "struggled": 8393,
      "winning": 8394,
      "infernal": 8395,
      "lament": 8396,
      "shuddered": 8397,
      "Bois": 8398,
      "radius": 8399,
      "reptiles": 8400,
      "mineral": 8401,
      "performing": 8402,
      "citizens": 8403,
      "physical": 8404,
      "conjecture": 8405,
      "interrog": 8406,
      "cordial": 8407,
      "flame": 8408,
      "apparition": 8409,
      "insolent": 8410,
      "abducted": 8411,
      "snatched": 8412,
      "ribbon": 8413,
      "exhibits": 8414,
      "obedient": 8415,
      "vocation": 8416,
      "forbidden": 8417,
      "conspic": 8418,
      "cigar": 8419,
      "advised": 8420,
      "Sahib": 8421,
      "Singapore": 8422,
      "mendic": 8423,
      "temporary": 8424,
      "Torres": 8425,
      "luggage": 8426,
      "enchanted": 8427,
      "haunted": 8428,
      "telegraph": 8429,
      "civili": 8430,
      "pipes": 8431,
      "manifest": 8432,
      "maximum": 8433,
      "invariably": 8434,
      "neighbors": 8435,
      "PARTOUT": 8436,
      "contrivance": 8437,
      "alighted": 8438,
      "appetite": 8439,
      "foliage": 8440,
      "Bassompierre": 8441,
      "censure": 8442,
      "confinement": 8443,
      "General": 8444,
      "resentment": 8445,
      "exultation": 8446,
      "funeral": 8447,
      "BRETTE": 8448,
      "Cromarty": 8449,
      "PASSEPARTOUT": 8450,
      "Crespo": 8451,
      "Luxembourg": 8452,
      "SOUBRETTE": 8453,
      "_May_": 8454,
      "_June_": 8455,
      "stubborn": 8456,
      "algae": 8457,
      "29": 8458,
      "35": 8459,
      "36": 8460,
      "Amy": 8461,
      "Abo": 8462,
      "Adie": 8463,
      "Astro": 8464,
      "Asia": 8465,
      "Black": 8466,
      "Baker": 8467,
      "City": 8468,
      "DS": 8469,
      "Dillon": 8470,
      "Eh": 8471,
      "Fire": 8472,
      "Hud": 8473,
      "Humph": 8474,
      "Kö": 8475,
      "Kear": 8476,
      "Miller": 8477,
      "Number": 8478,
      "Old": 8479,
      "Pier": 8480,
      "Rich": 8481,
      "SA": 8482,
      "Sain": 8483,
      "Sup": 8484,
      "Scot": 8485,
      "Spir": 8486,
      "TA": 8487,
      "Tro": 8488,
      "Till": 8489,
      "Tues": 8490,
      "VE": 8491,
      "Val": 8492,
      "Whe": 8493,
      "Wid": 8494,
      "ao": 8495,
      "aur": 8496,
      "bish": 8497,
      "biz": 8498,
      "cof": 8499,
      "cence": 8500,
      "dwe": 8501,
      "dirty": 8502,
      "ees": 8503,
      "eur": 8504,
      "emed": 8505,
      "fab": 8506,
      "fists": 8507,
      "gence": 8508,
      "hated": 8509,
      "hue": 8510,
      "hire": 8511,
      "jam": 8512,
      "jaw": 8513,
      "kic": 8514,
      "mama": 8515,
      "nment": 8516,
      "nail": 8517,
      "oa": 8518,
      "oil": 8519,
      "pite": 8520,
      "pious": 8521,
      "push": 8522,
      "pump": 8523,
      "rings": 8524,
      "sag": 8525,
      "trench": 8526,
      "ufact": 8527,
      "vive": 8528,
      "vouch": 8529,
      "thief": 8530,
      "outer": 8531,
      "edible": 8532,
      "resh": 8533,
      "recl": 8534,
      "recent": 8535,
      "releas": 8536,
      "restrained": 8537,
      "attained": 8538,
      "isions": 8539,
      "aration": 8540,
      "esy": 8541,
      "stur": 8542,
      "stake": 8543,
      "stret": 8544,
      "stamped": 8545,
      "beams": 8546,
      "begging": 8547,
      "noses": 8548,
      "chop": 8549,
      "role": 8550,
      "ropes": 8551,
      "roots": 8552,
      "rogue": 8553,
      "idity": 8554,
      "ential": 8555,
      "ghastly": 8556,
      "impet": 8557,
      "improved": 8558,
      "adjoining": 8559,
      "adieu": 8560,
      "irts": 8561,
      "lime": 8562,
      "urge": 8563,
      "urgent": 8564,
      "agent": 8565,
      "unworthy": 8566,
      "unpred": 8567,
      "unaccountable": 8568,
      "allied": 8569,
      "omb": 8570,
      "oman": 8571,
      "devi": 8572,
      "depression": 8573,
      "accounts": 8574,
      "nego": 8575,
      "lots": 8576,
      "fete": 8577,
      "amorous": 8578,
      "ouni": 8579,
      "shy": 8580,
      "shattered": 8581,
      "shirts": 8582,
      "apt": 8583,
      "sulf": 8584,
      "potent": 8585,
      "--'": 8586,
      "resources": 8587,
      "illery": 8588,
      "extract": 8589,
      "mansion": 8590,
      "manufact": 8591,
      "sheep": 8592,
      "antis": 8593,
      "?\"--": 8594,
      "ders": 8595,
      "pling": 8596,
      "whoever": 8597,
      "Arne": 8598,
      "somehow": 8599,
      "tigers": 8600,
      "proving": 8601,
      "program": 8602,
      "veness": 8603,
      "hoisted": 8604,
      "istic": 8605,
      "assert": 8606,
      "greet": 8607,
      "printed": 8608,
      "meddle": 8609,
      "partic": 8610,
      "partners": 8611,
      "repu": 8612,
      "elastic": 8613,
      "discer": 8614,
      "aches": 8615,
      "ept": 8616,
      "undergo": 8617,
      "glare": 8618,
      "glances": 8619,
      "blown": 8620,
      "bru": 8621,
      "brim": 8622,
      "igning": 8623,
      "Andaman": 8624,
      "hasn": 8625,
      "carap": 8626,
      "gger": 8627,
      "justified": 8628,
      "curtain": 8629,
      "curved": 8630,
      "sured": 8631,
      "internal": 8632,
      "create": 8633,
      "ucks": 8634,
      "flowed": 8635,
      "presu": 8636,
      "prejud": 8637,
      "prehistoric": 8638,
      "Follow": 8639,
      "ferred": 8640,
      "renounce": 8641,
      "hearty": 8642,
      "singing": 8643,
      "adding": 8644,
      "ceivable": 8645,
      "visions": 8646,
      "pleases": 8647,
      "awl": 8648,
      "calmer": 8649,
      "confid": 8650,
      "runs": 8651,
      "cribable": 8652,
      "depending": 8653,
      "dreary": 8654,
      "parl": 8655,
      "homet": 8656,
      "charging": 8657,
      "pretext": 8658,
      "azure": 8659,
      "meanwhile": 8660,
      "horsemen": 8661,
      "startling": 8662,
      "volumes": 8663,
      "equator": 8664,
      "crosses": 8665,
      "comforts": 8666,
      "Stand": 8667,
      "blocks": 8668,
      "breakers": 8669,
      "laden": 8670,
      "territory": 8671,
      "towns": 8672,
      "spray": 8673,
      "journal": 8674,
      "painfully": 8675,
      "eaters": 8676,
      "chambers": 8677,
      "scared": 8678,
      "logne": 8679,
      "respecting": 8680,
      "respectfully": 8681,
      "shades": 8682,
      "seashell": 8683,
      "iddy": 8684,
      "idding": 8685,
      "wilder": 8686,
      "ponder": 8687,
      "yell": 8688,
      "northwest": 8689,
      "limb": 8690,
      "mainland": 8691,
      "separation": 8692,
      "consciously": 8693,
      "burnt": 8694,
      "biggest": 8695,
      "agoon": 8696,
      "culti": 8697,
      "anguish": 8698,
      "vices": 8699,
      "studying": 8700,
      "undulations": 8701,
      "undulating": 8702,
      "jelly": 8703,
      "Most": 8704,
      "Mormon": 8705,
      "uffled": 8706,
      "musing": 8707,
      "Europeans": 8708,
      "madman": 8709,
      "sends": 8710,
      "swain": 8711,
      "suspecting": 8712,
      "bathed": 8713,
      "flick": 8714,
      "rubs": 8715,
      "rubble": 8716,
      "shellfish": 8717,
      "engineers": 8718,
      "experiment": 8719,
      "relieve": 8720,
      "protect": 8721,
      "families": 8722,
      "calculation": 8723,
      "graphy": 8724,
      "gravely": 8725,
      "favorite": 8726,
      "cooling": 8727,
      "springing": 8728,
      "Carib": 8729,
      "inquiring": 8730,
      "communicate": 8731,
      "fruits": 8732,
      "Calais": 8733,
      "width": 8734,
      "couch": 8735,
      "regularly": 8736,
      "navigate": 8737,
      "weighing": 8738,
      "profoundly": 8739,
      "murdered": 8740,
      "comparatively": 8741,
      "wander": 8742,
      "pulse": 8743,
      "crustace": 8744,
      "ladders": 8745,
      "scientists": 8746,
      "contribut": 8747,
      "angles": 8748,
      "principle": 8749,
      "washed": 8750,
      "recital": 8751,
      "remembrances": 8752,
      "TOM": 8753,
      "According": 8754,
      "Mahomet": 8755,
      "preferred": 8756,
      "Henry": 8757,
      "glimpsed": 8758,
      "sparkling": 8759,
      "11th": 8760,
      "removal": 8761,
      "selfishness": 8762,
      "invention": 8763,
      "charts": 8764,
      "rawling": 8765,
      "cheek": 8766,
      "bestow": 8767,
      "construction": 8768,
      "conquered": 8769,
      "deafening": 8770,
      "population": 8771,
      "nodded": 8772,
      "whirling": 8773,
      "articles": 8774,
      "intrigue": 8775,
      "stuffed": 8776,
      "abduction": 8777,
      "glittering": 8778,
      "sensibility": 8779,
      "paddle": 8780,
      "providing": 8781,
      "landscape": 8782,
      "Green": 8783,
      "neglected": 8784,
      "scheme": 8785,
      "schemes": 8786,
      "marvelous": 8787,
      "drifting": 8788,
      "rejoiced": 8789,
      "transparent": 8790,
      "Boulogne": 8791,
      "definitely": 8792,
      "extravag": 8793,
      "newspapers": 8794,
      "published": 8795,
      "Scripture": 8796,
      "leeward": 8797,
      "surveyed": 8798,
      "abruptly": 8799,
      "scales": 8800,
      "miraculous": 8801,
      "Huguenots": 8802,
      "embroidered": 8803,
      "hurricane": 8804,
      "symptoms": 8805,
      "Kiouni": 8806,
      "durst": 8807,
      "jokes": 8808,
      "mouths": 8809,
      "cipher": 8810,
      "cubic": 8811,
      "earthquake": 8812,
      "summoned": 8813,
      "energetic": 8814,
      "Lawrence": 8815,
      "Vigo": 8816,
      "beckoned": 8817,
      "perpetual": 8818,
      "helmsman": 8819,
      "remedy": 8820,
      "indescribable": 8821,
      "torrents": 8822,
      "Above": 8823,
      "Adieu": 8824,
      "Astrolabe": 8825,
      "Hudson": 8826,
      "König": 8827,
      "Kearney": 8828,
      "Tuesday": 8829,
      "Widow": 8830,
      "bizarre": 8831,
      "coffee": 8832,
      "dwelt": 8833,
      "stretching": 8834,
      "negoti": 8835,
      "',": 8836,
      "';": 8837,
      ".]": 8838,
      "42": 8839,
      "45": 8840,
      ":--": 8841,
      "AB": 8842,
      "Ach": 8843,
      "Aven": 8844,
      "Aden": 8845,
      "Again": 8846,
      "Bor": 8847,
      "Bey": 8848,
      "Creat": 8849,
      "CAP": 8850,
      "Cloud": 8851,
      "Den": 8852,
      "Down": 8853,
      "Doc": 8854,
      "GH": 8855,
      "Hun": 8856,
      "House": 8857,
      "IM": 8858,
      "LY": 8859,
      "Lod": 8860,
      "Luck": 8861,
      "Lub": 8862,
      "LIS": 8863,
      "MO": 8864,
      "Mc": 8865,
      "Natur": 8866,
      "Nept": 8867,
      "OW": 8868,
      "Ox": 8869,
      "Off": 8870,
      "Pat": 8871,
      "Rou": 8872,
      "Runic": 8873,
      "Ser": 8874,
      "Sur": 8875,
      "Sall": 8876,
      "Salt": 8877,
      "Somer": 8878,
      "Ty": 8879,
      "Tong": 8880,
      "UL": 8881,
      "Vic": 8882,
      "Ye": 8883,
      "aise": 8884,
      "bat": 8885,
      "bach": 8886,
      "bony": 8887,
      "bidding": 8888,
      "dive": 8889,
      "dashed": 8890,
      "eh": 8891,
      "eli": 8892,
      "emotionless": 8893,
      "easterly": 8894,
      "gazing": 8895,
      "iated": 8896,
      "jars": 8897,
      "kids": 8898,
      "lace": 8899,
      "lorn": 8900,
      "mouse": 8901,
      "mitting": 8902,
      "nap": 8903,
      "niece": 8904,
      "pion": 8905,
      "pink": 8906,
      "patter": 8907,
      "piled": 8908,
      "pilo": 8909,
      "pouring": 8910,
      "rous": 8911,
      "rack": 8912,
      "scur": 8913,
      "scold": 8914,
      "slaughter": 8915,
      "tus": 8916,
      "tam": 8917,
      "tint": 8918,
      "treading": 8919,
      "uvi": 8920,
      "vom": 8921,
      "vitable": 8922,
      "—“": 8923,
      "thmus": 8924,
      "inspect": 8925,
      "inox": 8926,
      "anqu": 8927,
      "recomp": 8928,
      "recei": 8929,
      "research": 8930,
      "reassure": 8931,
      "atus": 8932,
      "enlightened": 8933,
      "toes": 8934,
      "towel": 8935,
      "asunder": 8936,
      "arrow": 8937,
      "argue": 8938,
      "aroused": 8939,
      "lle": 8940,
      "seaf": 8941,
      "section": 8942,
      "hail": 8943,
      "stated": 8944,
      "beef": 8945,
      "nowhere": 8946,
      "novel": 8947,
      "chment": 8948,
      "ider": 8949,
      "veying": 8950,
      "you_": 8951,
      "immovable": 8952,
      "forlorn": 8953,
      "hissing": 8954,
      "aye": 8955,
      "soe": 8956,
      "sowed": 8957,
      "lick": 8958,
      "urous": 8959,
      "terrace": 8960,
      "aginous": 8961,
      "uncommon": 8962,
      "uninhabited": 8963,
      "unlucky": 8964,
      "unconsciously": 8965,
      "riches": 8966,
      "noticing": 8967,
      "sapp": 8968,
      "aciously": 8969,
      "outs": 8970,
      "outfit": 8971,
      "abstr": 8972,
      "abused": 8973,
      "loo": 8974,
      "loos": 8975,
      "conj": 8976,
      "conut": 8977,
      "confirm": 8978,
      "confounded": 8979,
      "connois": 8980,
      "ico": 8981,
      "ambus": 8982,
      "shrubs": 8983,
      "appla": 8984,
      "apology": 8985,
      "quer": 8986,
      "quad": 8987,
      "quity": 8988,
      "cope": 8989,
      "coals": 8990,
      "coarse": 8991,
      "astron": 8992,
      "illity": 8993,
      "compr": 8994,
      "compose": 8995,
      "foam": 8996,
      "persec": 8997,
      "perfu": 8998,
      "perceptible": 8999,
      "sibility": 9000,
      "plating": 9001,
      "induced": 9002,
      "ulp": 9003,
      "ulously": 9004,
      "tracted": 9005,
      "ishes": 9006,
      "prop": 9007,
      "propose": 9008,
      "proportions": 9009,
      "hog": 9010,
      "daytime": 9011,
      "medicine": 9012,
      "ieth": 9013,
      "ieurs": 9014,
      "umbling": 9015,
      "disappear": 9016,
      "discharged": 9017,
      "handy": 9018,
      "wardrobe": 9019,
      "dizz": 9020,
      "claws": 9021,
      "inevitable": 9022,
      "pressures": 9023,
      "grain": 9024,
      "grind": 9025,
      "strasse": 9026,
      "stooped": 9027,
      "blamed": 9028,
      "blazing": 9029,
      "brut": 9030,
      "compatri": 9031,
      "carries": 9032,
      "shaw": 9033,
      "spel": 9034,
      "speck": 9035,
      "shoal": 9036,
      "lame": 9037,
      "survi": 9038,
      "remorse": 9039,
      "creation": 9040,
      "guilt": 9041,
      "horrors": 9042,
      "attribut": 9043,
      "scrap": 9044,
      "steal": 9045,
      "embrace": 9046,
      "mischief": 9047,
      "distinction": 9048,
      "rights": 9049,
      "aths": 9050,
      "crash": 9051,
      "avan": 9052,
      "torto": 9053,
      "visa": 9054,
      "visibly": 9055,
      "cili": 9056,
      "elevation": 9057,
      "refr": 9058,
      "phin": 9059,
      "phleg": 9060,
      "awed": 9061,
      "confided": 9062,
      "auth": 9063,
      "depends": 9064,
      "captured": 9065,
      "parrot": 9066,
      "paraly": 9067,
      "parchment": 9068,
      "trifling": 9069,
      "circles": 9070,
      "keeps": 9071,
      "homeward": 9072,
      "devices": 9073,
      "aternal": 9074,
      "THIS": 9075,
      "ifications": 9076,
      "structure": 9077,
      "resolve": 9078,
      "harmony": 9079,
      "perfection": 9080,
      "firearms": 9081,
      "horseman": 9082,
      "equinox": 9083,
      "risen": 9084,
      "buff": 9085,
      "furtive": 9086,
      "mount": 9087,
      "suspense": 9088,
      "fron": 9089,
      "fring": 9090,
      "frantic": 9091,
      "framed": 9092,
      "droll": 9093,
      "emphas": 9094,
      "circumference": 9095,
      "Within": 9096,
      "sprung": 9097,
      "learning": 9098,
      "beauties": 9099,
      "slender": 9100,
      "slanting": 9101,
      "logic": 9102,
      "contracted": 9103,
      "commands": 9104,
      "zeal": 9105,
      "dreadfully": 9106,
      "cryst": 9107,
      "THEN": 9108,
      "cuz": 9109,
      "conceive": 9110,
      "destined": 9111,
      "traits": 9112,
      "visiting": 9113,
      "Chant": 9114,
      "faithfully": 9115,
      "flex": 9116,
      "defy": 9117,
      "collisions": 9118,
      "allowing": 9119,
      "bowels": 9120,
      "superintend": 9121,
      "guardian": 9122,
      "varied": 9123,
      "fancies": 9124,
      "trustees": 9125,
      "requires": 9126,
      "complained": 9127,
      "schoon": 9128,
      "praying": 9129,
      "confession": 9130,
      "spectacles": 9131,
      "precision": 9132,
      "birth": 9133,
      "Everybody": 9134,
      "enjoying": 9135,
      "palanqu": 9136,
      "baskets": 9137,
      "convince": 9138,
      "luckily": 9139,
      "regrets": 9140,
      "weakened": 9141,
      "fluid": 9142,
      "junction": 9143,
      "trod": 9144,
      "witching": 9145,
      "occupy": 9146,
      "endeavouring": 9147,
      "endeavoring": 9148,
      "knocking": 9149,
      "proofs": 9150,
      "experiments": 9151,
      "bags": 9152,
      "nationality": 9153,
      "ichthy": 9154,
      "heights": 9155,
      "cherry": 9156,
      "Atlantis": 9157,
      "demands": 9158,
      "jump": 9159,
      "threaten": 9160,
      "XXV": 9161,
      "brightness": 9162,
      "crowded": 9163,
      "pigeons": 9164,
      "ceremon": 9165,
      "starved": 9166,
      "obstin": 9167,
      "gale": 9168,
      "introduce": 9169,
      "valued": 9170,
      "massive": 9171,
      "oysters": 9172,
      "province": 9173,
      "lodge": 9174,
      "explored": 9175,
      "previous": 9176,
      "previously": 9177,
      "drunken": 9178,
      "tranquillity": 9179,
      "twink": 9180,
      "splendor": 9181,
      "sports": 9182,
      "majesty": 9183,
      "fisheries": 9184,
      "Baron": 9185,
      "angling": 9186,
      "saddled": 9187,
      "vegetables": 9188,
      "skillfully": 9189,
      "dishes": 9190,
      "explore": 9191,
      "materially": 9192,
      "robbery": 9193,
      "Rogers": 9194,
      "Charles": 9195,
      "intentionally": 9196,
      "feebly": 9197,
      "assassinated": 9198,
      "harmless": 9199,
      "heroes": 9200,
      "conversing": 9201,
      "specimen": 9202,
      "metals": 9203,
      "instincts": 9204,
      "instinctively": 9205,
      "contemplating": 9206,
      "absorbing": 9207,
      "branded": 9208,
      "revolver": 9209,
      "diverted": 9210,
      "hypotheses": 9211,
      "feeding": 9212,
      "appeased": 9213,
      "altitude": 9214,
      "polyps": 9215,
      "glimmers": 9216,
      "Himself": 9217,
      "geological": 9218,
      "geologists": 9219,
      "dainty": 9220,
      "tumbling": 9221,
      "independence": 9222,
      "columns": 9223,
      "swelled": 9224,
      "populated": 9225,
      "counsels": 9226,
      "dawned": 9227,
      "reviving": 9228,
      "Malay": 9229,
      "flavor": 9230,
      "whitish": 9231,
      "entreaties": 9232,
      "principles": 9233,
      "shift": 9234,
      "clasped": 9235,
      "available": 9236,
      "politely": 9237,
      "ferryboat": 9238,
      "detached": 9239,
      "Arrived": 9240,
      "scale": 9241,
      "inconceivable": 9242,
      "scratch": 9243,
      "Davy": 9244,
      "lapse": 9245,
      "whims": 9246,
      "dignity": 9247,
      "scenes": 9248,
      "scholars": 9249,
      "dungeon": 9250,
      "folk": 9251,
      "disguise": 9252,
      "Happily": 9253,
      "Messieurs": 9254,
      "songs": 9255,
      "churned": 9256,
      "retreated": 9257,
      "sentinel": 9258,
      "deficient": 9259,
      "philosopher": 9260,
      "hesitatingly": 9261,
      "Emp": 9262,
      "_Nov": 9263,
      "haughty": 9264,
      "bristling": 9265,
      "treachery": 9266,
      "testimony": 9267,
      "faculties": 9268,
      "habitual": 9269,
      "hospitality": 9270,
      "Crusoe": 9271,
      "vulgar": 9272,
      "statue": 9273,
      "bleeding": 9274,
      "privilege": 9275,
      "Magna": 9276,
      "Truly": 9277,
      "WITH": 9278,
      "cushion": 9279,
      "extingu": 9280,
      "commencement": 9281,
      "tapestry": 9282,
      "Fahr": 9283,
      "aquatic": 9284,
      "inexpressible": 9285,
      "cruelly": 9286,
      "indispensable": 9287,
      "conspicuous": 9288,
[...]
