{
  "version": "1.0",
  "truncation": null,
  "padding": null,
  "added_tokens": [
    {
      "id": 0,
      "content": "<s>",
      "single_word": false,
      "lstrip": false,
      "rstrip": false,
      "normalized": false,
      "special": true
    },
    {
      "id": 1,
      "content": "</s>",
      "single_word": false,
      "lstrip": false,
      "rstrip": false,
      "normalized": false,
      "special": true
    },
    {
      "id": 2,
      "content": "<pad>",
      "single_word": false,
      "lstrip": false,
      "rstrip": false,
      "normalized": false,
      "special": true
    },
    {
      "id": 3,
      "content": "<unk>",
      "single_word": false,
      "lstrip": false,
      "rstrip": false,
      "normalized": false,
      "special": true
    }
  ],
  "normalizer": null,
  "pre_tokenizer": {
    "type": "Whitespace"
  },
  "post_processor": null,
  "decoder": null,
  "model": {
    "type": "BPE",
    "dropout": null,
    "unk_token": "<unk>",
    "continuing_subword_prefix": null,
    "end_of_word_suffix": null,
    "fuse_unk": false,
    "byte_fallback": false,
    "ignore_merges": false,
    "vocab": {
      "<s>": 0,
      "</s>": 1,
      "<pad>": 2,
      "<unk>": 3,
      "!": 4,
      "\"": 5,
      "#": 6,
      "&": 7,
      "'": 8,
      "(": 9,
      ")": 10,
      "*": 11,
      "+": 12,
      ",": 13,
      "-": 14,
      ".": 15,
      "/": 16,
      "0": 17,
      "1": 18,
      "2": 19,
      "3": 20,
      "4": 21,
      "5": 22,
      "6": 23,
      "7": 24,
      "8": 25,
      "9": 26,
      ":": 27,
      ";": 28,
      "<": 29,
      "=": 30,
      ">": 31,
      "?": 32,
      "A": 33,
      "B": 34,
      "C": 35,
      "D": 36,
      "E": 37,
      "F": 38,
      "G": 39,
      "H": 40,
      "I": 41,
      "J": 42,
      "K": 43,
      "L": 44,
      "M": 45,
      "N": 46,
      "O": 47,
      "P": 48,
      "Q": 49,
      "R": 50,
      "S": 51,
      "T": 52,
      "U": 53,
      "V": 54,
      "W": 55,
      "X": 56,
      "Y": 57,
      "Z": 58,
      "[": 59,
      "]": 60,
      "_": 61,
      "a": 62,
      "b": 63,
      "c": 64,
      "d": 65,
      "e": 66,
      "f": 67,
      "g": 68,
      "h": 69,
      "i": 70,
      "j": 71,
      "k": 72,
      "l": 73,
      "m": 74,
      "n": 75,
      "o": 76,
      "p": 77,
      "q": 78,
      "r": 79,
      "s": 80,
      "t": 81,
      "u": 82,
      "v": 83,
      "w": 84,
      "x": 85,
      "y": 86,
      "z": 87,
      "£": 88,
      "°": 89,
      "»": 90,
      "É": 91,
      "à": 92,
      "á": 93,
      "â": 94,
      "ä": 95,
      "ç": 96,
      "è": 97,
      "é": 98,
      "ê": 99,
      "ë": 100,
      "í": 101,
      "î": 102,
      "ï": 103,
      "ò": 104,
      "ó": 105,
      "ô": 106,
      "ö": 107,
      "ù": 108,
      "ü": 109,
      "—": 110,
      "’": 111,
      "‚": 112,
      "”": 113,
      "„": 114,
      "en": 115,
      "er": 116,
      "ij": 117,
      "an": 118,
      "de": 119,
      "et": 120,
      "oo": 121,
      "aa": 122,
      "el": 123,
      "in": 124,
      "ch": 125,
      "te": 126,
      "ge": 127,
      "on": 128,
      "den": 129,
      "st": 130,
      "aar": 131,
      "een": 132,
      "at": 133,
      "ver": 134,
      "gen": 135,
      "di": 136,
      "he": 137,
      "oor": 138,
      "het": 139,
      "ijn": 140,
      "al": 141,
      "van": 142,
      "der": 143,
      "ik": 144,
      "oe": 145,
      "sch": 146,
      "be": 147,
      "wa": 148,
      "ze": 149,
      "cht": 150,
      "re": 151,
      "dat": 152,
      "op": 153,
      "om": 154,
      "aan": 155,
      "ui": 156,
      "ou": 157,
      "iet": 158,
      "le": 159,
      "ken": 160,
      "we": 161,
      "ing": 162,
      "ie": 163,
      "zijn": 164,
      "niet": 165,
      "ijk": 166,
      "die": 167,
      "or": 168,
      "is": 169,
      "ha": 170,
      "hij": 171,
      "zi": 172,
      "was": 173,
      "voor": 174,
      "ven": 175,
      "ig": 176,
      "il": 177,
      "met": 178,
      "gel": 179,
      "--": 180,
      "zij": 181,
      "id": 182,
      "ur": 183,
      "ra": 184,
      "had": 185,
      "wij": 186,
      "ten": 187,
      "mij": 188,
      "men": 189,
      "ol": 190,
      "eer": 191,
      "mijn": 192,
      "to": 193,
      "ag": 194,
      "ar": 195,
      "uit": 196,
      "onder": 197,
      "wel": 198,
      "ste": 199,
      "waar": 200,
      "als": 201,
      "vr": 202,
      "and": 203,
      "un": 204,
      "na": 205,
      "--„": 206,
      "zoo": 207,
      "hem": 208,
      "sp": 209,
      "door": 210,
      "haar": 211,
      "zich": 212,
      "wer": 213,
      "dan": 214,
      "of": 215,
      "heb": 216,
      "ier": 217,
      "len": 218,
      "lijk": 219,
      "ne": 220,
      "over": 221,
      "heid": 222,
      "aat": 223,
      "zou": 224,
      "bij": 225,
      "me": 226,
      "Ik": 227,
      "gr": 228,
      "ant": 229,
      "maar": 230,
      ".\"": 231,
      "af": 232,
      "dr": 233,
      "bl": 234,
      "us": 235,
      "ouw": 236,
      "vol": 237,
      "og": 238,
      "ond": 239,
      "nen": 240,
      "ter": 241,
      "oen": 242,
      "je": 243,
      "ben": 244,
      "pen": 245,
      "De": 246,
      "acht": 247,
      "naar": 248,
      "gij": 249,
      "ed": 250,
      "ren": 251,
      "ul": 252,
      "sl": 253,
      "dig": 254,
      "dien": 255,
      "zei": 256,
      "ef": 257,
      "aal": 258,
      "zen": 259,
      ".”": 260,
      "wee": 261,
      "mo": 262,
      "kom": 263,
      "kon": 264,
      "wat": 265,
      "zel": 266,
      "ige": 267,
      "ien": 268,
      "ster": 269,
      "ander": 270,
      "daar": 271,
      "ap": 272,
      "ve": 273,
      "ont": 274,
      "ger": 275,
      "ke": 276,
      "lan": 277,
      "aak": 278,
      "rt": 279,
      "woor": 280,
      "eld": 281,
      "it": 282,
      "mer": 283,
      "uw": 284,
      "tot": 285,
      "zeide": 286,
      "geen": 287,
      "heer": 288,
      "elijk": 289,
      "moe": 290,
      "ker": 291,
      "nog": 292,
      "gev": 293,
      "uur": 294,
      "ijd": 295,
      "la": 296,
      "sche": 297,
      "th": 298,
      "eene": 299,
      "uk": 300,
      "ree": 301,
      "ingen": 302,
      "hebben": 303,
      "schen": 304,
      "ons": 305,
      "ma": 306,
      "br": 307,
      "waren": 308,
      "hoe": 309,
      ",\"": 310,
      "os": 311,
      "wil": 312,
      "wor": 313,
      "oeg": 314,
      "hoo": 315,
      "laat": 316,
      "toe": 317,
      "zien": 318,
      "komen": 319,
      "li": 320,
      "man": 321,
      "oed": 322,
      "nu": 323,
      "oot": 324,
      "Het": 325,
      "ber": 326,
      "zal": 327,
      "dit": 328,
      "ot": 329,
      "oon": 330,
      "her": 331,
      "agn": 332,
      "meer": 333,
      "min": 334,
      "del": 335,
      "hun": 336,
      "tijd": 337,
      "..": 338,
      "?\"": 339,
      "woord": 340,
      "ged": 341,
      "Art": 342,
      "ook": 343,
      "lie": 344,
      "agnan": 345,
      "Artagnan": 346,
      "oogen": 347,
      "deze": 348,
      "zul": 349,
      "rek": 350,
      "doen": 351,
      "ug": 352,
      "zeg": 353,
      "tr": 354,
      "zonder": 355,
      "eten": 356,
      "vrouw": 357,
      "sten": 358,
      "En": 359,
      "alle": 360,
      "gaan": 361,
      "igen": 362,
      "zelf": 363,
      "toen": 364,
      "kun": 365,
      "vo": 366,
      "werd": 367,
      "as": 368,
      "blik": 369,
      "ad": 370,
      "hou": 371,
      "ging": 372,
      "ood": 373,
      "zeer": 374,
      "elen": 375,
      "racht": 376,
      "tegen": 377,
      "gelijk": 378,
      "kwa": 379,
      "stel": 380,
      "eft": 381,
      "da": 382,
      "Maar": 383,
      "gehe": 384,
      "thos": 385,
      "?”": 386,
      "!”": 387,
      "ele": 388,
      "aten": 389,
      "hoor": 390,
      "twee": 391,
      "aam": 392,
      "och": 393,
      "all": 394,
      "Hij": 395,
      "delijk": 396,
      "worden": 397,
      "lang": 398,
      "beg": 399,
      "want": 400,
      "heeft": 401,
      "ite": 402,
      ",”": 403,
      "maak": 404,
      "kan": 405,
      "str": 406,
      "aad": 407,
      "antwoord": 408,
      "kle": 409,
      "veel": 410,
      "rie": 411,
      "mis": 412,
      "gew": 413,
      "!\"": 414,
      "zee": 415,
      "ft": 416,
      "kr": 417,
      "wijl": 418,
      "bo": 419,
      "za": 420,
      "mijne": 421,
      "goed": 422,
      "ka": 423,
      "dag": 424,
      "ok": 425,
      "sle": 426,
      "welke": 427,
      "kunnen": 428,
      "hal": 429,
      "zag": 430,
      "nam": 431,
      "zijne": 432,
      "oogenblik": 433,
      "zeker": 434,
      "geb": 435,
      "ang": 436,
      "ein": 437,
      "ende": 438,
      "onden": 439,
      "oom": 440,
      "leven": 441,
      "hier": 442,
      "ust": 443,
      "ut": 444,
      "pr": 445,
      "bet": 446,
      "verl": 447,
      "aag": 448,
      "In": 449,
      "kt": 450,
      "ucht": 451,
      "kl": 452,
      "plaat": 453,
      "ist": 454,
      "eens": 455,
      "weg": 456,
      "elde": 457,
      "uis": 458,
      "itein": 459,
      "weer": 460,
      "terug": 461,
      "innen": 462,
      "kap": 463,
      "dus": 464,
      "vond": 465,
      "gele": 466,
      "kwam": 467,
      "niets": 468,
      "dui": 469,
      "jon": 470,
      "mid": 471,
      "antwoordde": 472,
      "han": 473,
      "hen": 474,
      "eenige": 475,
      "per": 476,
      "geven": 477,
      "art": 478,
      "noo": 479,
      "moet": 480,
      "bel": 481,
      "vl": 482,
      "hadden": 483,
      "fd": 484,
      "riep": 485,
      "vert": 486,
      "versch": 487,
      "lin": 488,
      "wacht": 489,
      "mee": 490,
      "staan": 491,
      "vrien": 492,
      "groo": 493,
      "volgen": 494,
      "plaats": 495,
      "hi": 496,
      "allen": 497,
      "kapitein": 498,
      "chts": 499,
      "reken": 500,
      "mijnheer": 501,
      "weder": 502,
      "hand": 503,
      "eren": 504,
      "se": 505,
      "nie": 506,
      "chter": 507,
      "vree": 508,
      "even": 509,
      "eds": 510,
      "ri": 511,
      "Athos": 512,
      "elk": 513,
      "ans": 514,
      "Na": 515,
      "besch": 516,
      "stond": 517,
      "alles": 518,
      "kelijk": 519,
      "mede": 520,
      "Een": 521,
      "licht": 522,
      "zeggen": 523,
      "kte": 524,
      "Zij": 525,
      "vroeg": 526,
      "sen": 527,
      "drie": 528,
      "ind": 529,
      "iets": 530,
      "water": 531,
      "wan": 532,
      "ijf": 533,
      "va": 534,
      "geloo": 535,
      "houden": 536,
      "iden": 537,
      "toch": 538,
      "nemen": 539,
      "huis": 540,
      "wen": 541,
      "des": 542,
      "ff": 543,
      "ba": 544,
      "oog": 545,
      "alleen": 546,
      "keer": 547,
      "king": 548,
      "schap": 549,
      "deel": 550,
      "geluk": 551,
      "uren": 552,
      "ble": 553,
      "aard": 554,
      "voort": 555,
      "slechts": 556,
      "volg": 557,
      "andere": 558,
      "weet": 559,
      "binnen": 560,
      "Ja": 561,
      "zoe": 562,
      "Wat": 563,
      "ady": 564,
      "open": 565,
      "tig": 566,
      "gest": 567,
      "zicht": 568,
      "vier": 569,
      "weest": 570,
      "mil": 571,
      "Dat": 572,
      "stand": 573,
      "Al": 574,
      "sel": 575,
      "geweest": 576,
      "uiten": 577,
      "terwijl": 578,
      "get": 579,
      "ko": 580,
      "dt": 581,
      "usschen": 582,
      "bev": 583,
      "Tom": 584,
      "aren": 585,
      "Wel": 586,
      "im": 587,
      "moest": 588,
      "zullen": 589,
      "Elin": 590,
      "orgen": 591,
      "Elinor": 592,
      "groote": 593,
      "stig": 594,
      "sn": 595,
      "Toen": 596,
      "maken": 597,
      "land": 598,
      "hoofd": 599,
      "tusschen": 600,
      "zet": 601,
      "Mar": 602,
      "neer": 603,
      "achter": 604,
      "loo": 605,
      "vor": 606,
      "lig": 607,
      "war": 608,
      "vi": 609,
      "wilde": 610,
      "hebt": 611,
      "reden": 612,
      "uc": 613,
      "deed": 614,
      "do": 615,
      "Me": 616,
      "reeds": 617,
      "gevo": 618,
      "blij": 619,
      "schijn": 620,
      "groot": 621,
      "haal": 622,
      "dige": 623,
      "kende": 624,
      "baar": 625,
      "bren": 626,
      "gesch": 627,
      "deren": 628,
      "Fog": 629,
      "dacht": 630,
      "Fogg": 631,
      "maal": 632,
      "boven": 633,
      "Mijn": 634,
      "fde": 635,
      "geheel": 636,
      "din": 637,
      "ip": 638,
      "spr": 639,
      "druk": 640,
      "onze": 641,
      "Por": 642,
      "ee": 643,
      "mand": 644,
      "bere": 645,
      "koning": 646,
      "doch": 647,
      "heden": 648,
      "raad": 649,
      "hart": 650,
      "tui": 651,
      "ian": 652,
      "wein": 653,
      "zouden": 654,
      "Wij": 655,
      "klein": 656,
      "zooals": 657,
      "echter": 658,
      "rij": 659,
      "uwe": 660,
      "ilus": 661,
      "Gij": 662,
      "utilus": 663,
      "Nautilus": 664,
      "stem": 665,
      "ek": 666,
      "zaak": 667,
      "liet": 668,
      "zelfs": 669,
      "Marian": 670,
      "Marianne": 671,
      "kamer": 672,
      "kar": 673,
      "ief": 674,
      "eigen": 675,
      "Op": 676,
      "ers": 677,
      "chte": 678,
      "ort": 679,
      "ide": 680,
      "pl": 681,
      "part": 682,
      "vangen": 683,
      "dra": 684,
      "oord": 685,
      "begon": 686,
      "meen": 687,
      "Mevrouw": 688,
      "har": 689,
      "gt": 690,
      "zin": 691,
      "mogelijk": 692,
      "od": 693,
      "deur": 694,
      "woorden": 695,
      "bleef": 696,
      "rak": 697,
      "tw": 698,
      "ong": 699,
      "alen": 700,
      "uik": 701,
      "thans": 702,
      "vrees": 703,
      "Porthos": 704,
      "kardin": 705,
      "maakte": 706,
      "heen": 707,
      "kardinaal": 708,
      "brengen": 709,
      "Daar": 710,
      "hel": 711,
      "wonder": 712,
      "gekomen": 713,
      "ga": 714,
      "stil": 715,
      "kel": 716,
      "inden": 717,
      "laten": 718,
      "hare": 719,
      "dagen": 720,
      "rouw": 721,
      "milady": 722,
      "eil": 723,
      "gere": 724,
      "spreken": 725,
      "Ara": 726,
      "weinig": 727,
      "oos": 728,
      "vel": 729,
      "hield": 730,
      "maakt": 731,
      "meester": 732,
      "diep": 733,
      "zit": 734,
      "igheid": 735,
      "jes": 736,
      "vaar": 737,
      "scheen": 738,
      "besl": 739,
      "genoeg": 740,
      "eenig": 741,
      "gens": 742,
      "kend": 743,
      "hoog": 744,
      "gaf": 745,
      "am": 746,
      "ks": 747,
      "nat": 748,
      "Aramis": 749,
      "vertr": 750,
      "uist": 751,
      "tre": 752,
      "vrij": 753,
      "ocht": 754,
      "middel": 755,
      "nooit": 756,
      "anderen": 757,
      "gebr": 758,
      "out": 759,
      "wist": 760,
      "anders": 761,
      "buiten": 762,
      "ss": 763,
      "ac": 764,
      "Ned": 765,
      "lui": 766,
      "lijke": 767,
      "morgen": 768,
      "elt": 769,
      "oren": 770,
      "gelukk": 771,
      "elijke": 772,
      "paar": 773,
      "verb": 774,
      "altijd": 775,
      "eerste": 776,
      "honder": 777,
      "ijken": 778,
      "mak": 779,
      "omen": 780,
      "boot": 781,
      "nacht": 782,
      "schip": 783,
      "hoop": 784,
      "ling": 785,
      "off": 786,
      "tien": 787,
      "grond": 788,
      "est": 789,
      "ouwen": 790,
      "moeten": 791,
      "derd": 792,
      "weten": 793,
      "ner": 794,
      "tuig": 795,
      "zaam": 796,
      "snel": 797,
      "vla": 798,
      "reis": 799,
      "zie": 800,
      "wereld": 801,
      "avond": 802,
      "oten": 803,
      "dood": 804,
      "zijt": 805,
      "eerst": 806,
      "grij": 807,
      "staat": 808,
      "gedaan": 809,
      "sla": 810,
      "voet": 811,
      "honderd": 812,
      "ding": 813,
      "schien": 814,
      "vertrek": 815,
      "naam": 816,
      "wijze": 817,
      "roe": 818,
      "gez": 819,
      "oort": 820,
      "verg": 821,
      "kracht": 822,
      "uff": 823,
      "Men": 824,
      "Hoe": 825,
      "zult": 826,
      "geloof": 827,
      "werden": 828,
      "Neen": 829,
      "Waar": 830,
      "ille": 831,
      "wijf": 832,
      "okken": 833,
      "vriend": 834,
      "Pas": 835,
      "bez": 836,
      "oken": 837,
      "zu": 838,
      "beeld": 839,
      "Koen": 840,
      "ak": 841,
      "ning": 842,
      "derde": 843,
      "beur": 844,
      "...": 845,
      "goe": 846,
      "denk": 847,
      "elkander": 848,
      "Passe": 849,
      "God": 850,
      "werk": 851,
      "Passepart": 852,
      "icht": 853,
      "som": 854,
      "leg": 855,
      "Passepartout": 856,
      "schoon": 857,
      "mp": 858,
      ",--": 859,
      "tra": 860,
      "omdat": 861,
      "recht": 862,
      "wanneer": 863,
      "plan": 864,
      "strek": 865,
      "nieuw": 866,
      "bijn": 867,
      "genheid": 868,
      "dier": 869,
      "rik": 870,
      "vinden": 871,
      "blijven": 872,
      "wier": 873,
      "stan": 874,
      "ieu": 875,
      "vijf": 876,
      "digen": 877,
      "wezen": 878,
      "val": 879,
      "denken": 880,
      "brief": 881,
      "hoorde": 882,
      "éé": 883,
      "gezien": 884,
      "Zijn": 885,
      "md": 886,
      "zend": 887,
      "ran": 888,
      "bed": 889,
      "ijs": 890,
      "indien": 891,
      "hernam": 892,
      "ater": 893,
      "verd": 894,
      "viel": 895,
      "vij": 896,
      "hunne": 897,
      "half": 898,
      "ket": 899,
      "oud": 900,
      "natuur": 901,
      "lucht": 902,
      "pt": 903,
      "bijna": 904,
      "juist": 905,
      "onbe": 906,
      "kennen": 907,
      "spe": 908,
      "gewoon": 909,
      "end": 910,
      "tee": 911,
      "stellen": 912,
      "noodig": 913,
      "Dit": 914,
      "jaar": 915,
      "ro": 916,
      "vrienden": 917,
      "zelfde": 918,
      "pun": 919,
      "oedig": 920,
      "eiland": 921,
      "uffrouw": 922,
      "gezeg": 923,
      "stuk": 924,
      "zuster": 925,
      "aas": 926,
      "laatste": 927,
      "dezen": 928,
      "ville": 929,
      "volgens": 930,
      "mus": 931,
      "rust": 932,
      "gemaakt": 933,
      "voer": 934,
      "zoeken": 935,
      "noch": 936,
      "vallen": 937,
      "waarin": 938,
      "mes": 939,
      "gra": 940,
      "Engel": 941,
      "Tr": 942,
      "aap": 943,
      "uid": 944,
      "ord": 945,
      "richt": 946,
      "Bon": 947,
      "Ne": 948,
      "ieux": 949,
      "gesp": 950,
      "nis": 951,
      "acieux": 952,
      "Bonacieux": 953,
      "ple": 954,
      "gezel": 955,
      "welijk": 956,
      "hooren": 957,
      "zon": 958,
      "dik": 959,
      "Tré": 960,
      "On": 961,
      "misschien": 962,
      "gelukkig": 963,
      "gezegd": 964,
      "anden": 965,
      "verder": 966,
      "Ver": 967,
      "zijde": 968,
      "bereik": 969,
      "kleine": 970,
      "willen": 971,
      "einde": 972,
      "org": 973,
      "ja": 974,
      "intig": 975,
      "geest": 976,
      "gebracht": 977,
      "vast": 978,
      "bracht": 979,
      "ce": 980,
      "ool": 981,
      "verlaten": 982,
      "ellen": 983,
      "komst": 984,
      "kwamen": 985,
      "handen": 986,
      "genomen": 987,
      "ware": 988,
      "volgde": 989,
      "bra": 990,
      "vraag": 991,
      "wien": 992,
      "Zoo": 993,
      "kw": 994,
      "musket": 995,
      "vul": 996,
      "iemand": 997,
      "bijzonder": 998,
      "omt": 999,
      "liep": 1000,
      "Koenraad": 1001,
      "stad": 1002,
      "ragen": 1003,
      "lag": 1004,
      "hetgeen": 1005,
      "twintig": 1006,
      "ders": 1007,
      "achten": 1008,
      "halve": 1009,
      "zoek": 1010,
      "zer": 1011,
      "wachten": 1012,
      "Als": 1013,
      "kken": 1014,
      "minste": 1015,
      "Tréville": 1016,
      "geval": 1017,
      "scheiden": 1018,
      "waarde": 1019,
      "alsof": 1020,
      "zelven": 1021,
      "Er": 1022,
      "haa": 1023,
      "bew": 1024,
      "spoedig": 1025,
      "lim": 1026,
      "verschil": 1027,
      "bele": 1028,
      "let": 1029,
      "urende": 1030,
      "reep": 1031,
      "langs": 1032,
      "sa": 1033,
      "opge": 1034,
      "minder": 1035,
      "krij": 1036,
      "Nu": 1037,
      "kal": 1038,
      "ijden": 1039,
      "elden": 1040,
      "haalde": 1041,
      "punt": 1042,
      "beide": 1043,
      "zulk": 1044,
      "aarde": 1045,
      "ST": 1046,
      "gezicht": 1047,
      "beter": 1048,
      "Welnu": 1049,
      "uwelijk": 1050,
      "steen": 1051,
      "gevangen": 1052,
      "oegen": 1053,
      "iers": 1054,
      "konden": 1055,
      "ming": 1056,
      "tie": 1057,
      "gesteld": 1058,
      "urig": 1059,
      "welk": 1060,
      "geheele": 1061,
      "gingen": 1062,
      "rijk": 1063,
      "gelaat": 1064,
      "menschen": 1065,
      "kn": 1066,
      "dem": 1067,
      "ieden": 1068,
      "Fran": 1069,
      "boord": 1070,
      "geworden": 1071,
      "lach": 1072,
      "wordt": 1073,
      "bare": 1074,
      "ën": 1075,
      "St": 1076,
      "mat": 1077,
      "gene": 1078,
      "reven": 1079,
      "gerust": 1080,
      "moeder": 1081,
      "jongen": 1082,
      "twijf": 1083,
      "vis": 1084,
      "gemak": 1085,
      "berg": 1086,
      "ic": 1087,
      "één": 1088,
      "pa": 1089,
      "stap": 1090,
      "aller": 1091,
      "gebruik": 1092,
      "ill": 1093,
      "geld": 1094,
      "uwen": 1095,
      "beschouw": 1096,
      "pers": 1097,
      "FD": 1098,
      "boe": 1099,
      "verwij": 1100,
      "dwar": 1101,
      "els": 1102,
      "immer": 1103,
      "ppen": 1104,
      "ving": 1105,
      "slag": 1106,
      "dienst": 1107,
      "toon": 1108,
      "ud": 1109,
      "delen": 1110,
      "Deze": 1111,
      "halen": 1112,
      "rot": 1113,
      "....": 1114,
      "OO": 1115,
      "wal": 1116,
      "zelve": 1117,
      "Die": 1118,
      "HOO": 1119,
      "UK": 1120,
      "begrij": 1121,
      "STUK": 1122,
      "FDSTUK": 1123,
      "HOOFDSTUK": 1124,
      "pas": 1125,
      "Felt": 1126,
      "Felton": 1127,
      "Be": 1128,
      "behoe": 1129,
      "mensch": 1130,
      "waart": 1131,
      "em": 1132,
      "merik": 1133,
      "digheid": 1134,
      "mocht": 1135,
      "komt": 1136,
      "vre": 1137,
      "ham": 1138,
      "minu": 1139,
      "rond": 1140,
      "ooit": 1141,
      "sprak": 1142,
      "bar": 1143,
      "later": 1144,
      "zig": 1145,
      "mevrouw": 1146,
      "reek": 1147,
      "zitten": 1148,
      "soort": 1149,
      "eindelijk": 1150,
      "gereed": 1151,
      "dert": 1152,
      "teeken": 1153,
      "óó": 1154,
      "waarop": 1155,
      "ir": 1156,
      "ix": 1157,
      "oude": 1158,
      "duizend": 1159,
      "mde": 1160,
      "verkl": 1161,
      "Land": 1162,
      "wood": 1163,
      "zes": 1164,
      ".--": 1165,
      "gehoor": 1166,
      "los": 1167,
      "jonge": 1168,
      "Huc": 1169,
      "hul": 1170,
      "gegeven": 1171,
      "wie": 1172,
      "deelen": 1173,
      "lo": 1174,
      "uin": 1175,
      "eter": 1176,
      "heeren": 1177,
      "gevaar": 1178,
      "luister": 1179,
      "paard": 1180,
      "ank": 1181,
      "00": 1182,
      "Edwar": 1183,
      "woe": 1184,
      "omp": 1185,
      "herin": 1186,
      "Edward": 1187,
      "Fix": 1188,
      "by": 1189,
      "stroom": 1190,
      "erd": 1191,
      "vermoe": 1192,
      "koningin": 1193,
      "dieren": 1194,
      "rent": 1195,
      "slagen": 1196,
      "dheid": 1197,
      "trek": 1198,
      "vuur": 1199,
      "ieder": 1200,
      "hoewel": 1201,
      "wees": 1202,
      "las": 1203,
      "gewon": 1204,
      "jongel": 1205,
      "goede": 1206,
      "Amerik": 1207,
      "oep": 1208,
      "Den": 1209,
      "ck": 1210,
      "meter": 1211,
      "Van": 1212,
      "wind": 1213,
      "ash": 1214,
      "verloren": 1215,
      "bewe": 1216,
      "dank": 1217,
      "ofe": 1218,
      "juffrouw": 1219,
      "waarvan": 1220,
      "Dash": 1221,
      "olen": 1222,
      "Dashwood": 1223,
      "eg": 1224,
      "ontde": 1225,
      "zetten": 1226,
      "gaat": 1227,
      "vle": 1228,
      "niemand": 1229,
      "loopen": 1230,
      "Is": 1231,
      "maan": 1232,
      "vragen": 1233,
      "oomen": 1234,
      "gevolg": 1235,
      "beste": 1236,
      "voorbij": 1237,
      "handel": 1238,
      "geheim": 1239,
      "profe": 1240,
      "strekt": 1241,
      "verzeker": 1242,
      "paal": 1243,
      "won": 1244,
      "zocht": 1245,
      "ssor": 1246,
      "omtrent": 1247,
      "gemakkelijk": 1248,
      "best": 1249,
      "minuten": 1250,
      "achtig": 1251,
      "toestand": 1252,
      "stelde": 1253,
      "uldig": 1254,
      "doet": 1255,
      "Par": 1256,
      "oug": 1257,
      "professor": 1258,
      "gang": 1259,
      "volkomen": 1260,
      "Te": 1261,
      "stor": 1262,
      "zooveel": 1263,
      "broe": 1264,
      "begreep": 1265,
      "gesprek": 1266,
      "Sp": 1267,
      "enning": 1268,
      "edel": 1269,
      "gol": 1270,
      "onken": 1271,
      "straat": 1272,
      "glim": 1273,
      "weeg": 1274,
      "kne": 1275,
      "verlie": 1276,
      "Jenning": 1277,
      "ern": 1278,
      "gebeur": 1279,
      "scher": 1280,
      "kers": 1281,
      "zak": 1282,
      "opper": 1283,
      "zoodat": 1284,
      "Nemo": 1285,
      "Jennings": 1286,
      "lot": 1287,
      "gedeel": 1288,
      "verba": 1289,
      "ometer": 1290,
      "herinner": 1291,
      "mte": 1292,
      "nood": 1293,
      "samen": 1294,
      "Voor": 1295,
      "Mijnheer": 1296,
      "vlakte": 1297,
      "Huck": 1298,
      "Vr": 1299,
      "standig": 1300,
      "olon": 1301,
      "neder": 1302,
      "zijner": 1303,
      "zegt": 1304,
      "sm": 1305,
      "taf": 1306,
      "onver": 1307,
      "gevoel": 1308,
      "Ma": 1309,
      "wit": 1310,
      "gesl": 1311,
      "midden": 1312,
      "kust": 1313,
      "ooten": 1314,
      "itter": 1315,
      "lief": 1316,
      "wensch": 1317,
      "keeren": 1318,
      "tal": 1319,
      "merk": 1320,
      "Uwe": 1321,
      "oop": 1322,
      "verle": 1323,
      "getr": 1324,
      "schijnlijk": 1325,
      "ische": 1326,
      "ziet": 1327,
      "vlucht": 1328,
      "volgenden": 1329,
      "keerde": 1330,
      "II": 1331,
      "kor": 1332,
      "steeds": 1333,
      "nader": 1334,
      "ftig": 1335,
      "hulp": 1336,
      "vooral": 1337,
      "gelegenheid": 1338,
      "bre": 1339,
      "kant": 1340,
      "mag": 1341,
      "tracht": 1342,
      "verwonder": 1343,
      "ough": 1344,
      "Jo": 1345,
      "gewel": 1346,
      "keek": 1347,
      "liefde": 1348,
      "liggen": 1349,
      "derdaad": 1350,
      "jongeling": 1351,
      "Will": 1352,
      "ogen": 1353,
      "schat": 1354,
      "wapen": 1355,
      "regen": 1356,
      "moed": 1357,
      "Doch": 1358,
      "Phi": 1359,
      "gd": 1360,
      "gehad": 1361,
      "leas": 1362,
      "wilt": 1363,
      "oughby": 1364,
      "Willoughby": 1365,
      "Phileas": 1366,
      "Plan": 1367,
      "wijls": 1368,
      "es": 1369,
      "hol": 1370,
      "chet": 1371,
      "um": 1372,
      "entie": 1373,
      "aangen": 1374,
      "minentie": 1375,
      "visschen": 1376,
      "Eminentie": 1377,
      "zui": 1378,
      "tog": 1379,
      "duidelijk": 1380,
      "veer": 1381,
      "gegaan": 1382,
      "werp": 1383,
      "uld": 1384,
      "twijfel": 1385,
      "Planchet": 1386,
      "lord": 1387,
      "spel": 1388,
      "stelling": 1389,
      "tafel": 1390,
      "Hier": 1391,
      "geef": 1392,
      "musketiers": 1393,
      "iss": 1394,
      "volstrekt": 1395,
      "lagen": 1396,
      "gedurende": 1397,
      "olonel": 1398,
      "zwij": 1399,
      "zeven": 1400,
      "gevallen": 1401,
      "mannen": 1402,
      "He": 1403,
      "hn": 1404,
      "kil": 1405,
      "vat": 1406,
      "waarom": 1407,
      "afstand": 1408,
      "gers": 1409,
      "zucht": 1410,
      "tocht": 1411,
      "hertog": 1412,
      "belang": 1413,
      "seling": 1414,
      "Luc": 1415,
      "kunt": 1416,
      "waarts": 1417,
      "inter": 1418,
      "bewij": 1419,
      "werpen": 1420,
      "merkte": 1421,
      "proe": 1422,
      "snelheid": 1423,
      "waarschijnlijk": 1424,
      "ontmoet": 1425,
      "houd": 1426,
      "wachtte": 1427,
      "John": 1428,
      "Br": 1429,
      "eden": 1430,
      "ure": 1431,
      "zwa": 1432,
      "oone": 1433,
      "arme": 1434,
      "zaken": 1435,
      "veroor": 1436,
      "ieten": 1437,
      "vroe": 1438,
      "digd": 1439,
      "dikwijls": 1440,
      "noe": 1441,
      "gespr": 1442,
      "rs": 1443,
      "dezelfde": 1444,
      "bepaal": 1445,
      "onmogelijk": 1446,
      "eenigen": 1447,
      "arm": 1448,
      "lieden": 1449,
      "tegenwoor": 1450,
      "bevel": 1451,
      "zette": 1452,
      "meende": 1453,
      "ceaan": 1454,
      "persoon": 1455,
      "achtige": 1456,
      "middellijk": 1457,
      "Lucy": 1458,
      "dre": 1459,
      "kort": 1460,
      "voeg": 1461,
      "vooruit": 1462,
      "verschrik": 1463,
      "waard": 1464,
      "heel": 1465,
      "behoor": 1466,
      "armen": 1467,
      "zoudt": 1468,
      "sedert": 1469,
      "gevoelen": 1470,
      "grootste": 1471,
      "vertrekken": 1472,
      "been": 1473,
      "hin": 1474,
      "vou": 1475,
      "wol": 1476,
      "verk": 1477,
      "gevonden": 1478,
      "vader": 1479,
      "gedeelte": 1480,
      "An": 1481,
      "fr": 1482,
      "beiden": 1483,
      "rei": 1484,
      "bloed": 1485,
      "sloeg": 1486,
      "langer": 1487,
      "ijdag": 1488,
      "liever": 1489,
      "Zijne": 1490,
      "beweging": 1491,
      "Londen": 1492,
      "verander": 1493,
      "voldoen": 1494,
      "geene": 1495,
      "betre": 1496,
      "voren": 1497,
      "visch": 1498,
      "vaartuig": 1499,
      "krijgen": 1500,
      "qu": 1501,
      "enk": 1502,
      "zeil": 1503,
      "res": 1504,
      "langen": 1505,
      "geveer": 1506,
      "Om": 1507,
      "gun": 1508,
      "naa": 1509,
      "tel": 1510,
      "erde": 1511,
      "verdr": 1512,
      "bezig": 1513,
      "lende": 1514,
      "moesten": 1515,
      "moeite": 1516,
      "gesproken": 1517,
      "gan": 1518,
      "rui": 1519,
      "ta": 1520,
      "wijn": 1521,
      "les": 1522,
      "duister": 1523,
      "nieuwe": 1524,
      "Amerikaan": 1525,
      "Mid": 1526,
      "bemin": 1527,
      "diepte": 1528,
      "Vrijdag": 1529,
      "jaren": 1530,
      "gels": 1531,
      "houding": 1532,
      "doo": 1533,
      "neen": 1534,
      "onzen": 1535,
      "broeder": 1536,
      "Ar": 1537,
      "dicht": 1538,
      "gedachten": 1539,
      "voelde": 1540,
      "dadelijk": 1541,
      "schijnt": 1542,
      "doe": 1543,
      "kennis": 1544,
      "daarna": 1545,
      "lippen": 1546,
      "kleed": 1547,
      "dragen": 1548,
      "zwijgen": 1549,
      "isch": 1550,
      "oven": 1551,
      "degen": 1552,
      "ongeveer": 1553,
      "bede": 1554,
      "angst": 1555,
      "trad": 1556,
      "gewone": 1557,
      "plicht": 1558,
      "gek": 1559,
      "onmiddellijk": 1560,
      "wed": 1561,
      "ment": 1562,
      "wierp": 1563,
      "Kolonel": 1564,
      "zorg": 1565,
      "anen": 1566,
      "verde": 1567,
      "uiter": 1568,
      "spoor": 1569,
      "ontvangen": 1570,
      "uwelijks": 1571,
      "kent": 1572,
      "scheid": 1573,
      "hoogte": 1574,
      "kind": 1575,
      "mon": 1576,
      "ub": 1577,
      "onk": 1578,
      "vers": 1579,
      "naderde": 1580,
      "beneden": 1581,
      "loop": 1582,
      "vertrouwen": 1583,
      "Ein": 1584,
      "Hol": 1585,
      "zat": 1586,
      "aakte": 1587,
      "vertoon": 1588,
      "paarden": 1589,
      "glimlach": 1590,
      "Buc": 1591,
      "dur": 1592,
      "Eindelijk": 1593,
      "Winter": 1594,
      "dde": 1595,
      "pte": 1596,
      "gemeen": 1597,
      "eenvou": 1598,
      "wilden": 1599,
      "zagen": 1600,
      "kingham": 1601,
      "Buckingham": 1602,
      "Hans": 1603,
      "kaar": 1604,
      "zing": 1605,
      "genoegen": 1606,
      "werkelijk": 1607,
      "delijke": 1608,
      "uil": 1609,
      "don": 1610,
      "bek": 1611,
      "slaap": 1612,
      "oet": 1613,
      "roo": 1614,
      "bedr": 1615,
      "lich": 1616,
      "gelooven": 1617,
      "ffen": 1618,
      "gehoord": 1619,
      "vig": 1620,
      "schrij": 1621,
      "blijf": 1622,
      "slaan": 1623,
      "lange": 1624,
      "doel": 1625,
      "twaal": 1626,
      "nauw": 1627,
      "meis": 1628,
      "pro": 1629,
      "offen": 1630,
      "haast": 1631,
      "rots": 1632,
      "oppervlakte": 1633,
      "pist": 1634,
      "verhe": 1635,
      "mijner": 1636,
      "dw": 1637,
      "gar": 1638,
      "zwaar": 1639,
      "schitter": 1640,
      "bla": 1641,
      "grooten": 1642,
      "standigheden": 1643,
      "kilometer": 1644,
      "ijen": 1645,
      "omstandigheden": 1646,
      "voorzicht": 1647,
      "vroeger": 1648,
      "pond": 1649,
      "bezit": 1650,
      "opende": 1651,
      "kleur": 1652,
      "besloot": 1653,
      "isten": 1654,
      "ring": 1655,
      "tje": 1656,
      "ieren": 1657,
      "bosch": 1658,
      "zinn": 1659,
      "Engeland": 1660,
      "Joe": 1661,
      "fa": 1662,
      "mond": 1663,
      "chten": 1664,
      "daarop": 1665,
      "kost": 1666,
      "fen": 1667,
      "bevond": 1668,
      "bespe": 1669,
      "Mil": 1670,
      "Oceaan": 1671,
      "zacht": 1672,
      "tegenover": 1673,
      "tweede": 1674,
      "donker": 1675,
      "vorm": 1676,
      "leggen": 1677,
      "nieuws": 1678,
      "Met": 1679,
      "achte": 1680,
      "geve": 1681,
      "bezoek": 1682,
      "ies": 1683,
      "zende": 1684,
      "herberg": 1685,
      "duivel": 1686,
      "bol": 1687,
      "kin": 1688,
      "vind": 1689,
      "behalve": 1690,
      "nimmer": 1691,
      "vele": 1692,
      "lei": 1693,
      "werkt": 1694,
      "jeste": 1695,
      "enkele": 1696,
      "Ze": 1697,
      "malen": 1698,
      "ruk": 1699,
      "oorden": 1700,
      "strand": 1701,
      "verschijn": 1702,
      "rijtuig": 1703,
      "bank": 1704,
      "ongen": 1705,
      "bewonder": 1706,
      "venster": 1707,
      "sterk": 1708,
      "gedachte": 1709,
      "Indi": 1710,
      "staande": 1711,
      "Milady": 1712,
      "pracht": 1713,
      "gedr": 1714,
      "stak": 1715,
      "verbeeld": 1716,
      "mogen": 1717,
      "bergen": 1718,
      "sprong": 1719,
      "XX": 1720,
      "sne": 1721,
      "aarne": 1722,
      "hetwelk": 1723,
      "Waarom": 1724,
      "voegde": 1725,
      "Zie": 1726,
      "ade": 1727,
      "stonden": 1728,
      "regel": 1729,
      "welken": 1730,
      "keurig": 1731,
      "dame": 1732,
      "vloed": 1733,
      "golven": 1734,
      "jesteit": 1735,
      "Dan": 1736,
      "Heer": 1737,
      "enkel": 1738,
      "verlang": 1739,
      "schou": 1740,
      "hard": 1741,
      "ister": 1742,
      "verhaal": 1743,
      "andon": 1744,
      "zoodra": 1745,
      "oogenblikken": 1746,
      "gelegd": 1747,
      "richting": 1748,
      "gezelschap": 1749,
      "beschouwde": 1750,
      "begrijpen": 1751,
      ";--": 1752,
      "Aou": 1753,
      "duur": 1754,
      "hui": 1755,
      "leef": 1756,
      "tenis": 1757,
      "schepen": 1758,
      "vloe": 1759,
      "bleek": 1760,
      "bereid": 1761,
      "plot": 1762,
      "natuurlijk": 1763,
      "verschillende": 1764,
      "Brandon": 1765,
      "Aouda": 1766,
      "moo": 1767,
      "pap": 1768,
      "inderdaad": 1769,
      "eener": 1770,
      "verscheiden": 1771,
      "menig": 1772,
      "negen": 1773,
      "Indien": 1774,
      "trein": 1775,
      "ernstig": 1776,
      "twaalf": 1777,
      "Je": 1778,
      "boom": 1779,
      "esch": 1780,
      "par": 1781,
      "sto": 1782,
      "ligt": 1783,
      "gevoelde": 1784,
      "beleef": 1785,
      "lichaam": 1786,
      "boomen": 1787,
      "fort": 1788,
      "wr": 1789,
      "geweer": 1790,
      "verst": 1791,
      "schre": 1792,
      "geleer": 1793,
      "itie": 1794,
      "trok": 1795,
      "geleden": 1796,
      "vlak": 1797,
      "....\"": 1798,
      "legde": 1799,
      "adem": 1800,
      "pre": 1801,
      "aaf": 1802,
      "bekend": 1803,
      "digde": 1804,
      "deling": 1805,
      "zins": 1806,
      "Majesteit": 1807,
      "aangenaam": 1808,
      "dingen": 1809,
      "oost": 1810,
      "schreden": 1811,
      "ouden": 1812,
      "namen": 1813,
      "worpen": 1814,
      "gelijke": 1815,
      "begin": 1816,
      "óór": 1817,
      "kker": 1818,
      "pol": 1819,
      "kens": 1820,
      "krijk": 1821,
      "elkaar": 1822,
      "Aan": 1823,
      "ctr": 1824,
      "waarmede": 1825,
      "werken": 1826,
      "aakt": 1827,
      "reeg": 1828,
      "schenen": 1829,
      "trap": 1830,
      "gesloten": 1831,
      "Laat": 1832,
      "gal": 1833,
      "kop": 1834,
      "sal": 1835,
      "gehouden": 1836,
      "vervul": 1837,
      "gelaten": 1838,
      "voeren": 1839,
      "roepen": 1840,
      "knecht": 1841,
      "Holmes": 1842,
      "ast": 1843,
      "bood": 1844,
      "lingen": 1845,
      "verm": 1846,
      "verra": 1847,
      "mijlen": 1848,
      "keur": 1849,
      "vlot": 1850,
      "stukken": 1851,
      "Parijs": 1852,
      "win": 1853,
      "geer": 1854,
      "vervolgens": 1855,
      "aanzien": 1856,
      "orde": 1857,
      "weldra": 1858,
      "reeks": 1859,
      "zelfden": 1860,
      "voeten": 1861,
      "verliet": 1862,
      "vergeten": 1863,
      "Goed": 1864,
      "selen": 1865,
      "geslagen": 1866,
      "stoom": 1867,
      "schri": 1868,
      "reekt": 1869,
      "denkbeeld": 1870,
      "betreft": 1871,
      "Ba": 1872,
      "oer": 1873,
      "aai": 1874,
      "bedaar": 1875,
      "waardig": 1876,
      "herhaalde": 1877,
      "zulke": 1878,
      "electr": 1879,
      "stilte": 1880,
      "schil": 1881,
      "uitge": 1882,
      "span": 1883,
      "zenden": 1884,
      "namelijk": 1885,
      "meest": 1886,
      "boek": 1887,
      "vleesch": 1888,
      "Sir": 1889,
      "echt": 1890,
      "waarlijk": 1891,
      "dringen": 1892,
      "jegens": 1893,
      "brand": 1894,
      "bodem": 1895,
      "vreeselijk": 1896,
      "Ha": 1897,
      "bur": 1898,
      "ct": 1899,
      "ied": 1900,
      "ieven": 1901,
      "rag": 1902,
      "slapen": 1903,
      "maanden": 1904,
      "Fer": 1905,
      "lant": 1906,
      "tele": 1907,
      "ett": 1908,
      "hetzelfde": 1909,
      "schrik": 1910,
      "antwoorden": 1911,
      "merkt": 1912,
      "ugd": 1913,
      "middelen": 1914,
      "makkers": 1915,
      "wiens": 1916,
      "trekken": 1917,
      "Bij": 1918,
      "Ge": 1919,
      "kna": 1920,
      "macht": 1921,
      "muur": 1922,
      "vóór": 1923,
      "elke": 1924,
      "beproe": 1925,
      "leid": 1926,
      "hunner": 1927,
      "reizi": 1928,
      "zóó": 1929,
      "bestaan": 1930,
      "red": 1931,
      "eind": 1932,
      "vertellen": 1933,
      "drukking": 1934,
      "storm": 1935,
      "etten": 1936,
      "genoot": 1937,
      "oppen": 1938,
      "voorzien": 1939,
      "voorkomen": 1940,
      "hemel": 1941,
      "groe": 1942,
      "trachtte": 1943,
      "plotseling": 1944,
      "gaarne": 1945,
      "ia": 1946,
      "laag": 1947,
      "ijven": 1948,
      "ante": 1949,
      "onger": 1950,
      "rars": 1951,
      "week": 1952,
      "gelegen": 1953,
      "beloo": 1954,
      "volgende": 1955,
      "rivier": 1956,
      "helder": 1957,
      "monster": 1958,
      "Ferrars": 1959,
      "Ach": 1960,
      "ost": 1961,
      "zwar": 1962,
      "ijt": 1963,
      "vervolgde": 1964,
      "orst": 1965,
      "volle": 1966,
      "sterven": 1967,
      "gewoonlijk": 1968,
      "genegenheid": 1969,
      "edelman": 1970,
      "duisternis": 1971,
      "Juffrouw": 1972,
      "Ter": 1973,
      "onde": 1974,
      "waarheid": 1975,
      "hout": 1976,
      "ees": 1977,
      "plat": 1978,
      "pistolen": 1979,
      "famil": 1980,
      "dom": 1981,
      "if": 1982,
      "kreeg": 1983,
      "gezet": 1984,
      "ikte": 1985,
      "stellig": 1986,
      "begaf": 1987,
      "slecht": 1988,
      "gebleven": 1989,
      "hangen": 1990,
      "vreemd": 1991,
      "vijftig": 1992,
      "fl": 1993,
      "stuur": 1994,
      "veront": 1995,
      "schoone": 1996,
      "wagen": 1997,
      "neem": 1998,
      "totdat": 1999,
      "hoek": 2000,
      "aagd": 2001,
      "roer": 2002,
      "bereiken": 2003,
      "dankbaar": 2004,
      "Gri": 2005,
      "dlet": 2006,
      "áá": 2007,
      "oorn": 2008,
      "vroo": 2009,
      "bragt": 2010,
      "Middlet": 2011,
      "heu": 2012,
      "oester": 2013,
      "diende": 2014,
      "middag": 2015,
      "offic": 2016,
      "....”": 2017,
      "áár": 2018,
      "gat": 2019,
      "usten": 2020,
      "varen": 2021,
      "teur": 2022,
      "ikt": 2023,
      "haven": 2024,
      "urde": 2025,
      "besluit": 2026,
      "plek": 2027,
      "Frankrijk": 2028,
      "Heb": 2029,
      "bepaald": 2030,
      "salon": 2031,
      "Boven": 2032,
      "Wie": 2033,
      "jij": 2034,
      "uigen": 2035,
      "zulks": 2036,
      "sem": 2037,
      "geschieden": 2038,
      "steenen": 2039,
      "ion": 2040,
      "mber": 2041,
      "pog": 2042,
      "ale": 2043,
      "neming": 2044,
      "maud": 2045,
      "gewicht": 2046,
      "etty": 2047,
      "Grimaud": 2048,
      "Zou": 2049,
      "lust": 2050,
      "ting": 2051,
      "elf": 2052,
      "onen": 2053,
      "eenmaal": 2054,
      "bemerkte": 2055,
      "ziel": 2056,
      "vrucht": 2057,
      "dri": 2058,
      "daarom": 2059,
      "ontbij": 2060,
      "vertrokken": 2061,
      "eenvoudig": 2062,
      "Bart": 2063,
      "god": 2064,
      "pij": 2065,
      "szins": 2066,
      "uwer": 2067,
      "oenen": 2068,
      "vlug": 2069,
      "wenen": 2070,
      "soms": 2071,
      "verdwenen": 2072,
      "verbazing": 2073,
      "aden": 2074,
      "bleven": 2075,
      "vreden": 2076,
      "tevreden": 2077,
      "gem": 2078,
      "leed": 2079,
      "urop": 2080,
      "moedig": 2081,
      "kwart": 2082,
      "maakten": 2083,
      "aagde": 2084,
      "Ga": 2085,
      "Ketty": 2086,
      "eet": 2087,
      "hut": 2088,
      "kist": 2089,
      "streeks": 2090,
      "heil": 2091,
      "bestond": 2092,
      "ugde": 2093,
      "dames": 2094,
      "levens": 2095,
      "klap": 2096,
      "vriendelijk": 2097,
      "begonnen": 2098,
      "meisje": 2099,
      "menigte": 2100,
      "vroolijk": 2101,
      "Roch": 2102,
      "rug": 2103,
      "woon": 2104,
      "dewijl": 2105,
      "verlangen": 2106,
      "ikken": 2107,
      "overtui": 2108,
      "gebroken": 2109,
      "beurt": 2110,
      "naast": 2111,
      "kinderen": 2112,
      "glas": 2113,
      "honger": 2114,
      "ire": 2115,
      "deden": 2116,
      "indruk": 2117,
      "alt": 2118,
      "ontb": 2119,
      "harer": 2120,
      "Onder": 2121,
      "kalm": 2122,
      "voldoende": 2123,
      "stoel": 2124,
      "blijk": 2125,
      "gier": 2126,
      "voornemen": 2127,
      "nadat": 2128,
      "zoowel": 2129,
      "afge": 2130,
      "vrouwen": 2131,
      "allig": 2132,
      "keerd": 2133,
      "Beck": 2134,
      "verliezen": 2135,
      "geschiedenis": 2136,
      "Becky": 2137,
      "pijn": 2138,
      "voed": 2139,
      "inge": 2140,
      "stij": 2141,
      "vernemen": 2142,
      "heet": 2143,
      "aantal": 2144,
      "steken": 2145,
      "veil": 2146,
      "nut": 2147,
      "lieve": 2148,
      "betee": 2149,
      "grooter": 2150,
      "partij": 2151,
      "besloten": 2152,
      "getroffen": 2153,
      "Barton": 2154,
      "too": 2155,
      "stof": 2156,
      "verwacht": 2157,
      "althans": 2158,
      "schoot": 2159,
      "repen": 2160,
      "trouwen": 2161,
      "Intusschen": 2162,
      "verschrikkelijk": 2163,
      "Ook": 2164,
      "ooze": 2165,
      "ids": 2166,
      "nauwelijks": 2167,
      "jongens": 2168,
      "harp": 2169,
      "wijfeld": 2170,
      "planten": 2171,
      "gevolgd": 2172,
      "breed": 2173,
      "Sa": 2174,
      "ban": 2175,
      "duren": 2176,
      "ep": 2177,
      "hals": 2178,
      "lijken": 2179,
      "lijden": 2180,
      "pel": 2181,
      "pool": 2182,
      "erg": 2183,
      "dezer": 2184,
      "ins": 2185,
      "ongeluk": 2186,
      "gent": 2187,
      "dertig": 2188,
      "gren": 2189,
      "hielden": 2190,
      "allerlei": 2191,
      "immers": 2192,
      "_Parijs": 2193,
      "bang": 2194,
      "chin": 2195,
      "sland": 2196,
      "langzaam": 2197,
      "koel": 2198,
      "haald": 2199,
      "geschreven": 2200,
      "luisterde": 2201,
      "_Parijs_": 2202,
      "gids": 2203,
      "mmen": 2204,
      "veld": 2205,
      "tein": 2206,
      "aarzel": 2207,
      "school": 2208,
      "schud": 2209,
      "droe": 2210,
      "gedrag": 2211,
      "klom": 2212,
      "getwijfeld": 2213,
      "stappen": 2214,
      "barst": 2215,
      "wenschte": 2216,
      "politie": 2217,
      "familie": 2218,
      "Middleton": 2219,
      "Kom": 2220,
      "Ro": 2221,
      "Sm": 2222,
      "av": 2223,
      "hof": 2224,
      "ongelukk": 2225,
      "vern": 2226,
      "waaraan": 2227,
      "zekere": 2228,
      "vrijheid": 2229,
      "kwet": 2230,
      "schrift": 2231,
      "lijn": 2232,
      "lood": 2233,
      "weren": 2234,
      "trot": 2235,
      "geheelen": 2236,
      "handelen": 2237,
      "blijft": 2238,
      "drukte": 2239,
      "vreeselijke": 2240,
      "bedekt": 2241,
      "IJ": 2242,
      "wis": 2243,
      "veronder": 2244,
      "vergezel": 2245,
      "oemd": 2246,
      "beelden": 2247,
      "geluid": 2248,
      "waardoor": 2249,
      "nabij": 2250,
      "volk": 2251,
      "merken": 2252,
      "verbaas": 2253,
      "verdriet": 2254,
      "reizigers": 2255,
      "Geen": 2256,
      "dol": 2257,
      "fe": 2258,
      "ischen": 2259,
      "engel": 2260,
      "onged": 2261,
      "stam": 2262,
      "verlicht": 2263,
      "grot": 2264,
      "uwd": 2265,
      "Mijne": 2266,
      "stemming": 2267,
      "zaakt": 2268,
      "meening": 2269,
      "vijand": 2270,
      "teleur": 2271,
      "Bovendien": 2272,
      "Europ": 2273,
      "Lady": 2274,
      "Mis": 2275,
      "net": 2276,
      "aange": 2277,
      "ilijk": 2278,
      "draa": 2279,
      "tijds": 2280,
      "verdw": 2281,
      "Haar": 2282,
      "hief": 2283,
      "kre": 2284,
      "oopen": 2285,
      "sta": 2286,
      "verruk": 2287,
      "danks": 2288,
      "mate": 2289,
      "ziende": 2290,
      "gaande": 2291,
      "verscheen": 2292,
      "vorigen": 2293,
      "musketier": 2294,
      "haastig": 2295,
      "schrijven": 2296,
      "gister": 2297,
      "iten": 2298,
      "sol": 2299,
      "tam": 2300,
      "zand": 2301,
      "ongerust": 2302,
      "stra": 2303,
      "oepen": 2304,
      "schel": 2305,
      "ings": 2306,
      "iek": 2307,
      "spreekt": 2308,
      "sloep": 2309,
      "gevor": 2310,
      "schep": 2311,
      "gedacht": 2312,
      "zame": 2313,
      "Daarop": 2314,
      "vermoeden": 2315,
      "geweld": 2316,
      "harpoen": 2317,
      "Over": 2318,
      "ich": 2319,
      "kat": 2320,
      "zwe": 2321,
      "verre": 2322,
      "dergelijke": 2323,
      "oever": 2324,
      "schuldig": 2325,
      "bevr": 2326,
      "reus": 2327,
      "ramp": 2328,
      "zoon": 2329,
      "hooge": 2330,
      "tranen": 2331,
      "gaven": 2332,
      "kwaad": 2333,
      "knaap": 2334,
      "Tegen": 2335,
      "nieuwsgier": 2336,
      "heuvel": 2337,
      "Zonder": 2338,
      "dun": 2339,
      "goud": 2340,
      "jou": 2341,
      "sna": 2342,
      "winnen": 2343,
      "eloos": 2344,
      "streken": 2345,
      "leden": 2346,
      "zijden": 2347,
      "geloopen": 2348,
      "opend": 2349,
      "bevat": 2350,
      "vaart": 2351,
      "behoort": 2352,
      "papier": 2353,
      "Terwijl": 2354,
      "rol": 2355,
      "deelde": 2356,
      "verblijf": 2357,
      "reed": 2358,
      "opnieuw": 2359,
      "aandacht": 2360,
      "uig": 2361,
      "leeren": 2362,
      "raken": 2363,
      "werking": 2364,
      "drijven": 2365,
      "tegendeel": 2366,
      "zamer": 2367,
      "richtte": 2368,
      "Misschien": 2369,
      "!--": 2370,
      "18": 2371,
      "Mor": 2372,
      "maat": 2373,
      "momp": 2374,
      "ondanks": 2375,
      "aardig": 2376,
      "schot": 2377,
      "lezen": 2378,
      "spre": 2379,
      "moeilijk": 2380,
      "kerk": 2381,
      "plaatsen": 2382,
      "zwak": 2383,
      "tegenwoordigheid": 2384,
      "vertoonde": 2385,
      "bespeurde": 2386,
      "bedaard": 2387,
      "Gel": 2388,
      "com": 2389,
      "elle": 2390,
      "onverschil": 2391,
      "schieten": 2392,
      "weig": 2393,
      "droeg": 2394,
      "digt": 2395,
      "gered": 2396,
      "zamen": 2397,
      "gebrek": 2398,
      "eenigszins": 2399,
      "goeden": 2400,
      "bewijzen": 2401,
      "nauwkeurig": 2402,
      "verscheidene": 2403,
      "ontbijt": 2404,
      "mige": 2405,
      "ode": 2406,
      "pein": 2407,
      "inken": 2408,
      "geworpen": 2409,
      "besp": 2410,
      "rechter": 2411,
      "leng": 2412,
      "strijd": 2413,
      "bovendien": 2414,
      "rozen": 2415,
      "pass": 2416,
      "Har": 2417,
      "koop": 2418,
      "my": 2419,
      "mel": 2420,
      "schad": 2421,
      "igd": 2422,
      "lake": 2423,
      "hoeveel": 2424,
      "plant": 2425,
      "getrokken": 2426,
      "veertig": 2427,
      "fortuin": 2428,
      "iën": 2429,
      "dek": 2430,
      "onna": 2431,
      "beken": 2432,
      "onderwerp": 2433,
      "spreek": 2434,
      "graaf": 2435,
      "bloe": 2436,
      "lachte": 2437,
      "mass": 2438,
      "stralen": 2439,
      "evenals": 2440,
      "warmte": 2441,
      "dochter": 2442,
      "rustig": 2443,
      "krijg": 2444,
      "rotsen": 2445,
      "gevoelens": 2446,
      "wraak": 2447,
      "Ax": 2448,
      "Och": 2449,
      "baren": 2450,
      "put": 2451,
      "dende": 2452,
      "denkt": 2453,
      "overtuig": 2454,
      "dienen": 2455,
      "daarvan": 2456,
      "vestig": 2457,
      "linge": 2458,
      "schappen": 2459,
      "spraak": 2460,
      "weinige": 2461,
      "verborgen": 2462,
      "avonds": 2463,
      "vreugde": 2464,
      "woede": 2465,
      "noemen": 2466,
      "Axel": 2467,
      "Pal": 2468,
      "cteur": 2469,
      "the": 2470,
      "ijver": 2471,
      "oosten": 2472,
      "elken": 2473,
      "eenen": 2474,
      "oordeel": 2475,
      "schouw": 2476,
      "spelen": 2477,
      "ofschoon": 2478,
      "machin": 2479,
      "toeval": 2480,
      "zekeren": 2481,
      "praten": 2482,
      "opening": 2483,
      "hoopte": 2484,
      "akken": 2485,
      "gunst": 2486,
      "voorzichtig": 2487,
      "knapen": 2488,
      "zwarte": 2489,
      "Th": 2490,
      "jacht": 2491,
      "log": 2492,
      "pot": 2493,
      "tante": 2494,
      "geeft": 2495,
      "gemoed": 2496,
      "verbr": 2497,
      "verwar": 2498,
      "verzocht": 2499,
      "verplicht": 2500,
      "hevig": 2501,
      "ooren": 2502,
      "bestaat": 2503,
      "uister": 2504,
      "wegen": 2505,
      "eersten": 2506,
      "steun": 2507,
      "drong": 2508,
      "gering": 2509,
      "moei": 2510,
      "delijden": 2511,
      "betr": 2512,
      "aagt": 2513,
      "vreem": 2514,
      "ziek": 2515,
      "gewoonte": 2516,
      "ernst": 2517,
      "smart": 2518,
      "bewijs": 2519,
      "duurde": 2520,
      "Door": 2521,
      "huwelijk": 2522,
      "ue": 2523,
      "ugen": 2524,
      "erger": 2525,
      "behandel": 2526,
      "begeer": 2527,
      "overeen": 2528,
      "eilanden": 2529,
      "Engelsch": 2530,
      "verwijderd": 2531,
      "loge": 2532,
      "000": 2533,
      "III": 2534,
      "telkens": 2535,
      "officier": 2536,
      "onverschillig": 2537,
      "Dus": 2538,
      "Ged": 2539,
      "Sch": 2540,
      "Tot": 2541,
      "Was": 2542,
      "gl": 2543,
      "wijk": 2544,
      "ijz": 2545,
      "wakker": 2546,
      "leger": 2547,
      "vens": 2548,
      "ard": 2549,
      "onderzee": 2550,
      "medelijden": 2551,
      "ontmoeten": 2552,
      "heersch": 2553,
      "brood": 2554,
      "zonderlinge": 2555,
      "kans": 2556,
      "zekerheid": 2557,
      "eeuw": 2558,
      "morgens": 2559,
      "zaamheid": 2560,
      "bezorg": 2561,
      "Span": 2562,
      "verbeelding": 2563,
      "spanning": 2564,
      "klaps": 2565,
      "Niets": 2566,
      "Sid": 2567,
      "tij": 2568,
      "ent": 2569,
      "ets": 2570,
      "geopend": 2571,
      "spijt": 2572,
      "groet": 2573,
      "wille": 2574,
      "liepen": 2575,
      "wenk": 2576,
      "bevelen": 2577,
      "vertrok": 2578,
      "gezonden": 2579,
      "bereikt": 2580,
      "boeze": 2581,
      "behoef": 2582,
      "verlangde": 2583,
      "verdween": 2584,
      "mompelde": 2585,
      "Palmer": 2586,
      "Zeg": 2587,
      "boog": 2588,
      "mt": 2589,
      "treden": 2590,
      "zaal": 2591,
      "ooster": 2592,
      "inc": 2593,
      "tevens": 2594,
      "gewaar": 2595,
      "onzer": 2596,
      "stat": 2597,
      "ikk": 2598,
      "weken": 2599,
      "voorbeeld": 2600,
      "uitgest": 2601,
      "droom": 2602,
      "blijd": 2603,
      "lad": 2604,
      "klee": 2605,
      "geleek": 2606,
      "verschaf": 2607,
      "offer": 2608,
      "bijzonderheden": 2609,
      "overtuigd": 2610,
      "Juist": 2611,
      "Wil": 2612,
      "borst": 2613,
      "daad": 2614,
      "lijf": 2615,
      "zware": 2616,
      "ongelukkig": 2617,
      "verza": 2618,
      "bezoeken": 2619,
      "orm": 2620,
      "naderen": 2621,
      "bloot": 2622,
      "otel": 2623,
      "gebouw": 2624,
      "praat": 2625,
      "belan": 2626,
      "drukt": 2627,
      "Vervolgens": 2628,
      "matrozen": 2629,
      "begrijp": 2630,
      "scherp": 2631,
      "doek": 2632,
      "kaart": 2633,
      "dwaas": 2634,
      "gardes": 2635,
      "Zeker": 2636,
      "vonden": 2637,
      "gee": 2638,
      "denzelfden": 2639,
      "streek": 2640,
      "vergeef": 2641,
      "wekt": 2642,
      "uitvoer": 2643,
      "afscheid": 2644,
      "aald": 2645,
      "vest": 2646,
      "slee": 2647,
      "bak": 2648,
      "volgden": 2649,
      "krachten": 2650,
      "iedereen": 2651,
      "kwartier": 2652,
      "Hem": 2653,
      "Jon": 2654,
      "Nor": 2655,
      "cis": 2656,
      "rom": 2657,
      "top": 2658,
      "ervan": 2659,
      "opzicht": 2660,
      "issen": 2661,
      "waardige": 2662,
      "overal": 2663,
      "slot": 2664,
      "aalde": 2665,
      "reeuw": 2666,
      "mail": 2667,
      "bescher": 2668,
      "beschouwen": 2669,
      "vertrouw": 2670,
      "plannen": 2671,
      "ruim": 2672,
      "proc": 2673,
      "kie": 2674,
      "knie": 2675,
      "u_": 2676,
      "deeld": 2677,
      "geë": 2678,
      "voorwerp": 2679,
      "urs": 2680,
      "zoolang": 2681,
      "merking": 2682,
      "toekomst": 2683,
      "igens": 2684,
      "krui": 2685,
      "kruid": 2686,
      "gebra": 2687,
      "geleid": 2688,
      "gezond": 2689,
      "letter": 2690,
      "kalmte": 2691,
      "hinder": 2692,
      "mooi": 2693,
      "gisteren": 2694,
      "schaduw": 2695,
      "Gas": 2696,
      "_Frankrijk": 2697,
      "ton": 2698,
      "toone": 2699,
      "tend": 2700,
      "uitdrukking": 2701,
      "onderzoek": 2702,
      "zeld": 2703,
      "laatsten": 2704,
      "klaar": 2705,
      "gevoerd": 2706,
      "luid": 2707,
      "onbeweeg": 2708,
      "Francis": 2709,
      "gebruiken": 2710,
      "gebeurde": 2711,
      "wolken": 2712,
      "fraa": 2713,
      "zeilen": 2714,
      "weduwe": 2715,
      "massa": 2716,
      "Niet": 2717,
      "ab": 2718,
      "fijn": 2719,
      "ly": 2720,
      "ser": 2721,
      "ijzer": 2722,
      "invloed": 2723,
      "gekwet": 2724,
      "aars": 2725,
      "verwachten": 2726,
      "schr": 2727,
      "inger": 2728,
      "aring": 2729,
      "antel": 2730,
      "afsch": 2731,
      "bericht": 2732,
      "gedragen": 2733,
      "beginnen": 2734,
      "wanden": 2735,
      "wenschen": 2736,
      "vormen": 2737,
      "hartelijk": 2738,
      "strekte": 2739,
      "Aronna": 2740,
      "stuurman": 2741,
      "Gedurende": 2742,
      "_Frankrijk_": 2743,
      "Aronnax": 2744,
      "Ste": 2745,
      "Shol": 2746,
      "Sire": 2747,
      "Twee": 2748,
      "bos": 2749,
      "daag": 2750,
      "hor": 2751,
      "vallig": 2752,
      "inspe": 2753,
      "genoemd": 2754,
      "behoorde": 2755,
      "bedoel": 2756,
      "aansche": 2757,
      "ork": 2758,
      "arbe": 2759,
      "overige": 2760,
      "ontw": 2761,
      "gerucht": 2762,
      "bro": 2763,
      "gedreven": 2764,
      "geweten": 2765,
      "wederom": 2766,
      "behoefde": 2767,
      "lengte": 2768,
      "blijdschap": 2769,
      "procure": 2770,
      "Sholto": 2771,
      "Se": 2772,
      "Uw": 2773,
      "Wan": 2774,
      "smee": 2775,
      "zond": 2776,
      "àt": 2777,
      "ande": 2778,
      "inn": 2779,
      "verne": 2780,
      "dia": 2781,
      "haren": 2782,
      "voordeel": 2783,
      "ram": 2784,
      "last": 2785,
      "gaans": 2786,
      "zakelijk": 2787,
      "Inderdaad": 2788,
      "klooster": 2789,
      "belet": 2790,
      "milli": 2791,
      "getrouw": 2792,
      "springen": 2793,
      "vreesde": 2794,
      "wetenschap": 2795,
      "ontdekt": 2796,
      "witte": 2797,
      "prachtige": 2798,
      "ongelukkige": 2799,
      "Gaskon": 2800,
      "inspecteur": 2801,
      "brock": 2802,
      "Liden": 2803,
      "Toch": 2804,
      "bieden": 2805,
      "daan": 2806,
      "euw": 2807,
      "geg": 2808,
      "vere": 2809,
      "verzoek": 2810,
      "vermogen": 2811,
      "schuld": 2812,
      "orven": 2813,
      "hadt": 2814,
      "volge": 2815,
      "iende": 2816,
      "ontsna": 2817,
      "hoed": 2818,
      "karak": 2819,
      "kamp": 2820,
      "vreezen": 2821,
      "konings": 2822,
      "eigenlijk": 2823,
      "onbekende": 2824,
      "vluchten": 2825,
      "drift": 2826,
      "bevrijd": 2827,
      "moeielijk": 2828,
      "ijzeren": 2829,
      "Lidenbrock": 2830,
      "karakter": 2831,
      "Dui": 2832,
      "Kap": 2833,
      "Re": 2834,
      "akel": 2835,
      "hit": 2836,
      "jag": 2837,
      "soor": 2838,
      "zw": 2839,
      "ongetwijfeld": 2840,
      "verhaalde": 2841,
      "begeven": 2842,
      "bedacht": 2843,
      "bekennen": 2844,
      "sloot": 2845,
      "oond": 2846,
      "vogels": 2847,
      "evenmin": 2848,
      "geschikt": 2849,
      "kelder": 2850,
      "beschouwd": 2851,
      "gebeurtenis": 2852,
      "aangena": 2853,
      "zinnig": 2854,
      "zamerhand": 2855,
      "tooneel": 2856,
      "Ben": 2857,
      "Oo": 2858,
      "bijk": 2859,
      "breken": 2860,
      "gou": 2861,
      "hing": 2862,
      "hotel": 2863,
      "kijk": 2864,
      "taal": 2865,
      "toorn": 2866,
      "vlie": 2867,
      "rechte": 2868,
      "leer": 2869,
      "herkende": 2870,
      "vertelde": 2871,
      "stemd": 2872,
      "vriendschap": 2873,
      "vatte": 2874,
      "schreef": 2875,
      "schild": 2876,
      "onbeweeglijk": 2877,
      "Wanneer": 2878,
      "El": 2879,
      "koester": 2880,
      "mantel": 2881,
      "poos": 2882,
      "tanden": 2883,
      "zaten": 2884,
      "inkt": 2885,
      "gebe": 2886,
      "gezich": 2887,
      "verte": 2888,
      "vang": 2889,
      "beet": 2890,
      "voorraad": 2891,
      "voornaam": 2892,
      "welks": 2893,
      "terstond": 2894,
      "daarbij": 2895,
      "straal": 2896,
      "betrek": 2897,
      "terugkeeren": 2898,
      "belof": 2899,
      "voortduren": 2900,
      "gast": 2901,
      "vijanden": 2902,
      "teinder": 2903,
      "Morstan": 2904,
      "Kapitein": 2905,
      "gezichteinder": 2906,
      "Ten": 2907,
      "bal": 2908,
      "luik": 2909,
      "ry": 2910,
      "velen": 2911,
      "zorgen": 2912,
      "oorzaak": 2913,
      "wek": 2914,
      "vende": 2915,
      "sluiten": 2916,
      "brieven": 2917,
      "vocht": 2918,
      "houdt": 2919,
      "bay": 2920,
      "stilzwijgen": 2921,
      "oorts": 2922,
      "bewegen": 2923,
      "vindt": 2924,
      "winkel": 2925,
      "redden": 2926,
      "neemt": 2927,
      "dankbaarheid": 2928,
      "verbaasd": 2929,
      "feit": 2930,
      "station": 2931,
      "Bra": 2932,
      "Nog": 2933,
      "jun": 2934,
      "touw": 2935,
      "uar": 2936,
      "wisten": 2937,
      "zuid": 2938,
      "ann": 2939,
      "oonen": 2940,
      "gekeerd": 2941,
      "onop": 2942,
      "stort": 2943,
      "aarn": 2944,
      "hechten": 2945,
      "derhalve": 2946,
      "leun": 2947,
      "zigt": 2948,
      "bijeen": 2949,
      "ontzag": 2950,
      "kring": 2951,
      "prijs": 2952,
      "jong": 2953,
      "beschuldig": 2954,
      "maals": 2955,
      "belee": 2956,
      "matig": 2957,
      "verwijderde": 2958,
      "vinger": 2959,
      "verklaar": 2960,
      "dreef": 2961,
      "Indië": 2962,
      "schouders": 2963,
      "lantaarn": 2964,
      "poging": 2965,
      "stijgen": 2966,
      "avont": 2967,
      "mylord": 2968,
      "uitgestrek": 2969,
      "kleederen": 2970,
      "15": 2971,
      "Som": 2972,
      "Wees": 2973,
      "Zuid": 2974,
      "_la": 2975,
      "boos": 2976,
      "greep": 2977,
      "mun": 2978,
      "noord": 2979,
      "rood": 2980,
      "gevolge": 2981,
      "vervolg": 2982,
      "verstand": 2983,
      "derden": 2984,
      "bediende": 2985,
      "rede": 2986,
      "omring": 2987,
      "omstreeks": 2988,
      "wijs": 2989,
      "menten": 2990,
      "eerlijk": 2991,
      "daardoor": 2992,
      "bliksem": 2993,
      "ftien": 2994,
      "klop": 2995,
      "wegingen": 2996,
      "wendde": 2997,
      "achteruit": 2998,
      "helpen": 2999,
      "Onze": 3000,
      "bereikte": 3001,
      "brachten": 3002,
      "ontdek": 3003,
      "herinnerde": 3004,
      "Bazijn": 3005,
      "beproeven": 3006,
      "blijkbaar": 3007,
      "onderzeesche": 3008,
      "Ch": 3009,
      "Co": 3010,
      "hang": 3011,
      "pp": 3012,
      "tjes": 3013,
      "cher": 3014,
      "verz": 3015,
      "vernam": 3016,
      "verstaan": 3017,
      "aldus": 3018,
      "zijnde": 3019,
      "gelijken": 3020,
      "drinken": 3021,
      "houten": 3022,
      "damp": 3023,
      "boden": 3024,
      "sleut": 3025,
      "Injun": 3026,
      "vloog": 3027,
      "sec": 3028,
      "Eenige": 3029,
      "wanh": 3030,
      "Welke": 3031,
      "lieten": 3032,
      "diepe": 3033,
      "bezat": 3034,
      "Gods": 3035,
      "omtrek": 3036,
      "opgemerkt": 3037,
      "Amerika": 3038,
      "beenen": 3039,
      "Hebt": 3040,
      "overtuiging": 3041,
      "voedsel": 3042,
      "kreet": 3043,
      "belangr": 3044,
      "Gaskonj": 3045,
      "Naar": 3046,
      "Vol": 3047,
      "bouw": 3048,
      "buis": 3049,
      "fden": 3050,
      "fran": 3051,
      "mar": 3052,
      "rook": 3053,
      "rusten": 3054,
      "son": 3055,
      "stui": 3056,
      "versl": 3057,
      "bes": 3058,
      "wag": 3059,
      "aanhouden": 3060,
      "voorschijn": 3061,
      "daarin": 3062,
      "ith": 3063,
      "trof": 3064,
      "kanoe": 3065,
      "gewonden": 3066,
      "hiertoe": 3067,
      "bereken": 3068,
      "helft": 3069,
      "gevangenis": 3070,
      "begrijpt": 3071,
      "woning": 3072,
      "golf": 3073,
      "breuk": 3074,
      "afstands": 3075,
      "dooden": 3076,
      "voorzichtigheid": 3077,
      "huizen": 3078,
      "gentle": 3079,
      "arbeid": 3080,
      "Bom": 3081,
      "Had": 3082,
      "Welk": 3083,
      "jui": 3084,
      "elijken": 3085,
      "stoot": 3086,
      "vermin": 3087,
      "zier": 3088,
      "slie": 3089,
      "iend": 3090,
      "manten": 3091,
      "trouw": 3092,
      "treurig": 3093,
      "roep": 3094,
      "rondom": 3095,
      "teekenen": 3096,
      "luisteren": 3097,
      "ontdekken": 3098,
      "gebeurd": 3099,
      "verandering": 3100,
      "schouder": 3101,
      "beleefd": 3102,
      "beleefdheid": 3103,
      "belangrijk": 3104,
      "Bombay": 3105,
      "Hong": 3106,
      "No": 3107,
      "Stre": 3108,
      "_Engeland": 3109,
      "hond": 3110,
      "kig": 3111,
      "sde": 3112,
      "vige": 3113,
      "éen": 3114,
      "anker": 3115,
      "steld": 3116,
      "verspre": 3117,
      "schroe": 3118,
      "bedrie": 3119,
      "beest": 3120,
      "dief": 3121,
      "geraas": 3122,
      "gevaren": 3123,
      "otter": 3124,
      "blikken": 3125,
      "hiervan": 3126,
      "verlof": 3127,
      "rekenen": 3128,
      "vaste": 3129,
      "deeling": 3130,
      "ziedaar": 3131,
      "vijftien": 3132,
      "bijzondere": 3133,
      "gevangene": 3134,
      "past": 3135,
      "verwonderd": 3136,
      "quet": 3137,
      "gods": 3138,
      "Smith": 3139,
      "diamanten": 3140,
      "_Engeland_": 3141,
      "Ex": 3142,
      "bid": 3143,
      "dub": 3144,
      "fre": 3145,
      "si": 3146,
      "telijk": 3147,
      "intusschen": 3148,
      "tegelijk": 3149,
      "oordeelen": 3150,
      "opgewonden": 3151,
      "ouvre": 3152,
      "lever": 3153,
      "sporen": 3154,
      "afgelegd": 3155,
      "ontving": 3156,
      "nogmaals": 3157,
      "schenken": 3158,
      "dagelijk": 3159,
      "gehei": 3160,
      "aardbol": 3161,
      "drukken": 3162,
      "natuurlijke": 3163,
      "voerde": 3164,
      "Engelschen": 3165,
      "New": 3166,
      "noodlot": 3167,
      "Omdat": 3168,
      "Rochelle": 3169,
      "droef": 3170,
      "gevormd": 3171,
      "Street": 3172,
      "fregat": 3173,
      "Mou": 3174,
      "Than": 3175,
      "au": 3176,
      "s_": 3177,
      "inwen": 3178,
      "gehaald": 3179,
      "behouden": 3180,
      "bedo": 3181,
      "regt": 3182,
      "opdat": 3183,
      "lesch": 3184,
      "urige": 3185,
      "eerb": 3186,
      "graad": 3187,
      "achtte": 3188,
      "daaren": 3189,
      "ontstaan": 3190,
      "scheep": 3191,
      "zonderling": 3192,
      "bogen": 3193,
      "eensklaps": 3194,
      "loopt": 3195,
      "vielen": 3196,
      "blijken": 3197,
      "strekken": 3198,
      "stapte": 3199,
      "walvisch": 3200,
      "verbazende": 3201,
      "noodzakelijk": 3202,
      "ruimte": 3203,
      "gevecht": 3204,
      "herbergier": 3205,
      "Europa": 3206,
      "mailboot": 3207,
      "knieën": 3208,
      "gebragt": 3209,
      "belofte": 3210,
      "gentleman": 3211,
      "\"'": 3212,
      "Kong": 3213,
      "kijken": 3214,
      "mog": 3215,
      "raam": 3216,
      "wou": 3217,
      "geweren": 3218,
      "verdien": 3219,
      "voorstellen": 3220,
      "aris": 3221,
      "achting": 3222,
      "keu": 3223,
      "lava": 3224,
      "elende": 3225,
      "stroomen": 3226,
      "blee": 3227,
      "zichtbaar": 3228,
      "bevonden": 3229,
      "plet": 3230,
      "sommige": 3231,
      "graven": 3232,
      "veertien": 3233,
      "ontmoette": 3234,
      "Steele": 3235,
      "Thans": 3236,
      "At": 3237,
      "Cal": 3238,
      "Louvre": 3239,
      "Miss": 3240,
      "We": 3241,
      "Zood": 3242,
      "bi": 3243,
      "co": 3244,
      "eu": 3245,
      "flesch": 3246,
      "haat": 3247,
      "ler": 3248,
      "smaak": 3249,
      "stal": 3250,
      "verbergen": 3251,
      "dering": 3252,
      "leiden": 3253,
      "westen": 3254,
      "voorhoofd": 3255,
      "eeren": 3256,
      "neus": 3257,
      "gran": 3258,
      "groen": 3259,
      "rekening": 3260,
      "beschrij": 3261,
      "Alles": 3262,
      "ochtend": 3263,
      "denkbeelden": 3264,
      "bedre": 3265,
      "zwart": 3266,
      "galer": 3267,
      "vernomen": 3268,
      "uari": 3269,
      "Rochelle_": 3270,
      "Zoodra": 3271,
      "Zee": 3272,
      "koorts": 3273,
      "muren": 3274,
      "pad": 3275,
      "palen": 3276,
      "tuin": 3277,
      "eters": 3278,
      "gewapen": 3279,
      "dend": 3280,
      "atuur": 3281,
      "vermeer": 3282,
      "genood": 3283,
      "schul": 3284,
      "aannemen": 3285,
      "ors": 3286,
      "voorstel": 3287,
      "wijzen": 3288,
      "waarbij": 3289,
      "waartoe": 3290,
      "heerlijk": 3291,
      "troost": 3292,
      "hoorn": 3293,
      "begrepen": 3294,
      "kaste": 3295,
      "Eene": 3296,
      "geloofde": 3297,
      "verdwijn": 3298,
      "verklaren": 3299,
      "verklaring": 3300,
      "woest": 3301,
      "verwondering": 3302,
      "altoos": 3303,
      "straf": 3304,
      "bosschen": 3305,
      "soorten": 3306,
      "Oosten": 3307,
      "genoodzaakt": 3308,
      "Dien": 3309,
      "Of": 3310,
      "ach": 3311,
      "fles": 3312,
      "ph": 3313,
      "squet": 3314,
      "zweeg": 3315,
      "ere": 3316,
      "ooi": 3317,
      "geko": 3318,
      "vereenig": 3319,
      "verstandig": 3320,
      "schoten": 3321,
      "mijl": 3322,
      "uitnoodig": 3323,
      "steeg": 3324,
      "zoude": 3325,
      "wild": 3326,
      "vogel": 3327,
      "straten": 3328,
      "kruis": 3329,
      "zonne": 3330,
      "vermoeid": 3331,
      "maand": 3332,
      "vatten": 3333,
      "bepaalde": 3334,
      "wedden": 3335,
      "schitterende": 3336,
      "vervuld": 3337,
      "schudde": 3338,
      "schepsel": 3339,
      "Engelschman": 3340,
      "voortdurend": 3341,
      "sleutel": 3342,
      "wagg": 3343,
      "Mousquet": 3344,
      "flesschen": 3345,
      "Mousqueton": 3346,
      "Rich": 3347,
      "_B": 3348,
      "dáár": 3349,
      "fla": 3350,
      "kolen": 3351,
      "nicht": 3352,
      "rid": 3353,
      "enard": 3354,
      "oofd": 3355,
      "elui": 3356,
      "ink": 3357,
      "stip": 3358,
      "algemeen": 3359,
      "west": 3360,
      "zil": 3361,
      "voorgevallen": 3362,
      "iging": 3363,
      "overeind": 3364,
      "gronden": 3365,
      "dronken": 3366,
      "slacht": 3367,
      "eldra": 3368,
      "rees": 3369,
      "langzamerhand": 3370,
      "iteit": 3371,
      "lichten": 3372,
      "snelde": 3373,
      "schijnen": 3374,
      "eest": 3375,
      "stille": 3376,
      "Engelsche": 3377,
      "bewon": 3378,
      "vorens": 3379,
      "gunstig": 3380,
      "sneeuw": 3381,
      "Gr": 3382,
      "Gra": 3383,
      "Sne": 3384,
      "Weldra": 3385,
      "cl": 3386,
      "dor": 3387,
      "dalen": 3388,
      "port": 3389,
      "post": 3390,
      "rig": 3391,
      "integendeel": 3392,
      "ges": 3393,
      "onaangenaam": 3394,
      "staar": 3395,
      "bevestig": 3396,
      "wezig": 3397,
      "voorwerpen": 3398,
      "onderneming": 3399,
      "danken": 3400,
      "diging": 3401,
      "mos": 3402,
      "apper": 3403,
      "ontzetten": 3404,
      "toevallig": 3405,
      "komende": 3406,
      "berouw": 3407,
      "agnie": 3408,
      "minst": 3409,
      "tijding": 3410,
      "zeeën": 3411,
      "ffels": 3412,
      "aardsche": 3413,
      "Daarna": 3414,
      "treffen": 3415,
      "teeder": 3416,
      "punten": 3417,
      "zusters": 3418,
      "gras": 3419,
      "bewogen": 3420,
      "fraai": 3421,
      "Middel": 3422,
      "durfde": 3423,
      "roode": 3424,
      "donkere": 3425,
      "gemeene": 3426,
      "procureurs": 3427,
      "Oostenrijk": 3428,
      "Sneffels": 3429,
      "Eer": 3430,
      "Kon": 3431,
      "Mr": 3432,
      "bui": 3433,
      "dreven": 3434,
      "kingen": 3435,
      "koud": 3436,
      "koude": 3437,
      "lat": 3438,
      "èl": 3439,
      "annen": 3440,
      "oof": 3441,
      "int": 3442,
      "hetzij": 3443,
      "ikking": 3444,
      "schuil": 3445,
      "daten": 3446,
      "steven": 3447,
      "waaruit": 3448,
      "afgeloopen": 3449,
      "bent": 3450,
      "gerui": 3451,
      "geraakt": 3452,
      "reede": 3453,
      "manier": 3454,
      "herhaal": 3455,
      "herkennen": 3456,
      "kunde": 3457,
      "aamd": 3458,
      "oko": 3459,
      "gebied": 3460,
      "belast": 3461,
      "vreemde": 3462,
      "wandel": 3463,
      "wandeling": 3464,
      "landsche": 3465,
      "brengt": 3466,
      "verbonden": 3467,
      "vergi": 3468,
      "jagen": 3469,
      "vuldig": 3470,
      "lachen": 3471,
      "personen": 3472,
      "gevaarlijk": 3473,
      "korte": 3474,
      "wapens": 3475,
      "Heeft": 3476,
      "quenard": 3477,
      "geleerde": 3478,
      "leiding": 3479,
      "veilig": 3480,
      "IJsland": 3481,
      "nabijheid": 3482,
      "reusachtige": 3483,
      "gloe": 3484,
      "16": 3485,
      "Lode": 3486,
      "Linc": 3487,
      "bad": 3488,
      "iel": 3489,
      "klim": 3490,
      "leen": 3491,
      "pal": 3492,
      "voegen": 3493,
      "gemoet": 3494,
      "onbesch": 3495,
      "stren": 3496,
      "verwachtte": 3497,
      "verhief": 3498,
      "verplet": 3499,
      "bewaren": 3500,
      "wegens": 3501,
      "zijnen": 3502,
      "oln": 3503,
      "ardes": 3504,
      "uitbarst": 3505,
      "waarsch": 3506,
      "spot": 3507,
      "uss": 3508,
      "pende": 3509,
      "Des": 3510,
      "bron": 3511,
      "hoede": 3512,
      "...\"": 3513,
      "gedood": 3514,
      "troep": 3515,
      "levend": 3516,
      "verloor": 3517,
      "gevende": 3518,
      "zinken": 3519,
      "buitengewoon": 3520,
      "walvisschen": 3521,
      "menschelijke": 3522,
      "tegenwoordig": 3523,
      "verschrikt": 3524,
      "meisjes": 3525,
      "zinnige": 3526,
      "staken": 3527,
      "soldaten": 3528,
      "tamelijk": 3529,
      "dunkt": 3530,
      "Norland": 3531,
      "verneur": 3532,
      "hechtenis": 3533,
      "Lodewijk": 3534,
      "Lincoln": 3535,
      "Abra": 3536,
      "Pol": 3537,
      "Roo": 3538,
      "bin": 3539,
      "buur": 3540,
      "mmer": 3541,
      "noor": 3542,
      "prie": 3543,
      "pelijke": 3544,
      "pak": 3545,
      "wèl": 3546,
      "onge": 3547,
      "onmet": 3548,
      "onein": 3549,
      "stu": 3550,
      "genot": 3551,
      "oefen": 3552,
      "schoor": 3553,
      "behen": 3554,
      "bestemd": 3555,
      "waken": 3556,
      "opmerking": 3557,
      "ommen": 3558,
      "aangekomen": 3559,
      "nachts": 3560,
      "zoodan": 3561,
      "afgebroken": 3562,
      "daartoe": 3563,
      "mast": 3564,
      "willig": 3565,
      "laatst": 3566,
      "houdelijk": 3567,
      "geschonken": 3568,
      "wonderen": 3569,
      "diepten": 3570,
      "briefje": 3571,
      "bedw": 3572,
      "onbekend": 3573,
      "plei": 3574,
      "behoeft": 3575,
      "naderhand": 3576,
      "veroorloo": 3577,
      "prachtig": 3578,
      "Ziedaar": 3579,
      "burg": 3580,
      "Coquenard": 3581,
      "schroef": 3582,
      "graniet": 3583,
      "galerij": 3584,
      "kasteel": 3585,
      "zilver": 3586,
      "Abraham": 3587,
      "Wardes": 3588,
      "boor": 3589,
      "qui": 3590,
      "geiten": 3591,
      "versche": 3592,
      "scha": 3593,
      "schier": 3594,
      "schok": 3595,
      "bedenken": 3596,
      "bewaard": 3597,
      "bewegingen": 3598,
      "our": 3599,
      "wekken": 3600,
      "raden": 3601,
      "onderzoeken": 3602,
      "spoed": 3603,
      "uurd": 3604,
      "misda": 3605,
      "missen": 3606,
      "linker": 3607,
      "bakken": 3608,
      "kogels": 3609,
      "koets": 3610,
      "stigd": 3611,
      "redenen": 3612,
      "helling": 3613,
      "voetstappen": 3614,
      "éér": 3615,
      "dikke": 3616,
      "verzekerd": 3617,
      "zakdoek": 3618,
      "herinnering": 3619,
      "Anna": 3620,
      "veranderd": 3621,
      "uiterste": 3622,
      "bewonderen": 3623,
      "leefde": 3624,
      "trotsch": 3625,
      "harpoenier": 3626,
      "heerschte": 3627,
      "voornaamste": 3628,
      "club": 3629,
      ".’": 3630,
      "Hel": 3631,
      "La": 3632,
      "Uit": 3633,
      "cellen": 3634,
      "emen": 3635,
      "jam": 3636,
      "jelui": 3637,
      "kwel": 3638,
      "mingen": 3639,
      "takken": 3640,
      "wiss": 3641,
      "indigd": 3642,
      "gekleed": 3643,
      "stom": 3644,
      "oorlog": 3645,
      "alvorens": 3646,
      "onderzocht": 3647,
      "welker": 3648,
      "Dece": 3649,
      "sloten": 3650,
      "diens": 3651,
      "dienaar": 3652,
      "kompas": 3653,
      "lamp": 3654,
      "voel": 3655,
      "stelt": 3656,
      "angstig": 3657,
      "evenwel": 3658,
      "stemmen": 3659,
      "twist": 3660,
      "gade": 3661,
      "schipbreuk": 3662,
      "rechtvaar": 3663,
      "verlegenheid": 3664,
      "belangstelling": 3665,
      "noemde": 3666,
      "werktuig": 3667,
      "lakei": 3668,
      "onophoudelijk": 3669,
      "ontdekking": 3670,
      "sliep": 3671,
      "godsdienst": 3672,
      "procureursvrouw": 3673,
      "pleizier": 3674,
      "December": 3675,
      "Car": 3676,
      "Hun": 3677,
      "booten": 3678,
      "gla": 3679,
      "moord": 3680,
      "sir": 3681,
      "aaid": 3682,
      "onrust": 3683,
      "stout": 3684,
      "schoenen": 3685,
      "behulp": 3686,
      "opeen": 3687,
      "eerder": 3688,
      "doordringen": 3689,
      "sterke": 3690,
      "stelein": 3691,
      "begra": 3692,
      "stroo": 3693,
      "weerstand": 3694,
      "Zijt": 3695,
      "keerden": 3696,
      "kosten": 3697,
      "blijde": 3698,
      "Port": 3699,
      "standigheid": 3700,
      "gesteldheid": 3701,
      "verklaarde": 3702,
      "verzekeren": 3703,
      "glimlachte": 3704,
      "naderden": 3705,
      "trachten": 3706,
      "geweldig": 3707,
      "spoorweg": 3708,
      "bekoor": 3709,
      "pogingen": 3710,
      "rampzal": 3711,
      "vergeefs": 3712,
      "vestigen": 3713,
      "Jones": 3714,
      "geëindigd": 3715,
      "gezondheid": 3716,
      "gekwetst": 3717,
      "gewapend": 3718,
      "jammer": 3719,
      "Af": 3720,
      "Fann": 3721,
      "Luister": 3722,
      "Sak": 3723,
      "_Londen": 3724,
      "hopen": 3725,
      "jaard": 3726,
      "mpen": 3727,
      "nus": 3728,
      "tachtig": 3729,
      "ument": 3730,
      "wet": 3731,
      "waagde": 3732,
      "ijl": 3733,
      "geh": 3734,
      "dis": 3735,
      "bewezen": 3736,
      "bewees": 3737,
      "aandoen": 3738,
      "aanstond": 3739,
      "dieu_": 3740,
      "mijnen": 3741,
      "uitste": 3742,
      "onderscheiden": 3743,
      "landen": 3744,
      "thuis": 3745,
      "ukkig": 3746,
      "trokken": 3747,
      "kundige": 3748,
      "ftige": 3749,
      "kastelein": 3750,
      "eindigde": 3751,
      "kelijke": 3752,
      "huisje": 3753,
      "openen": 3754,
      "breng": 3755,
      "hoogst": 3756,
      "goederen": 3757,
      "pleeg": 3758,
      "vraagd": 3759,
      "mochten": 3760,
      "ontdekte": 3761,
      "verschijnsel": 3762,
      "beteeken": 3763,
      "trouwens": 3764,
      "teleurstelling": 3765,
      "verrukking": 3766,
      "Gelukkig": 3767,
      "betrof": 3768,
      "verspreid": 3769,
      "Atlant": 3770,
      "uitnoodiging": 3771,
      "Fanny": 3772,
      "_Londen_": 3773,
      "17": 3774,
      "25": 3775,
      "Sue": 3776,
      "York": 3777,
      "aven": 3778,
      "cies": 3779,
      "dapper": 3780,
      "equi": 3781,
      "nal": 3782,
      "por": 3783,
      "sig": 3784,
      "zingen": 3785,
      "atcher": 3786,
      "verzoeken": 3787,
      "verhalen": 3788,
      "gena": 3789,
      "genees": 3790,
      "bevol": 3791,
      "ieke": 3792,
      "dieper": 3793,
      "hagen": 3794,
      "hama": 3795,
      "gelast": 3796,
      "wijd": 3797,
      "steek": 3798,
      "spraken": 3799,
      "werkte": 3800,
      "overblijf": 3801,
      "use": 3802,
      "efde": 3803,
      "efort": 3804,
      "moede": 3805,
      "moedige": 3806,
      "bruin": 3807,
      "gewend": 3808,
      "levendig": 3809,
      "getuigen": 3810,
      "hoogste": 3811,
      "gezind": 3812,
      "schoonheid": 3813,
      "gevangenen": 3814,
      "page": 3815,
      "gebruikt": 3816,
      "strooming": 3817,
      "samenkomst": 3818,
      "schatten": 3819,
      "issing": 3820,
      "ontmoeting": 3821,
      "reizen": 3822,
      "bloedver": 3823,
      "gansche": 3824,
      "beminn": 3825,
      "durven": 3826,
      "bedrogen": 3827,
      "echtgenoot": 3828,
      "beloofde": 3829,
      "Rochefort": 3830,
      "ongeduld": 3831,
      "passag": 3832,
      "krijgs": 3833,
      "machine": 3834,
      "vreemdeling": 3835,
      "verschaffen": 3836,
      "geestig": 3837,
      "Excellen": 3838,
      "Polly": 3839,
      "priester": 3840,
      "Suez": 3841,
      "Che": 3842,
      "Pro": 3843,
      "Potter": 3844,
      "baat": 3845,
      "ede": 3846,
      "kol": 3847,
      "mist": 3848,
      "elieu": 3849,
      "ining": 3850,
      "onwille": 3851,
      "veranderen": 3852,
      "schui": 3853,
      "orie": 3854,
      "igde": 3855,
      "--‚": 3856,
      "tent": 3857,
      "uitwerking": 3858,
      "graag": 3859,
      "ussen": 3860,
      "daarvoor": 3861,
      "ontroer": 3862,
      "elijkheid": 3863,
      "lading": 3864,
      "hoogen": 3865,
      "bert": 3866,
      "kunst": 3867,
      "zeeroo": 3868,
      "gehecht": 3869,
      "miss": 3870,
      "kast": 3871,
      "kamen": 3872,
      "oogenblikkelijk": 3873,
      "verloop": 3874,
      "klok": 3875,
      "medege": 3876,
      "uiken": 3877,
      "meesteres": 3878,
      "mpel": 3879,
      "zonk": 3880,
      "Fransch": 3881,
      "baron": 3882,
      "gewonnen": 3883,
      "Park": 3884,
      "voldoening": 3885,
      "bewondering": 3886,
      "overtuigen": 3887,
      "voornemens": 3888,
      "verbrij": 3889,
      "gouverneur": 3890,
      "euben": 3891,
      "Richelieu": 3892,
      "Graeuben": 3893,
      "ussac": 3894,
      "Roode": 3895,
      "equipage": 3896,
      "Excellentie": 3897,
      "14": 3898,
      "20": 3899,
      "Drie": 3900,
      "XIII": 3901,
      "brak": 3902,
      "dok": 3903,
      "e_": 3904,
      "tijden": 3905,
      "ergens": 3906,
      "strak": 3907,
      "vervolgen": 3908,
      "genade": 3909,
      "dichter": 3910,
      "alte": 3911,
      "schreeuw": 3912,
      "aansch": 3913,
      "aangenomen": 3914,
      "voorwaarts": 3915,
      "iger": 3916,
      "urd": 3917,
      "olif": 3918,
      "zoozeer": 3919,
      "spor": 3920,
      "droog": 3921,
      "komp": 3922,
      "kommer": 3923,
      "aakten": 3924,
      "begaven": 3925,
      "gewaad": 3926,
      "zachte": 3927,
      "zakken": 3928,
      "kloppen": 3929,
      "geleken": 3930,
      "hire": 3931,
      "Nadat": 3932,
      "indt": 3933,
      "koers": 3934,
      "Toms": 3935,
      "ochtans": 3936,
      "middelpunt": 3937,
      "wezenlijk": 3938,
      "graf": 3939,
      "richten": 3940,
      "brave": 3941,
      "Zooals": 3942,
      "vulkan": 3943,
      "verwijderen": 3944,
      "wonen": 3945,
      "gemakkelijker": 3946,
      "verlegen": 3947,
      "gevestigd": 3948,
      "regelen": 3949,
      "semm": 3950,
      "ontbrak": 3951,
      "schouwspel": 3952,
      "groette": 3953,
      "sleept": 3954,
      "horloge": 3955,
      "gebeuren": 3956,
      "Brazi": 3957,
      "waggon": 3958,
      "staart": 3959,
      "Eerst": 3960,
      "Saknus": 3961,
      "aanstonds": 3962,
      "Saknussemm": 3963,
      "?--": 3964,
      "Da": 3965,
      "Gen": 3966,
      "Ie": 3967,
      "Zal": 3968,
      "cons": 3969,
      "feest": 3970,
      "enz": 3971,
      "verdiep": 3972,
      "verdragen": 3973,
      "genooten": 3974,
      "ijnen": 3975,
      "ikker": 3976,
      "opmerk": 3977,
      "aangaat": 3978,
      "nares": 3979,
      "zoover": 3980,
      "overigens": 3981,
      "graan": 3982,
      "slaakte": 3983,
      "gericht": 3984,
      "geroepen": 3985,
      "zienigheid": 3986,
      "wantrouw": 3987,
      "krater": 3988,
      "plaatst": 3989,
      "perk": 3990,
      "beletten": 3991,
      "eveneens": 3992,
      "inds": 3993,
      "wandelen": 3994,
      "amb": 3995,
      "gezeten": 3996,
      "krachtige": 3997,
      "rijke": 3998,
      "verbazend": 3999,
      "Voorzienigheid": 4000,
      "zuiden": 4001,
      "zorgvuldig": 4002,
      "gemeenschap": 4003,
      "verheven": 4004,
      "beloofd": 4005,
      "pijp": 4006,
      "nieuwsgierigheid": 4007,
      "Spanjaard": 4008,
      "fraaie": 4009,
      "bijkans": 4010,
      "klopte": 4011,
      "mogt": 4012,
      "begraven": 4013,
      "ontroering": 4014,
      "kamenier": 4015,
      "Brazili": 4016,
      "Ca": 4017,
      "Echter": 4018,
      "Oc": 4019,
      "XI": 4020,
      "Yoko": 4021,
      "Zeer": 4022,
      "bitter": 4023,
      "ca": 4024,
      "dàt": 4025,
      "fluisterde": 4026,
      "kaap": 4027,
      "lij": 4028,
      "pu": 4029,
      "wreed": 4030,
      "tegemoet": 4031,
      "verkrijgen": 4032,
      "beer": 4033,
      "ophouden": 4034,
      "oprecht": 4035,
      "omstandigheid": 4036,
      "vooreerst": 4037,
      "ras": 4038,
      "tober": 4039,
      "waarvoor": 4040,
      "spra": 4041,
      "afgrond": 4042,
      "zelden": 4043,
      "keken": 4044,
      "hooger": 4045,
      "ooning": 4046,
      "minnares": 4047,
      "delijken": 4048,
      "hoorden": 4049,
      "kabel": 4050,
      "halven": 4051,
      "eesche": 4052,
      "somber": 4053,
      "bewoog": 4054,
      "Fransche": 4055,
      "boeken": 4056,
      "toonde": 4057,
      "wongen": 4058,
      "verlies": 4059,
      "zachtjes": 4060,
      "middagmaal": 4061,
      "engelsche": 4062,
      "Thom": 4063,
      "afschuwelijk": 4064,
      "bevrijding": 4065,
      "October": 4066,
      "Yokohama": 4067,
      "\",": 4068,
      "Aug": 4069,
      "Want": 4070,
      "XV": 4071,
      "huid": 4072,
      "háár": 4073,
      "klippen": 4074,
      "nel": 4075,
      "noorden": 4076,
      "uwacht": 4077,
      "wand": 4078,
      "wrak": 4079,
      "inspanning": 4080,
      "onuit": 4081,
      "ongelijk": 4082,
      "vervaar": 4083,
      "vervoer": 4084,
      "bezitten": 4085,
      "bekommer": 4086,
      "omhoog": 4087,
      "aanval": 4088,
      "aankomst": 4089,
      "ouwelijk": 4090,
      "ingang": 4091,
      "iegel": 4092,
      "ieft": 4093,
      "ordel": 4094,
      "wijken": 4095,
      "eerd": 4096,
      "nadenken": 4097,
      "nemingen": 4098,
      "overw": 4099,
      "voltoo": 4100,
      "apan": 4101,
      "verlo": 4102,
      "plaatste": 4103,
      "meeste": 4104,
      "Alleen": 4105,
      "bevinden": 4106,
      "Marie": 4107,
      "achtereen": 4108,
      "vormde": 4109,
      "grootte": 4110,
      "geschoten": 4111,
      "kardinaals": 4112,
      "gauw": 4113,
      "gangen": 4114,
      "ischt": 4115,
      "vinding": 4116,
      "verschijnen": 4117,
      "stoomboot": 4118,
      "Sedert": 4119,
      "hitte": 4120,
      "jager": 4121,
      "aangename": 4122,
      "Gaskonjer": 4123,
      "Middellandsche": 4124,
      "Brazilië": 4125,
      "August": 4126,
      "Ber": 4127,
      "Jan": 4128,
      "Mij": 4129,
      "Sher": 4130,
      "Wacht": 4131,
      "dwa": 4132,
      "donder": 4133,
      "mu": 4134,
      "moorden": 4135,
      "tingen": 4136,
      "toeg": 4137,
      "zuur": 4138,
      "eraal": 4139,
      "gej": 4140,
      "onstui": 4141,
      "verf": 4142,
      "dernacht": 4143,
      "oeden": 4144,
      "begaan": 4145,
      "reef": 4146,
      "oplet": 4147,
      "illen": 4148,
      "tende": 4149,
      "wellicht": 4150,
      "waarover": 4151,
      "hebber": 4152,
      "neef": 4153,
      "mejuffrouw": 4154,
      "droomen": 4155,
      "vember": 4156,
      "moedigen": 4157,
      "schemer": 4158,
      "gebonden": 4159,
      "betalen": 4160,
      "terugkomst": 4161,
      "vertoonen": 4162,
      "Eens": 4163,
      "harte": 4164,
      "buitengewone": 4165,
      "grijs": 4166,
      "vergat": 4167,
      "opgewekt": 4168,
      "rijkdom": 4169,
      "vingers": 4170,
      "passen": 4171,
      "gehoorzaam": 4172,
      "Spreek": 4173,
      "noemt": 4174,
      "verdedigen": 4175,
      "schitterend": 4176,
      "parel": 4177,
      "geleerden": 4178,
      "precies": 4179,
      "vermoorden": 4180,
      "levensmiddelen": 4181,
      "woonde": 4182,
      "commiss": 4183,
      "Thatcher": 4184,
      "abdis": 4185,
      "millioen": 4186,
      "November": 4187,
      "buurt": 4188,
      "onmetelijke": 4189,
      "glazen": 4190,
      "consul": 4191,
      "verloving": 4192,
      "Crom": 4193,
      "DE": 4194,
      "Plot": 4195,
      "Zul": 4196,
      "baai": 4197,
      "gordel": 4198,
      "koe": 4199,
      "lok": 4200,
      "sing": 4201,
      "ts": 4202,
      "zwee": 4203,
      "zweer": 4204,
      "ère": 4205,
      "instr": 4206,
      "gedrukt": 4207,
      "atie": 4208,
      "verkeerde": 4209,
      "diam": 4210,
      "zestig": 4211,
      "ompen": 4212,
      "aangezicht": 4213,
      "vooraf": 4214,
      "metgezel": 4215,
      "mijns": 4216,
      "uitslag": 4217,
      "onderscheid": 4218,
      "stevig": 4219,
      "blad": 4220,
      "zeiden": 4221,
      "ontvoer": 4222,
      "hersen": 4223,
      "minnaar": 4224,
      "hoort": 4225,
      "tweeden": 4226,
      "aadje": 4227,
      "riepen": 4228,
      "kabin": 4229,
      "middernacht": 4230,
      "arty": 4231,
      "wenden": 4232,
      "ffende": 4233,
      "oogd": 4234,
      "gestalte": 4235,
      "vierde": 4236,
      "kogel": 4237,
      "Welaan": 4238,
      "looze": 4239,
      "eeuwen": 4240,
      "tuigen": 4241,
      "meesters": 4242,
      "beurs": 4243,
      "planken": 4244,
      "geneigd": 4245,
      "twijfelde": 4246,
      "menschelijk": 4247,
      "knechts": 4248,
      "veroorzaakt": 4249,
      "bemint": 4250,
      "eenvoudige": 4251,
      "pistool": 4252,
      "beteekent": 4253,
      "Robert": 4254,
      "Small": 4255,
      "draaide": 4256,
      "zwemmen": 4257,
      "lakeien": 4258,
      "behandeld": 4259,
      "gebouwd": 4260,
      "slotte": 4261,
      "beetje": 4262,
      "winkelier": 4263,
      "wanhop": 4264,
      "dagelijks": 4265,
      "schoorsteen": 4266,
      "Cromarty": 4267,
      "Plotseling": 4268,
      "diamant": 4269,
      "13": 4270,
      "Bar": 4271,
      "Hen": 4272,
      "Li": 4273,
      "_T": 4274,
      "bond": 4275,
      "ex": 4276,
      "eed": 4277,
      "gde": 4278,
      "ië": 4279,
      "ium": 4280,
      "kaan": 4281,
      "lof": 4282,
      "oceaan": 4283,
      "vigen": 4284,
      "ensch": 4285,
      "teen": 4286,
      "geschen": 4287,
      "stijf": 4288,
      "verkeerd": 4289,
      "bei": 4290,
      "behooren": 4291,
      "reikte": 4292,
      "wege": 4293,
      "wekte": 4294,
      "haken": 4295,
      "waarden": 4296,
      "afkeer": 4297,
      "draag": 4298,
      "moer": 4299,
      "ontro": 4300,
      "kerel": 4301,
      "brug": 4302,
      "elend": 4303,
      "misdaad": 4304,
      "zeewater": 4305,
      "zadel": 4306,
      "slechte": 4307,
      "duim": 4308,
      "vriendin": 4309,
      "mededeelen": 4310,
      "gestoken": 4311,
      "sprongen": 4312,
      "kleinen": 4313,
      "geregeld": 4314,
      "nergens": 4315,
      "doods": 4316,
      "gezocht": 4317,
      "Hoewel": 4318,
      "Waarlijk": 4319,
      "dikant": 4320,
      "ellende": 4321,
      "braken": 4322,
      "kwal": 4323,
      "behoeven": 4324,
      "minuut": 4325,
      "trekking": 4326,
      "storten": 4327,
      "proef": 4328,
      "ganschen": 4329,
      "tabak": 4330,
      "leeftijd": 4331,
      "boodschap": 4332,
      "verraden": 4333,
      "verrass": 4334,
      "verontschuldig": 4335,
      "breedte": 4336,
      "vergezeld": 4337,
      "vergezellen": 4338,
      "maatschap": 4339,
      "bezorgd": 4340,
      "ladder": 4341,
      "verzam": 4342,
      "dwaasheid": 4343,
      "vliegen": 4344,
      "besef": 4345,
      "weddenschap": 4346,
      "bewoners": 4347,
      "uitbarsting": 4348,
      "Even": 4349,
      "Jun": 4350,
      "Weet": 4351,
      "age": 4352,
      "amen": 4353,
      "comp": 4354,
      "ften": 4355,
      "klan": 4356,
      "yer": 4357,
      "óor": 4358,
      "ertijd": 4359,
      "gevraagd": 4360,
      "stok": 4361,
      "stocht": 4362,
      "atmos": 4363,
      "vermaak": 4364,
      "verzon": 4365,
      "algemeene": 4366,
      "schaam": 4367,
      "schonk": 4368,
      "bekomen": 4369,
      "behandelen": 4370,
      "zest": 4371,
      "reff": 4372,
      "lekker": 4373,
      "ora": 4374,
      "urk": 4375,
      "rad": 4376,
      "zichzelve": 4377,
      "werven": 4378,
      "daarmede": 4379,
      "geving": 4380,
      "broer": 4381,
      "hoezeer": 4382,
      "deloos": 4383,
      "stelden": 4384,
      "tweemaal": 4385,
      "pret": 4386,
      "wanten": 4387,
      "wend": 4388,
      "oogde": 4389,
      "openhart": 4390,
      "bezocht": 4391,
      "plecht": 4392,
      "bewoon": 4393,
      "Stil": 4394,
      "besteed": 4395,
      "edellieden": 4396,
      "verleden": 4397,
      "zuiver": 4398,
      "beenderen": 4399,
      "blauwe": 4400,
      "bespeuren": 4401,
      "duivels": 4402,
      "verhaald": 4403,
      "leidde": 4404,
      "driftig": 4405,
      "legerkamp": 4406,
      "wenkbra": 4407,
      "Hemel": 4408,
      "avontuur": 4409,
      "geheimen": 4410,
      "beschrijven": 4411,
      "Afrik": 4412,
      "commissaris": 4413,
      "kabinet": 4414,
      "atmosf": 4415,
      "12": 4416,
      "agent": 4417,
      "baard": 4418,
      "daalde": 4419,
      "glan": 4420,
      "lar": 4421,
      "riet": 4422,
      "rijf": 4423,
      "taak": 4424,
      "telde": 4425,
      "vóor": 4426,
      "woud": 4427,
      "zoen": 4428,
      "—\"": 4429,
      "erm": 4430,
      "geet": 4431,
      "gestaan": 4432,
      "gezin": 4433,
      "ondoor": 4434,
      "eenhoorn": 4435,
      "heek": 4436,
      "heining": 4437,
      "schers": 4438,
      "beek": 4439,
      "beweeg": 4440,
      "zegen": 4441,
      "reg": 4442,
      "ouder": 4443,
      "kenden": 4444,
      "voordat": 4445,
      "voorkeur": 4446,
      "ury": 4447,
      "wijlen": 4448,
      "eerde": 4449,
      "uitmun": 4450,
      "onderaardsche": 4451,
      "werf": 4452,
      "neiging": 4453,
      "bijgevolg": 4454,
      "dring": 4455,
      "voldaan": 4456,
      "jeugd": 4457,
      "komstig": 4458,
      "branden": 4459,
      "lip": 4460,
      "herkend": 4461,
      "minsten": 4462,
      "doende": 4463,
      "hierin": 4464,
      "verteld": 4465,
      "beschikking": 4466,
      "wanhoop": 4467,
      "houdende": 4468,
      "nemende": 4469,
      "voortreff": 4470,
      "binnenste": 4471,
      "sels": 4472,
      "getij": 4473,
      "beval": 4474,
      "nieuwen": 4475,
      "oudste": 4476,
      "geestdrift": 4477,
      "vulkaan": 4478,
      "woedend": 4479,
      "iedere": 4480,
      "merkwaardig": 4481,
      "gekregen": 4482,
      "uiterlijk": 4483,
      "bolwerk": 4484,
      "werktuigen": 4485,
      "sneden": 4486,
      "mooie": 4487,
      "schilder": 4488,
      "monsters": 4489,
      "vriendelijkheid": 4490,
      "toonen": 4491,
      "barstte": 4492,
      "ongeduldig": 4493,
      "bevatte": 4494,
      "Harper": 4495,
      "geringste": 4496,
      "Duivel": 4497,
      "akelig": 4498,
      "gebeurtenissen": 4499,
      "inwendige": 4500,
      "keuken": 4501,
      "verdwijnen": 4502,
      "wezigheid": 4503,
      "overblijfselen": 4504,
      "passagiers": 4505,
      "publ": 4506,
      "sprake": 4507,
      "kwalijk": 4508,
      "wenkbrauwen": 4509,
      "Del": 4510,
      "EN": 4511,
      "Jul": 4512,
      "Lang": 4513,
      "Nie": 4514,
      "Sc": 4515,
      "San": 4516,
      "To": 4517,
      "cent": 4518,
      "du": 4519,
      "daat": 4520,
      "kusten": 4521,
      "migen": 4522,
      "neren": 4523,
      "po": 4524,
      "raakte": 4525,
      "uste": 4526,
      "erin": 4527,
      "erkennen": 4528,
      "geberg": 4529,
      "gezigt": 4530,
      "geplaatst": 4531,
      "vergeven": 4532,
      "verbeter": 4533,
      "vervloe": 4534,
      "vervelen": 4535,
      "generaal": 4536,
      "begr": 4537,
      "rechts": 4538,
      "datgene": 4539,
      "opzoeken": 4540,
      "omgang": 4541,
      "ouwe": 4542,
      "ieve": 4543,
      "illing": 4544,
      "tengevolge": 4545,
      "toel": 4546,
      "uitgaan": 4547,
      "doorgebracht": 4548,
      "haarzelve": 4549,
      "nevel": 4550,
      "bijl": 4551,
      "slui": 4552,
      "manieren": 4553,
      "meerder": 4554,
      "geduld": 4555,
      "kanten": 4556,
      "hierop": 4557,
      "hiermede": 4558,
      "utta": 4559,
      "betui": 4560,
      "betaald": 4561,
      "teruggekeerd": 4562,
      "gelezen": 4563,
      "duizenden": 4564,
      "noodige": 4565,
      "wachtten": 4566,
      "evenveel": 4567,
      "binnentrad": 4568,
      "gestorven": 4569,
      "vorige": 4570,
      "Porte": 4571,
      "rijst": 4572,
      "uiker": 4573,
      "krachtig": 4574,
      "Waarin": 4575,
      "bezwaar": 4576,
      "traden": 4577,
      "wezens": 4578,
      "ijsbank": 4579,
      "twijfelen": 4580,
      "herinneren": 4581,
      "verliefd": 4582,
      "dreigen": 4583,
      "naauwelijks": 4584,
      "beminde": 4585,
      "bedekte": 4586,
      "kostbaar": 4587,
      "aanzienlijke": 4588,
      "nieuwsgierig": 4589,
      "onverschilligheid": 4590,
      "belette": 4591,
      "verpletter": 4592,
      "Helaas": 4593,
      "onwillekeurig": 4594,
      "Thomas": 4595,
      "10": 4596,
      "Der": 4597,
      "Kort": 4598,
      "Nooit": 4599,
      "Ref": 4600,
      "bor": 4601,
      "bil": 4602,
      "fier": 4603,
      "luk": 4604,
      "pelijk": 4605,
      "ronde": 4606,
      "tun": 4607,
      "tige": 4608,
      "tong": 4609,
      "vet": 4610,
      "wond": 4611,
      "wreken": 4612,
      "wyer": 4613,
      "deuren": 4614,
      "eling": 4615,
      "ine": 4616,
      "tem": 4617,
      "onaf": 4618,
      "verpool": 4619,
      "schoen": 4620,
      "bekende": 4621,
      "hadde": 4622,
      "onderwerpen": 4623,
      "waaronder": 4624,
      "waarheen": 4625,
      "name": 4626,
      "overwin": 4627,
      "volmaakt": 4628,
      "achtigen": 4629,
      "zenuwacht": 4630,
      "kleurig": 4631,
      "oogmerk": 4632,
      "getee": 4633,
      "Margar": 4634,
      "loos": 4635,
      "doc": 4636,
      "dozijn": 4637,
      "verborg": 4638,
      "roem": 4639,
      "rusting": 4640,
      "kwaam": 4641,
      "kalme": 4642,
      "vreuse": 4643,
      "handeld": 4644,
      "verzekering": 4645,
      "wapenen": 4646,
      "vooruitzicht": 4647,
      "veranderde": 4648,
      "zwijgend": 4649,
      "uille": 4650,
      "zwaarte": 4651,
      "bladen": 4652,
      "geleerd": 4653,
      "predikant": 4654,
      "uitgeput": 4655,
      "cti": 4656,
      "vroolijkheid": 4657,
      "verschrikkelijke": 4658,
      "Sawyer": 4659,
      "teleurgesteld": 4660,
      "schelp": 4661,
      "gemoeds": 4662,
      "ernstige": 4663,
      "ikkeld": 4664,
      "getrouwd": 4665,
      "ontsnappen": 4666,
      "omringd": 4667,
      "gekozen": 4668,
      "oneindig": 4669,
      "nalaten": 4670,
      "Chevreuse": 4671,
      "Ieder": 4672,
      "Liverpool": 4673,
      "Reform": 4674,
      "Margaret": 4675,
      "30": 4676,
      "Lord": 4677,
      "Mong": 4678,
      "Thadde": 4679,
      "bb": 4680,
      "con": 4681,
      "cutta": 4682,
      "kten": 4683,
      "klas": 4684,
      "mut": 4685,
      "zweet": 4686,
      "zoet": 4687,
      "ert": 4688,
      "dete": 4689,
      "stiet": 4690,
      "vermij": 4691,
      "verwit": 4692,
      "genieten": 4693,
      "oorde": 4694,
      "vandaag": 4695,
      "beven": 4696,
      "beman": 4697,
      "bezoe": 4698,
      "opzet": 4699,
      "ledig": 4700,
      "zijns": 4701,
      "ilde": 4702,
      "geladen": 4703,
      "ondersteun": 4704,
      "nauwer": 4705,
      "ney": 4706,
      "groep": 4707,
      "drop": 4708,
      "jeug": 4709,
      "sluit": 4710,
      "dienzelfden": 4711,
      "sterken": 4712,
      "uwde": 4713,
      "hoofden": 4714,
      "lichte": 4715,
      "Maart": 4716,
      "allige": 4717,
      "geboren": 4718,
      "eindigen": 4719,
      "verlieten": 4720,
      "weerstaan": 4721,
      "vlag": 4722,
      "oogt": 4723,
      "hartstocht": 4724,
      "makker": 4725,
      "ziekte": 4726,
      "valt": 4727,
      "verdoo": 4728,
      "speelde": 4729,
      "bereikten": 4730,
      "bewust": 4731,
      "matige": 4732,
      "iciteit": 4733,
      "verzekerde": 4734,
      "stormen": 4735,
      "verkregen": 4736,
      "ischte": 4737,
      "uiterst": 4738,
      "vormden": 4739,
      "beproefde": 4740,
      "vruchten": 4741,
      "vruchteloos": 4742,
      "trots": 4743,
      "wisseling": 4744,
      "soldaat": 4745,
      "Overigens": 4746,
      "tijdig": 4747,
      "letters": 4748,
      "koesteren": 4749,
      "betrekking": 4750,
      "Zuidzee": 4751,
      "franken": 4752,
      "dubbele": 4753,
      "droefheid": 4754,
      "scheeps": 4755,
      "Calcutta": 4756,
      "klimmen": 4757,
      "dokter": 4758,
      "kompagnie": 4759,
      "document": 4760,
      "Thaddeus": 4761,
      "detecti": 4762,
      "Chin": 4763,
      "Fe": 4764,
      "Nee": 4765,
      "Pat": 4766,
      "bag": 4767,
      "dal": 4768,
      "dorst": 4769,
      "esten": 4770,
      "eischen": 4771,
      "go": 4772,
      "hist": 4773,
      "iot": 4774,
      "koorn": 4775,
      "pat": 4776,
      "soen": 4777,
      "sein": 4778,
      "ijdel": 4779,
      "aafd": 4780,
      "inboor": 4781,
      "gestelde": 4782,
      "stier": 4783,
      "eenzaam": 4784,
      "vermen": 4785,
      "verhin": 4786,
      "behagen": 4787,
      "beesten": 4788,
      "ome": 4789,
      "diepen": 4790,
      "orre": 4791,
      "olia": 4792,
      "overkomen": 4793,
      "overvallen": 4794,
      "meed": 4795,
      "aford": 4796,
      "drank": 4797,
      "dronk": 4798,
      "blokken": 4799,
      "vollen": 4800,
      "onthoud": 4801,
      "gevuld": 4802,
      "laden": 4803,
      "hoedan": 4804,
      "lieverle": 4805,
      "ried": 4806,
      "haling": 4807,
      "gebaar": 4808,
      "gebaren": 4809,
      "warm": 4810,
      "Daarom": 4811,
      "gasten": 4812,
      "genoegzaam": 4813,
      "vlammen": 4814,
      "rechtstreeks": 4815,
      "aterdag": 4816,
      "verderf": 4817,
      "haaien": 4818,
      "lossen": 4819,
      "voorbijgaan": 4820,
      "Spaansche": 4821,
      "zeventig": 4822,
      "vroegere": 4823,
      "wolk": 4824,
      "doode": 4825,
      "kleeding": 4826,
      "versier": 4827,
      "ffenis": 4828,
      "kostbare": 4829,
      "verschijning": 4830,
      "verbeeldde": 4831,
      "electriciteit": 4832,
      "burger": 4833,
      "wissel": 4834,
      "machinist": 4835,
      "begeerte": 4836,
      "bezorgdheid": 4837,
      "bedoeling": 4838,
      "innig": 4839,
      "vangst": 4840,
      "uitgestrekt": 4841,
      "uitgestrekte": 4842,
      "bekoorlijk": 4843,
      "portr": 4844,
      "gelastte": 4845,
      "olifant": 4846,
      "verzonken": 4847,
      "glans": 4848,
      "Duivelsch": 4849,
      "Delaford": 4850,
      "Mongolia": 4851,
      "lieverlede": 4852,
      "11": 4853,
      "Cle": 4854,
      "Ger": 4855,
      "Gol": 4856,
      "Mart": 4857,
      "Mrs": 4858,
      "Niemand": 4859,
      "_St": 4860,
      "ais": 4861,
      "breede": 4862,
      "car": 4863,
      "ielen": 4864,
      "kaat": 4865,
      "kisten": 4866,
      "lige": 4867,
      "moogt": 4868,
      "roos": 4869,
      "sier": 4870,
      "swaardige": 4871,
      "ijsland": 4872,
      "inkomen": 4873,
      "gep": 4874,
      "onverklaar": 4875,
      "verbl": 4876,
      "verschenen": 4877,
      "schikken": 4878,
      "schors": 4879,
      "besten": 4880,
      "beantwoord": 4881,
      "beweer": 4882,
      "bemerken": 4883,
      "bevende": 4884,
      "wachte": 4885,
      "oponthoud": 4886,
      "aanbevel": 4887,
      "outh": 4888,
      "ramen": 4889,
      "und": 4890,
      "unt": 4891,
      "spij": 4892,
      "spook": 4893,
      "overigen": 4894,
      "overwon": 4895,
      "overtocht": 4896,
      "drui": 4897,
      "bliot": 4898,
      "naarmate": 4899,
      "mama": 4900,
      "toestel": 4901,
      "meermalen": 4902,
      "delooze": 4903,
      "gedwongen": 4904,
      "dak": 4905,
      "tweehonderd": 4906,
      "misluk": 4907,
      "pril": 4908,
      "klonk": 4909,
      "arts": 4910,
      "vloer": 4911,
      "mededeeling": 4912,
      "indoe": 4913,
      "vasten": 4914,
      "Allen": 4915,
      "stemde": 4916,
      "partijen": 4917,
      "mogelijkheid": 4918,
      "kelijken": 4919,
      "latende": 4920,
      "velden": 4921,
      "vergaar": 4922,
      "bezorgen": 4923,
      "somtijds": 4924,
      "legden": 4925,
      "wierpen": 4926,
      "Stille": 4927,
      "gehoorzamen": 4928,
      "lock": 4929,
      "verkie": 4930,
      "durf": 4931,
      "veronderstel": 4932,
      "dollar": 4933,
      "ongerustheid": 4934,
      "hoeveelheid": 4935,
      "plantaadje": 4936,
      "boezemen": 4937,
      "Wilt": 4938,
      "dampkring": 4939,
      "aanhoudend": 4940,
      "eerbie": 4941,
      "slachtoffer": 4942,
      "portier": 4943,
      "schuilplaats": 4944,
      "Sherlock": 4945,
      "publiek": 4946,
      "bemanning": 4947,
      "detective": 4948,
      "Febr": 4949,
      "April": 4950,
      "Char": 4951,
      "Ess": 4952,
      "Laten": 4953,
      "Morgen": 4954,
      "fat": 4955,
      "gouden": 4956,
      "gleed": 4957,
      "ho": 4958,
      "kolonel": 4959,
      "koopen": 4960,
      "lon": 4961,
      "mden": 4962,
      "ni": 4963,
      "nochtans": 4964,
      "poort": 4965,
      "rang": 4966,
      "ruiter": 4967,
      "uart": 4968,
      "umenten": 4969,
      "zol": 4970,
      "òf": 4971,
      "erbij": 4972,
      "angen": 4973,
      "inhoud": 4974,
      "chen": 4975,
      "gevolgen": 4976,
      "stoffen": 4977,
      "verniet": 4978,
      "genaamd": 4979,
      "hevige": 4980,
      "dergelijk": 4981,
      "omer": 4982,
      "aanwij": 4983,
      "aangedaan": 4984,
      "aangezien": 4985,
      "wassen": 4986,
      "voorwereld": 4987,
      "uitrusting": 4988,
      "welkom": 4989,
      "spit": 4990,
      "antwoor": 4991,
      "blok": 4992,
      "volhar": 4993,
      "ontsteld": 4994,
      "heerlijke": 4995,
      "hoofde": 4996,
      "hervatte": 4997,
      "hunnen": 4998,
      "adres": 4999,
      "tegenstaande": 5000,
      "kanon": 5001,
      "goeds": 5002,
      "goedheid": 5003,
      "kade": 5004,
      "halende": 5005,
      "belooning": 5006,
      "vaders": 5007,
      "wendende": 5008,
      "getui": 5009,
      "zetting": 5010,
      "eigenaar": 5011,
      "gerekend": 5012,
      "vaarwel": 5013,
      "besluiten": 5014,
      "verband": 5015,
      "snellen": 5016,
      "sombere": 5017,
      "vijfhonderd": 5018,
      "Vereenig": 5019,
      "lachend": 5020,
      "Stuart": 5021,
      "visscher": 5022,
      "vreugd": 5023,
      "locom": 5024,
      "vermoeien": 5025,
      "onvermij": 5026,
      "wolven": 5027,
      "enkelen": 5028,
      "bedroe": 5029,
      "verheugd": 5030,
      "schriften": 5031,
      "Bastille": 5032,
      "Hare": 5033,
      "kistje": 5034,
      "theorie": 5035,
      "gewaarwor": 5036,
      "verzamel": 5037,
      "bescherming": 5038,
      "geleidde": 5039,
      "Francisco": 5040,
      "gegeten": 5041,
      "leuning": 5042,
      "belangrijke": 5043,
      "daarenboven": 5044,
      "bibliot": 5045,
      "dorp": 5046,
      "vergiffenis": 5047,
      "muziek": 5048,
      "zestien": 5049,
      "temper": 5050,
      "vermijden": 5051,
      "nauwernood": 5052,
      "Essarts": 5053,
      "locomot": 5054,
      "Pr": 5055,
      "Zelf": 5056,
      "_zij": 5057,
      "bon": 5058,
      "bus": 5059,
      "bouwen": 5060,
      "echte": 5061,
      "ile": 5062,
      "knoo": 5063,
      "koos": 5064,
      "kussen": 5065,
      "oeten": 5066,
      "pe": 5067,
      "sc": 5068,
      "vil": 5069,
      "velde": 5070,
      "elders": 5071,
      "geel": 5072,
      "gesm": 5073,
      "stooten": 5074,
      "verste": 5075,
      "vergelijk": 5076,
      "genoo": 5077,
      "oei": 5078,
      "schaal": 5079,
      "opgenomen": 5080,
      "aankomen": 5081,
      "gelden": 5082,
      "ondergaan": 5083,
      "waarna": 5084,
      "zoovele": 5085,
      "spiegel": 5086,
      "haard": 5087,
      "meden": 5088,
      "bloedig": 5089,
      "slieden": 5090,
      "slinger": 5091,
      "moge": 5092,
      "sterren": 5093,
      "daaraan": 5094,
      "daarover": 5095,
      "ontg": 5096,
      "ingenomen": 5097,
      "hoeken": 5098,
      "ossen": 5099,
      "beroe": 5100,
      "beroep": 5101,
      "dampen": 5102,
      "kroop": 5103,
      "verloopen": 5104,
      "geleiden": 5105,
      "vlogen": 5106,
      "rekende": 5107,
      "gelooft": 5108,
      "vieren": 5109,
      "bevor": 5110,
      "snijden": 5111,
      "geschreeuw": 5112,
      "kamers": 5113,
      "harten": 5114,
      "natic": 5115,
      "treurige": 5116,
      "luide": 5117,
      "rechten": 5118,
      "onbegrij": 5119,
      "lotte": 5120,
      "verwonderen": 5121,
      "doodelijk": 5122,
      "garde": 5123,
      "vermoord": 5124,
      "electrieke": 5125,
      "brandde": 5126,
      "grenzen": 5127,
      "klommen": 5128,
      "IJsl": 5129,
      "weigerde": 5130,
      "blootgesteld": 5131,
      "vertrouwd": 5132,
      "zwom": 5133,
      "kijker": 5134,
      "juiste": 5135,
      "daarentegen": 5136,
      "onbeschrijf": 5137,
      "Carnatic": 5138,
      "bloedverwanten": 5139,
      "beminnelijk": 5140,
      "Augustus": 5141,
      "Januari": 5142,
      "dwaze": 5143,
      "Juli": 5144,
      "gebergte": 5145,
      "begrip": 5146,
      "geteekend": 5147,
      "Charlotte": 5148,
      "Vereenigde": 5149,
      ".,": 5150,
      "Bo": 5151,
      "Ce": 5152,
      "Jussac": 5153,
      "Vier": 5154,
      "aken": 5155,
      "buik": 5156,
      "cy": 5157,
      "daal": 5158,
      "ester": 5159,
      "jar": 5160,
      "kok": 5161,
      "klip": 5162,
      "nag": 5163,
      "peil": 5164,
      "ron": 5165,
      "toren": 5166,
      "tak": 5167,
      "ude": 5168,
      "ustel": 5169,
      "vigheid": 5170,
      "zers": 5171,
      "êr": 5172,
      "deugd": 5173,
      "elooze": 5174,
      "ineen": 5175,
      "tehuis": 5176,
      "atten": 5177,
      "verlaat": 5178,
      "verzetten": 5179,
      "ikkel": 5180,
      "oevers": 5181,
      "schande": 5182,
      "bezi": 5183,
      "bekl": 5184,
      "bevrees": 5185,
      "bekeek": 5186,
      "zegel": 5187,
      "ommer": 5188,
      "omhel": 5189,
      "iederen": 5190,
      "voorbereid": 5191,
      "igheden": 5192,
      "togt": 5193,
      "uitroepen": 5194,
      "hemels": 5195,
      "splaat": 5196,
      "gril": 5197,
      "blan": 5198,
      "slang": 5199,
      "slim": 5200,
      "sloegen": 5201,
      "diger": 5202,
      "diend": 5203,
      "ontstond": 5204,
      "geraden": 5205,
      "geringe": 5206,
      "gevat": 5207,
      "hebbende": 5208,
      "ligen": 5209,
      "berry": 5210,
      "voelen": 5211,
      "kleeren": 5212,
      "kleberry": 5213,
      "gewis": 5214,
      "gewond": 5215,
      "daglicht": 5216,
      "links": 5217,
      "hiel": 5218,
      "evenzeer": 5219,
      "medeplicht": 5220,
      "wenkte": 5221,
      "kocht": 5222,
      "zaakte": 5223,
      "mogelijke": 5224,
      "vertrouwelijk": 5225,
      "wetende": 5226,
      "vergist": 5227,
      "jaarlijk": 5228,
      "stukje": 5229,
      "bewoond": 5230,
      "sabel": 5231,
      "vrede": 5232,
      "Huckleberry": 5233,
      "woeste": 5234,
      "loopende": 5235,
      "geheimzinnige": 5236,
      "verwonderde": 5237,
      "verkoopen": 5238,
      "glimlachende": 5239,
      "kostte": 5240,
      "Indische": 5241,
      "vervulde": 5242,
      "keuring": 5243,
      "ctor": 5244,
      "flikker": 5245,
      "nuttig": 5246,
      "ongelukkigen": 5247,
      "dochters": 5248,
      "betrokken": 5249,
      "kiezen": 5250,
      "zeldzaam": 5251,
      "ingericht": 5252,
      "schildpad": 5253,
      "wekkende": 5254,
      "eerbied": 5255,
      "ridder": 5256,
      "zoodanig": 5257,
      "Atlantischen": 5258,
      "medegedeeld": 5259,
      "schreeuwde": 5260,
      "verrassing": 5261,
      "tunnel": 5262,
      "overwonnen": 5263,
      "vergaarbakken": 5264,
      "dollars": 5265,
      "Februari": 5266,
      "bibliotheek": 5267,
      "locomotief": 5268,
      "Zelfs": 5269,
      "_zij_": 5270,
      "bevreesd": 5271,
      "21": 5272,
      "28": 5273,
      "Bun": 5274,
      "Binnen": 5275,
      "Kijk": 5276,
      "Rang": 5277,
      "TI": 5278,
      "baan": 5279,
      "for": 5280,
      "joor": 5281,
      "jal": 5282,
      "mui": 5283,
      "mart": 5284,
      "naal": 5285,
      "pra": 5286,
      "pooten": 5287,
      "uzen": 5288,
      "vurig": 5289,
      "zomer": 5290,
      "ooft": 5291,
      "geur": 5292,
      "geit": 5293,
      "gesche": 5294,
      "gemis": 5295,
      "gepr": 5296,
      "gekend": 5297,
      "gebed": 5298,
      "gebogen": 5299,
      "eende": 5300,
      "schim": 5301,
      "beh": 5302,
      "bevestigen": 5303,
      "beefde": 5304,
      "zeel": 5305,
      "aanra": 5306,
      "leverde": 5307,
      "iedt": 5308,
      "voorwend": 5309,
      "voorname": 5310,
      "onderhoud": 5311,
      "steden": 5312,
      "afleggen": 5313,
      "droegen": 5314,
      "blin": 5315,
      "volbracht": 5316,
      "terecht": 5317,
      "bende": 5318,
      "sling": 5319,
      "sterker": 5320,
      "ontkomen": 5321,
      "ontnemen": 5322,
      "ziens": 5323,
      "herstellen": 5324,
      "tijdlang": 5325,
      "tijdperk": 5326,
      "troosten": 5327,
      "kante": 5328,
      "aadde": 5329,
      "slepen": 5330,
      "Integendeel": 5331,
      "hankelijk": 5332,
      "gestooten": 5333,
      "vierkante": 5334,
      "selijken": 5335,
      "Mei": 5336,
      "geschied": 5337,
      "maaltijd": 5338,
      "schipper": 5339,
      "grondgebied": 5340,
      "gedaante": 5341,
      "verdub": 5342,
      "krijgt": 5343,
      "gevangenschap": 5344,
      "barsten": 5345,
      "verklaard": 5346,
      "uine": 5347,
      "gesprekken": 5348,
      "gedeeltelijk": 5349,
      "onverwacht": 5350,
      "gevoelig": 5351,
      "liefhebber": 5352,
      "koralen": 5353,
      "zuchtig": 5354,
      "ontmoetten": 5355,
      "drew": 5356,
      "Andrew": 5357,
      "kaars": 5358,
      "beklagen": 5359,
      "verlangt": 5360,
      "schrede": 5361,
      "begint": 5362,
      "spannen": 5363,
      "Geef": 5364,
      "reiziger": 5365,
      "redding": 5366,
      "officieren": 5367,
      "Zoudt": 5368,
      "veiligheid": 5369,
      "nuttel": 5370,
      "veronderstelling": 5371,
      "verrukt": 5372,
      "schelpen": 5373,
      "drijvende": 5374,
      "weigeren": 5375,
      "behoefte": 5376,
      "ontzaglijk": 5377,
      "Volgens": 5378,
      "leveren": 5379,
      "flauw": 5380,
      "waarschuw": 5381,
      "bevolen": 5382,
      "Golf": 5383,
      "antwoordelijk": 5384,
      "splaats": 5385,
      "Rangoon": 5386,
      "Kan": 5387,
      "Lu": 5388,
      "Uwer": 5389,
      "Vijf": 5390,
      "Wer": 5391,
      "cijf": 5392,
      "cir": 5393,
      "fol": 5394,
      "fluister": 5395,
      "joeg": 5396,
      "kra": 5397,
      "kud": 5398,
      "lis": 5399,
      "laf": 5400,
      "luiten": 5401,
      "suiker": 5402,
      "toppen": 5403,
      "vons": 5404,
      "vurige": 5405,
      "àn": 5406,
      "erkent": 5407,
      "onnoodig": 5408,
      "onheil": 5409,
      "verga": 5410,
      "verkw": 5411,
      "verbeelden": 5412,
      "vergeet": 5413,
      "verantwoordelijk": 5414,
      "genen": 5415,
      "hek": 5416,
      "beantwoordde": 5417,
      "beantwoorden": 5418,
      "waan": 5419,
      "reid": 5420,
      "regels": 5421,
      "opmerken": 5422,
      "aanleg": 5423,
      "issa": 5424,
      "voorviel": 5425,
      "stegen": 5426,
      "sparen": 5427,
      "zichzelf": 5428,
      "ierre": 5429,
      "lijkt": 5430,
      "afmet": 5431,
      "Devons": 5432,
      "moeij": 5433,
      "gevoeg": 5434,
      "therm": 5435,
      "word": 5436,
      "toestellen": 5437,
      "tral": 5438,
      "strij": 5439,
      "strijden": 5440,
      "krank": 5441,
      "hierover": 5442,
      "terugkomen": 5443,
      "duidde": 5444,
      "verschans": 5445,
      "wachter": 5446,
      "rick": 5447,
      "driehonderd": 5448,
      "volgt": 5449,
      "Alle": 5450,
      "getal": 5451,
      "drukkende": 5452,
      "rijden": 5453,
      "gerecht": 5454,
      "hoopt": 5455,
      "gezwor": 5456,
      "sommigen": 5457,
      "ééne": 5458,
      "rustte": 5459,
      "gram": 5460,
      "gespannen": 5461,
      "Ongetwijfeld": 5462,
      "opgehouden": 5463,
      "knik": 5464,
      "visschers": 5465,
      "paste": 5466,
      "teekens": 5467,
      "jongelieden": 5468,
      "verleid": 5469,
      "zuidelijke": 5470,
      "tegenwoordige": 5471,
      "behoorden": 5472,
      "verdediging": 5473,
      "kaarten": 5474,
      "regelmatig": 5475,
      "papieren": 5476,
      "galop": 5477,
      "electrische": 5478,
      "gelegenheden": 5479,
      "heilig": 5480,
      "heilige": 5481,
      "voeding": 5482,
      "aarzelen": 5483,
      "verbaasde": 5484,
      "bloemen": 5485,
      "berichten": 5486,
      "wekkend": 5487,
      "avonturen": 5488,
      "vervolgd": 5489,
      "kanoes": 5490,
      "bevestigd": 5491,
      "ontzettende": 5492,
      "behendig": 5493,
      "bedwingen": 5494,
      "edele": 5495,
      "instrumenten": 5496,
      "Patrick": 5497,
      "bagage": 5498,
      "inboorlingen": 5499,
      "stierf": 5500,
      "temperatuur": 5501,
      "usteloos": 5502,
      "aanraking": 5503,
      "voorwendsel": 5504,
      "luitenant": 5505,
      "Devonshire": 5506,
      "Japan": 5507,
      "borg": 5508,
      "dof": 5509,
      "ei": 5510,
      "gul": 5511,
      "gord": 5512,
      "hu": 5513,
      "held": 5514,
      "kreek": 5515,
      "machtig": 5516,
      "méér": 5517,
      "nomen": 5518,
      "swaardig": 5519,
      "vik": 5520,
      "var": 5521,
      "wn": 5522,
      "waak": 5523,
      "waag": 5524,
      "wicht": 5525,
      "zwaren": 5526,
      "ér": 5527,
      "oozen": 5528,
      "chip": 5529,
      "gescheiden": 5530,
      "geslapen": 5531,
      "stre": 5532,
      "verp": 5533,
      "vervol": 5534,
      "verdacht": 5535,
      "vergeleken": 5536,
      "dichte": 5537,
      "diën": 5538,
      "bemerkt": 5539,
      "opt": 5540,
      "aanvallen": 5541,
      "aangevallen": 5542,
      "aanleiding": 5543,
      "uiden": 5544,
      "ledige": 5545,
      "voorval": 5546,
      "voorgesteld": 5547,
      "voorzorgen": 5548,
      "iddag": 5549,
      "uitgebr": 5550,
      "welnu": 5551,
      "waardigen": 5552,
      "waarnemingen": 5553,
      "nadruk": 5554,
      "dankte": 5555,
      "nest": 5556,
      "afgesproken": 5557,
      "afwezigheid": 5558,
      "drongen": 5559,
      "bena": 5560,
      "effen": 5561,
      "mouille": 5562,
      "geraken": 5563,
      "thol": 5564,
      "mas": 5565,
      "mans": 5566,
      "hersteld": 5567,
      "geducht": 5568,
      "toenemen": 5569,
      "daden": 5570,
      "gewensch": 5571,
      "okt": 5572,
      "namiddag": 5573,
      "weers": 5574,
      "handig": 5575,
      "verschuldig": 5576,
      "risch": 5577,
      "wangen": 5578,
      "voortgaan": 5579,
      "gesta": 5580,
      "landschap": 5581,
      "hoofdstad": 5582,
      "achtergelaten": 5583,
      "redeneer": 5584,
      "dachten": 5585,
      "sprekende": 5586,
      "veland": 5587,
      "treur": 5588,
      "treft": 5589,
      "vrijwillig": 5590,
      "eltje": 5591,
      "gelukkige": 5592,
      "reisgezel": 5593,
      "Hoeveel": 5594,
      "valies": 5595,
      "teekende": 5596,
      "grapp": 5597,
      "Trémouille": 5598,
      "opgegeven": 5599,
      "gevaarlijke": 5600,
      "geheimzinnig": 5601,
      "zochten": 5602,
      "witten": 5603,
      "koraal": 5604,
      "geweldige": 5605,
      "zuivere": 5606,
      "persoonlijk": 5607,
      "bezigheid": 5608,
      "dichtheid": 5609,
      "kennissen": 5610,
      "ptember": 5611,
      "beginne": 5612,
      "vervullen": 5613,
      "verrader": 5614,
      "banken": 5615,
      "insde": 5616,
      "bevatten": 5617,
      "186": 5618,
      "bekentenis": 5619,
      "ijverig": 5620,
      "ontwaakte": 5621,
      "September": 5622,
      "millioenen": 5623,
      "koesterde": 5624,
      "seconde": 5625,
      "verminderde": 5626,
      "mmers": 5627,
      "aandoening": 5628,
      "uitstekende": 5629,
      "geneesheer": 5630,
      "Franschman": 5631,
      "verbrijzeld": 5632,
      "vulkanische": 5633,
      "opmerkingen": 5634,
      "overwoog": 5635,
      "klank": 5636,
      "bewoonde": 5637,
      "Toby": 5638,
      "Derhalve": 5639,
      "Neem": 5640,
      "portret": 5641,
      "Cleveland": 5642,
      "Martha": 5643,
      "leuningstoel": 5644,
      "verschuldigd": 5645,
      "),": 5646,
      ",’": 5647,
      "Ham": 5648,
      "Kent": 5649,
      "_de": 5650,
      "agen": 5651,
      "asch": 5652,
      "ball": 5653,
      "hingen": 5654,
      "iou": 5655,
      "kla": 5656,
      "pag": 5657,
      "uf": 5658,
      "zo": 5659,
      "zaa": 5660,
      "óo": 5661,
      "enden": 5662,
      "anten": 5663,
      "elingen": 5664,
      "inlicht": 5665,
      "temin": 5666,
      "geol": 5667,
      "gekr": 5668,
      "gewekt": 5669,
      "eenzame": 5670,
      "versp": 5671,
      "vernu": 5672,
      "genoe": 5673,
      "bepalen": 5674,
      "opgel": 5675,
      "omver": 5676,
      "ommel": 5677,
      "aanmerking": 5678,
      "uitein": 5679,
      "lee": 5680,
      "iste": 5681,
      "uitgang": 5682,
      "ondernemen": 5683,
      "spoort": 5684,
      "overwinnen": 5685,
      "overleden": 5686,
      "bijster": 5687,
      "droo": 5688,
      "zenuwen": 5689,
      "daaruit": 5690,
      "keel": 5691,
      "lastig": 5692,
      "scheelt": 5693,
      "toebereid": 5694,
      "gedurig": 5695,
      "troepen": 5696,
      "assen": 5697,
      "kreten": 5698,
      "handschrift": 5699,
      "vreeselijken": 5700,
      "oogst": 5701,
      "bevindt": 5702,
      "achterover": 5703,
      "geschikte": 5704,
      "helden": 5705,
      "diepste": 5706,
      "sson": 5707,
      "honderden": 5708,
      "snelle": 5709,
      "grijpen": 5710,
      "beurtel": 5711,
      "wezenlijke": 5712,
      "graden": 5713,
      "kalk": 5714,
      "kni": 5715,
      "Staten": 5716,
      "verwijt": 5717,
      "soortige": 5718,
      "gewonen": 5719,
      "vleu": 5720,
      "Parsi": 5721,
      "broeders": 5722,
      "verdronken": 5723,
      "rooken": 5724,
      "slaande": 5725,
      "boschwachter": 5726,
      "werktui": 5727,
      "gedrongen": 5728,
      "leefden": 5729,
      "kopp": 5730,
      "branding": 5731,
      "pijnlijk": 5732,
      "heette": 5733,
      "verwachting": 5734,
      "grendel": 5735,
      "veronderstellen": 5736,
      "dolk": 5737,
      "aangewezen": 5738,
      "verwarring": 5739,
      "hinderpaal": 5740,
      "beleedigd": 5741,
      "Proctor": 5742,
      "voltooid": 5743,
      "gejaagd": 5744,
      "schemering": 5745,
      "Henriet": 5746,
      "geschenk": 5747,
      "maatschappij": 5748,
      "Nieuw": 5749,
      "betuigingen": 5750,
      "fatsoen": 5751,
      "onvermijdelijk": 5752,
      "gezworen": 5753,
      "chipel": 5754,
      "uiteinde": 5755,
      "beurtelings": 5756,
      "Henrietta": 5757,
      "Am": 5758,
      "Gou": 5759,
      "Hoor": 5760,
      "Mo": 5761,
      "Natuur": 5762,
      "Peters": 5763,
      "Sle": 5764,
      "XL": 5765,
      "Xury": 5766,
      "Zond": 5767,
      "dracht": 5768,
      "eum": 5769,
      "juwe": 5770,
      "kool": 5771,
      "melen": 5772,
      "melk": 5773,
      "rand": 5774,
      "so": 5775,
      "sis": 5776,
      "twe": 5777,
      "vuist": 5778,
      "erop": 5779,
      "erken": 5780,
      "erover": 5781,
      "erlei": 5782,
      "ingew": 5783,
      "intenis": 5784,
      "onkel": 5785,
      "storen": 5786,
      "staarde": 5787,
      "aarden": 5788,
      "vergaan": 5789,
      "verblee": 5790,
      "verried": 5791,
      "hecht": 5792,
      "alzoo": 5793,
      "schiet": 5794,
      "schurk": 5795,
      "beu": 5796,
      "bewaar": 5797,
      "bedenk": 5798,
      "behoud": 5799,
      "rest": 5800,
      "aanschen": 5801,
      "aanzag": 5802,
      "ours": 5803,
      "leerde": 5804,
      "ingel": 5805,
      "voorzorg": 5806,
      "metalen": 5807,
      "gelach": 5808,
      "raft": 5809,
      "mijzelf": 5810,
      "uitte": 5811,
      "uitgesproken": 5812,
      "sple": 5813,
      "zichzelven": 5814,
      "zout": 5815,
      "blo": 5816,
      "ogram": 5817,
      "jezu": 5818,
      "achteren": 5819,
      "achttien": 5820,
      "daarheen": 5821,
      "ontwaarde": 5822,
      "kronen": 5823,
      "drieën": 5824,
      "tigd": 5825,
      "schijnsel": 5826,
      "rijen": 5827,
      "veling": 5828,
      "verbintenis": 5829,
      "snelden": 5830,
      "vergissing": 5831,
      "plegen": 5832,
      "jah": 5833,
      "beleger": 5834,
      "opgesloten": 5835,
      "gebruikte": 5836,
      "woei": 5837,
      "edelmoedig": 5838,
      "knevel": 5839,
      "scherts": 5840,
      "oppervlak": 5841,
      "herinneringen": 5842,
      "onverwachte": 5843,
      "korten": 5844,
      "magt": 5845,
      "gewelf": 5846,
      "liggende": 5847,
      "werpende": 5848,
      "veroorzaakte": 5849,
      "behoorlijk": 5850,
      "vaderland": 5851,
      "lessen": 5852,
      "bedroog": 5853,
      "nauwkeur": 5854,
      "vormige": 5855,
      "verschijnselen": 5856,
      "Indianen": 5857,
      "XXV": 5858,
      "parels": 5859,
      "koperen": 5860,
      "dringend": 5861,
      "zwarten": 5862,
      "grens": 5863,
      "koelbloedig": 5864,
      "aarzelde": 5865,
      "droevig": 5866,
      "Komaan": 5867,
      "lijnen": 5868,
      "heuvels": 5869,
      "scherpe": 5870,
      "vertrouwde": 5871,
      "orkaan": 5872,
      "akelige": 5873,
      "Zuidpool": 5874,
      "bedriegt": 5875,
      "bidden": 5876,
      "geheime": 5877,
      "bedoelt": 5878,
      "bleeke": 5879,
      "schuldigen": 5880,
      "streng": 5881,
      "waarschuwen": 5882,
      "verdiept": 5883,
      "wantrouwen": 5884,
      "gehoorzaamde": 5885,
      "ontvoerd": 5886,
      "uitmuntend": 5887,
      "verpletterd": 5888,
      "zenuwachtig": 5889,
      "getuige": 5890,
      "vergelijking": 5891,
      "verdubb": 5892,
      "cirkel": 5893,
      "gevoegd": 5894,
      "jezuï": 5895,
      "Agra": 5896,
      "Col": 5897,
      "Gre": 5898,
      "My": 5899,
      "Mag": 5900,
      "Pa": 5901,
      "Tante": 5902,
      "_M": 5903,
      "apen": 5904,
      "asten": 5905,
      "ares": 5906,
      "buigen": 5907,
      "eb": 5908,
      "ekt": 5909,
      "fig": 5910,
      "flin": 5911,
      "g_": 5912,
      "gaten": 5913,
      "hy": 5914,
      "ius": 5915,
      "keten": 5916,
      "kregen": 5917,
      "lokken": 5918,
      "mig": 5919,
      "pale": 5920,
      "ret": 5921,
      "tap": 5922,
      "tigen": 5923,
      "vaat": 5924,
      "vingen": 5925,
      "winter": 5926,
      "wetten": 5927,
      "zwier": 5928,
      "zóo": 5929,
      "deer": 5930,
      "ina": 5931,
      "intr": 5932,
      "gede": 5933,
      "gesn": 5934,
      "gepl": 5935,
      "gepein": 5936,
      "gehandeld": 5937,
      "onnoo": 5938,
      "stelen": 5939,
      "aardige": 5940,
      "eenzaamheid": 5941,
      "vergenoeg": 5942,
      "verricht": 5943,
      "verslag": 5944,
      "verdiende": 5945,
      "verbijster": 5946,
      "vanwaar": 5947,
      "schan": 5948,
      "bege": 5949,
      "reuk": 5950,
      "regeer": 5951,
      "aannam": 5952,
      "aanbieden": 5953,
      "weel": 5954,
      "ieur": 5955,
      "dieven": 5956,
      "igingen": 5957,
      "uitzag": 5958,
      "gri": 5959,
      "afzonder": 5960,
      "blonk": 5961,
      "volzin": 5962,
      "zending": 5963,
      "anderhalf": 5964,
      "vechten": 5965,
      "geraakte": 5966,
      "meren": 5967,
      "geenszins": 5968,
      "ijdt": 5969,
      "makelijk": 5970,
      "toestemming": 5971,
      "ditmaal": 5972,
      "delf": 5973,
      "tijdstip": 5974,
      "zeerste": 5975,
      "gelijktijdig": 5976,
      "geheugen": 5977,
      "kanaal": 5978,
      "strik": 5979,
      "kleuren": 5980,
      "riemen": 5981,
      "gewaagd": 5982,
      "goedhart": 5983,
      "prooi": 5984,
      "verloofd": 5985,
      "klin": 5986,
      "klonken": 5987,
      "terugkeer": 5988,
      "meesten": 5989,
      "evens": 5990,
      "bevre": 5991,
      "vorst": 5992,
      "kleiner": 5993,
      "platen": 5994,
      "meent": 5995,
      "stilstaan": 5996,
      "verbind": 5997,
      "schoonste": 5998,
      "plank": 5999,
      "bedorven": 6000,
      "oudheid": 6001,
      "vallende": 6002,
      "STE": 6003,
      "gezichten": 6004,
      "genegen": 6005,
      "teekeningen": 6006,
      "stroomde": 6007,
      "vermoedde": 6008,
      "bestude": 6009,
      "broek": 6010,
      "herinnert": 6011,
      "merkbaar": 6012,
      "hertogin": 6013,
      "bewijst": 6014,
      "Anne": 6015,
      "vertoonden": 6016,
      "glimlachen": 6017,
      "haastte": 6018,
      "gedroogd": 6019,
      "sneed": 6020,
      "heldere": 6021,
      "gewichtig": 6022,
      "gewichtige": 6023,
      "ontbijten": 6024,
      "ontbreken": 6025,
      "Onderwijl": 6026,
      "verward": 6027,
      "droomde": 6028,
      "sleepte": 6029,
      "afschuw": 6030,
      "schildwacht": 6031,
      "seconden": 6032,
      "pastoor": 6033,
      "tegelijkertijd": 6034,
      "opgewondenheid": 6035,
      "vereenigd": 6036,
      "Koning": 6037,
      "latijn": 6038,
      "genaderd": 6039,
      "priesters": 6040,
      "Genade": 6041,
      "toegang": 6042,
      "Eensklaps": 6043,
      "wanhopig": 6044,
      "_Tours": 6045,
      "ondoordring": 6046,
      "schoener": 6047,
      "aanbeveling": 6048,
      "medeplichtige": 6049,
      "Golfstroom": 6050,
      "kudde": 6051,
      "thermometer": 6052,
      "érou": 6053,
      "grappig": 6054,
      "Zondag": 6055,
      "onnoozel": 6056,
      "Ath": 6057,
      "Dr": 6058,
      "Goe": 6059,
      "Heil": 6060,
      "Le": 6061,
      "Lieve": 6062,
      "Muff": 6063,
      "Pool": 6064,
      "Sing": 6065,
      "Ziet": 6066,
      "Zaterdag": 6067,
      "_R": 6068,
      "aderen": 6069,
      "amerik": 6070,
      "band": 6071,
      "col": 6072,
      "cond": 6073,
      "gy": 6074,
      "grepen": 6075,
      "héé": 6076,
      "kuste": 6077,
      "laar": 6078,
      "ow": 6079,
      "oerd": 6080,
      "pan": 6081,
      "ringen": 6082,
      "ruwe": 6083,
      "sdag": 6084,
      "sinds": 6085,
      "vin": 6086,
      "von": 6087,
      "vaak": 6088,
      "winden": 6089,
      "zons": 6090,
      "zéér": 6091,
      "indi": 6092,
      "gezag": 6093,
      "gegrond": 6094,
      "gehul": 6095,
      "gekleur": 6096,
      "verraad": 6097,
      "heffen": 6098,
      "oorsprong": 6099,
      "aling": 6100,
      "dertien": 6101,
      "iken": 6102,
      "ikia": 6103,
      "schuwd": 6104,
      "bevrij": 6105,
      "bewaarde": 6106,
      "opgeven": 6107,
      "opstond": 6108,
      "opstaande": 6109,
      "aankwam": 6110,
      "aandeel": 6111,
      "niettegenstaande": 6112,
      "niettemin": 6113,
      "hagel": 6114,
      "voorsp": 6115,
      "igt": 6116,
      "toer": 6117,
      "uitroep": 6118,
      "onderweg": 6119,
      "onderhouden": 6120,
      "ondervragen": 6121,
      "ondervinding": 6122,
      "unif": 6123,
      "nauwe": 6124,
      "overbleef": 6125,
      "bloos": 6126,
      "ters": 6127,
      "digden": 6128,
      "efd": 6129,
      "zendt": 6130,
      "moedigheid": 6131,
      "lage": 6132,
      "scheuren": 6133,
      "ukt": 6134,
      "making": 6135,
      "bruik": 6136,
      "toegeven": 6137,
      "beris": 6138,
      "minister": 6139,
      "geheven": 6140,
      "elementen": 6141,
      "kansel": 6142,
      "levende": 6143,
      "hieraan": 6144,
      "betoo": 6145,
      "geleide": 6146,
      "Nauwelijks": 6147,
      "bescha": 6148,
      "zeggende": 6149,
      "Watson": 6150,
      "openbaar": 6151,
      "gestraft": 6152,
      "bevallig": 6153,
      "makende": 6154,
      "baarheid": 6155,
      "eigene": 6156,
      "heengaan": 6157,
      "tred": 6158,
      "nachten": 6159,
      "offers": 6160,
      "gezonken": 6161,
      "schoonbroeder": 6162,
      "bedreven": 6163,
      "gespaard": 6164,
      "ellendig": 6165,
      "gereedschap": 6166,
      "gereedschappen": 6167,
      "Spoedig": 6168,
      "gebeurt": 6169,
      "geslacht": 6170,
      "jongelings": 6171,
      "waarschijnlijkheid": 6172,
      "fron": 6173,
      "Amerikaansche": 6174,
      "verdeeld": 6175,
      "gemeend": 6176,
      "vensters": 6177,
      "gedronken": 6178,
      "ademhaling": 6179,
      "vernement": 6180,
      "Saint": 6181,
      "feiten": 6182,
      "draaien": 6183,
      "katten": 6184,
      "kerkhof": 6185,
      "Gelooft": 6186,
      "potten": 6187,
      "eeuwig": 6188,
      "gewaarschuwd": 6189,
      "fijne": 6190,
      "gekwetste": 6191,
      "hori": 6192,
      "Reeds": 6193,
      "berekenen": 6194,
      "inwendig": 6195,
      "bedoelde": 6196,
      "groene": 6197,
      "zeeroovers": 6198,
      "oplettend": 6199,
      "prettig": 6200,
      "Afrika": 6201,
      "atmosfeer": 6202,
      "voortreffelijk": 6203,
      "vervloekte": 6204,
      "Kortom": 6205,
      "muts": 6206,
      "jeugdige": 6207,
      "omeus": 6208,
      "moeijelijk": 6209,
      "tholomeus": 6210,
      "toebereidselen": 6211,
      "werktuigelijk": 6212,
      "intrig": 6213,
      "_Tours_": 6214,
      "ikiavik": 6215,
      "uniform": 6216,
      "23": 6217,
      "40": 6218,
      "50": 6219,
      "Immers": 6220,
      "Jim": 6221,
      "Mal": 6222,
      "Tank": 6223,
      "_C": 6224,
      "_Par": 6225,
      "adel": 6226,
      "bord": 6227,
      "dwal": 6228,
      "hieven": 6229,
      "imeter": 6230,
      "nopen": 6231,
      "pten": 6232,
      "pla": 6233,
      "pakken": 6234,
      "pompen": 6235,
      "rel": 6236,
      "ros": 6237,
      "rum": 6238,
      "rilling": 6239,
      "wonden": 6240,
      "éth": 6241,
      "ane": 6242,
      "inkrijk": 6243,
      "tempel": 6244,
      "geantwoord": 6245,
      "gemiddel": 6246,
      "gesleept": 6247,
      "onrustig": 6248,
      "stoken": 6249,
      "athan": 6250,
      "vering": 6251,
      "verzen": 6252,
      "verstond": 6253,
      "vereenigen": 6254,
      "heele": 6255,
      "vankelijk": 6256,
      "oef": 6257,
      "schop": 6258,
      "schut": 6259,
      "beel": 6260,
      "bedel": 6261,
      "opstaan": 6262,
      "opvoeding": 6263,
      "omgeving": 6264,
      "leelijk": 6265,
      "kenner": 6266,
      "iedde": 6267,
      "is_": 6268,
      "voorwaarden": 6269,
      "zijd": 6270,
      "arg": 6271,
      "uitsch": 6272,
      "uitkomen": 6273,
      "uitstrekte": 6274,
      "onderzoe": 6275,
      "onderworpen": 6276,
      "waarneming": 6277,
      "nadeel": 6278,
      "spart": 6279,
      "dansen": 6280,
      "neêr": 6281,
      "overwegen": 6282,
      "bijbel": 6283,
      "afwacht": 6284,
      "drij": 6285,
      "ulde": 6286,
      "uldigen": 6287,
      "diensten": 6288,
      "dienaren": 6289,
      "ontkennen": 6290,
      "ontvlucht": 6291,
      "ontzetting": 6292,
      "gevalle": 6293,
      "brokken": 6294,
      "braaf": 6295,
      "toevlucht": 6296,
      "manschappen": 6297,
      "beroofd": 6298,
      "herstel": 6299,
      "delingen": 6300,
      "adère": 6301,
      "steling": 6302,
      "tweegevecht": 6303,
      "kleeden": 6304,
      "kruit": 6305,
      "kronkel": 6306,
      "kaj": 6307,
      "hieruit": 6308,
      "hierheen": 6309,
      "teruggekomen": 6310,
      "duizel": 6311,
      "vriendelijke": 6312,
      "beschuit": 6313,
      "beschreven": 6314,
      "deelden": 6315,
      "gelukte": 6316,
      "gestoord": 6317,
      "gestuwd": 6318,
      "gevoeld": 6319,
      "haalden": 6320,
      "rijzen": 6321,
      "eigendom": 6322,
      "meenen": 6323,
      "heengegaan": 6324,
      "sneller": 6325,
      "bezwaren": 6326,
      "bezaaid": 6327,
      "schoonzuster": 6328,
      "valsch": 6329,
      "bedaren": 6330,
      "speeld": 6331,
      "gezellig": 6332,
      "Ongelukkig": 6333,
      "verdere": 6334,
      "ellendige": 6335,
      "vraagstuk": 6336,
      "bijzonders": 6337,
      "pastor": 6338,
      "behoed": 6339,
      "Vooreerst": 6340,
      "Vriend": 6341,
      "onverander": 6342,
      "gesling": 6343,
      "holpen": 6344,
      "zeventien": 6345,
      "zuchtige": 6346,
      "qua": 6347,
      "beklim": 6348,
      "schrijver": 6349,
      "rukken": 6350,
      "Ziehier": 6351,
      "vloei": 6352,
      "schreien": 6353,
      "electrisch": 6354,
      "hangende": 6355,
      "middags": 6356,
      "verlangend": 6357,
      "grootere": 6358,
      "inson": 6359,
      "aarzeling": 6360,
      "engelsch": 6361,
      "verlichting": 6362,
      "kreu": 6363,
      "straffen": 6364,
      "uigde": 6365,
      "koopman": 6366,
      "vreemden": 6367,
      "logeeren": 6368,
      "boezem": 6369,
      "behoeften": 6370,
      "zondag": 6371,
      "vereischt": 6372,
      "Reikiavik": 6373,
      "gastheer": 6374,
      "noodlottig": 6375,
      "droefgeestig": 6376,
      "aux": 6377,
      "noodzakelijkheid": 6378,
      "zonnestralen": 6379,
      "ontzettend": 6380,
      "geruimen": 6381,
      "gloeiende": 6382,
      "zoodanige": 6383,
      "misdaden": 6384,
      "misdadig": 6385,
      "ijlde": 6386,
      "pleegd": 6387,
      "gezindheid": 6388,
      "zeeroover": 6389,
      "XIV": 6390,
      "zuurstof": 6391,
      "Bartholomeus": 6392,
      "beider": 6393,
      "ontroerd": 6394,
      "Juni": 6395,
      "minstens": 6396,
      "ijdelheid": 6397,
      "versierd": 6398,
      "voorwereldlijke": 6399,
      "verzameling": 6400,
      "folter": 6401,
      "Hamburg": 6402,
      "Natuurlijk": 6403,
      "Petersburg": 6404,
      "jezuïet": 6405,
      "Mylord": 6406,
      "paleis": 6407,
      "bloosde": 6408,
      "fronste": 6409,
      "Tankadère": 6410,
      "éthun": 6411,
      "pastorie": 6412,
      "!....": 6413,
      "Aur": 6414,
      "Comp": 6415,
      "Dood": 6416,
      "Far": 6417,
      "Frid": 6418,
      "Hou": 6419,
      "Hindoe": 6420,
      "IV": 6421,
      "Kaap": 6422,
      "Meer": 6423,
      "Ra": 6424,
      "_par": 6425,
      "ai": 6426,
      "bun": 6427,
      "bas": 6428,
      "cen": 6429,
      "fel": 6430,
      "huur": 6431,
      "idi": 6432,
      "joen": 6433,
      "koord": 6434,
      "klagen": 6435,
      "kramp": 6436,
      "linnen": 6437,
      "meld": 6438,
      "maag": 6439,
      "no": 6440,
      "talen": 6441,
      "touwen": 6442,
      "ubel": 6443,
      "uchte": 6444,
      "vuren": 6445,
      "deele": 6446,
      "star": 6447,
      "stijd": 6448,
      "stokken": 6449,
      "verster": 6450,
      "verkocht": 6451,
      "dium": 6452,
      "oorspr": 6453,
      "beder": 6454,
      "bestaande": 6455,
      "begroe": 6456,
      "zegev": 6457,
      "rein": 6458,
      "redelijk": 6459,
      "regens": 6460,
      "opnemen": 6461,
      "oprechte": 6462,
      "omlaag": 6463,
      "omringen": 6464,
      "aangetroffen": 6465,
      "aanwijzen": 6466,
      "ouders": 6467,
      "ley": 6468,
      "kenning": 6469,
      "ieken": 6470,
      "niet_": 6471,
      "voorkamer": 6472,
      "voorgevoel": 6473,
      "gelde": 6474,
      "gelie": 6475,
      "wijding": 6476,
      "mijzelven": 6477,
      "mende": 6478,
      "eere": 6479,
      "uitzicht": 6480,
      "uitspreken": 6481,
      "steile": 6482,
      "waarmee": 6483,
      "spl": 6484,
      "spo": 6485,
      "doork": 6486,
      "bijvoorbeeld": 6487,
      "draagt": 6488,
      "Dezen": 6489,
      "ult": 6490,
      "sloop": 6491,
      "slangen": 6492,
      "kondigde": 6493,
      "konink": 6494,
      "vein": 6495,
      "ontgaan": 6496,
      "ontvluchten": 6497,
      "ontvangst": 6498,
      "geenerlei": 6499,
      "liam": 6500,
      "manometer": 6501,
      "kwade": 6502,
      "kansen": 6503,
      "zeeman": 6504,
      "eindelooze": 6505,
      "betaalde": 6506,
      "weerhouden": 6507,
      "terugkeerde": 6508,
      "geleverd": 6509,
      "vloot": 6510,
      "risten": 6511,
      "beschikken": 6512,
      "vadem": 6513,
      "wendig": 6514,
      "voortzetten": 6515,
      "kozen": 6516,
      "bevallige": 6517,
      "ucteur": 6518,
      "Meun": 6519,
      "raadsel": 6520,
      "vrije": 6521,
      "gebrul": 6522,
      "zieke": 6523,
      "vertrekt": 6524,
      "riksson": 6525,
      "digende": 6526,
      "onbescheiden": 6527,
      "speet": 6528,
      "speel": 6529,
      "jaarden": 6530,
      "eilandje": 6531,
      "gezegde": 6532,
      "voert": 6533,
      "Verscheiden": 6534,
      "Vergeef": 6535,
      "geestkracht": 6536,
      "vraagt": 6537,
      "stadje": 6538,
      "lager": 6539,
      "verschillen": 6540,
      "Franschen": 6541,
      "paspoort": 6542,
      "stapel": 6543,
      "beschouwt": 6544,
      "handelwijze": 6545,
      "bestonden": 6546,
      "magtig": 6547,
      "regende": 6548,
      "veroordeeld": 6549,
      "dreigde": 6550,
      "drempel": 6551,
      "kortom": 6552,
      "bezigheden": 6553,
      "Arme": 6554,
      "loopig": 6555,
      "kaarsen": 6556,
      "schrijft": 6557,
      "prov": 6558,
      "probe": 6559,
      "verheugde": 6560,
      "dwong": 6561,
      "schitterde": 6562,
      "blauw": 6563,
      "bladeren": 6564,
      "leggende": 6565,
      "verstoord": 6566,
      "bedaarde": 6567,
      "waardiging": 6568,
      "weekdieren": 6569,
      "vreemdsoortige": 6570,
      "fluit": 6571,
      "verontwaardiging": 6572,
      "ontbreekt": 6573,
      "beteekende": 6574,
      "verwachtingen": 6575,
      "stamelde": 6576,
      "Europe": 6577,
      "rolde": 6578,
      "zwakke": 6579,
      "peinsde": 6580,
      "vestigde": 6581,
      "gunstige": 6582,
      "Spanjaarden": 6583,
      "ikkelde": 6584,
      "William": 6585,
      "Jonathan": 6586,
      "schrijf": 6587,
      "daags": 6588,
      "procureur": 6589,
      "smeekte": 6590,
      "Soms": 6591,
      "berekening": 6592,
      "juich": 6593,
      "noodlottige": 6594,
      "gekocht": 6595,
      "_Béthun": 6596,
      "rigten": 6597,
      "buiging": 6598,
      "geruimd": 6599,
      "noordelijke": 6600,
      "zilveren": 6601,
      "schiereiland": 6602,
      "Portu": 6603,
      "sign": 6604,
      "ambten": 6605,
      "achtereenvolgens": 6606,
      "onstuimige": 6607,
      "onafhankelijk": 6608,
      "hielp": 6609,
      "zeelieden": 6610,
      "inlichtingen": 6611,
      "Slechts": 6612,
      "koelbloedigheid": 6613,
      "conducteur": 6614,
      "kanselier": 6615,
      "kajuit": 6616,
      "geslingerd": 6617,
      "kreupel": 6618,
      "Fridriksson": 6619,
      "oorspron": 6620,
      "_Béthune_": 6621,
      "22": 6622,
      "Achter": 6623,
      "Gaat": 6624,
      "Ke": 6625,
      "Long": 6626,
      "Noord": 6627,
      "Oma": 6628,
      "Pur": 6629,
      "Tusschen": 6630,
      "Ur": 6631,
      "_Ar": 6632,
      "_niet_": 6633,
      "bie": 6634,
      "bure": 6635,
      "binson": 6636,
      "eel": 6637,
      "hè": 6638,
      "kou": 6639,
      "lid": 6640,
      "mor": 6641,
      "non": 6642,
      "ping": 6643,
      "sid": 6644,
      "tor": 6645,
      "tand": 6646,
      "uze": 6647,
      "wo": 6648,
      "wrik": 6649,
      "y_": 6650,
      "ères": 6651,
      "enboven": 6652,
      "ering": 6653,
      "degens": 6654,
      "aafde": 6655,
      "elney": 6656,
      "inrichting": 6657,
      "ingesloten": 6658,
      "teweeg": 6659,
      "geerd": 6660,
      "geholpen": 6661,
      "onweder": 6662,
      "stop": 6663,
      "staal": 6664,
      "verzui": 6665,
      "verwerven": 6666,
      "vermeed": 6667,
      "heim": 6668,
      "vanzelf": 6669,
      "schik": 6670,
      "beden": 6671,
      "bewa": 6672,
      "beul": 6673,
      "bemoe": 6674,
      "beheersch": 6675,
      "ometers": 6676,
      "aanvankelijk": 6677,
      "oro": 6678,
      "voorwaarde": 6679,
      "gelij": 6680,
      "idde": 6681,
      "rajah": 6682,
      "wijden": 6683,
      "wijzer": 6684,
      "tenden": 6685,
      "uitstel": 6686,
      "steil": 6687,
      "sprek": 6688,
      "doorschijn": 6689,
      "doorliep": 6690,
      "doorgang": 6691,
      "ne_": 6692,
      "nek": 6693,
      "overdreven": 6694,
      "meet": 6695,
      "meel": 6696,
      "afgetrokken": 6697,
      "blieft": 6698,
      "oensdag": 6699,
      "benevens": 6700,
      "slap": 6701,
      "slaag": 6702,
      "dient": 6703,
      "dienden": 6704,
      "weegt": 6705,
      "aph": 6706,
      "kegel": 6707,
      "scheppen": 6708,
      "hoof": 6709,
      "toegebracht": 6710,
      "liment": 6711,
      "ookte": 6712,
      "trom": 6713,
      "steltenis": 6714,
      "dadige": 6715,
      "alléén": 6716,
      "hierdoor": 6717,
      "hierbij": 6718,
      "belieft": 6719,
      "evenzoo": 6720,
      "evengoed": 6721,
      "beschuldigen": 6722,
      "medegebracht": 6723,
      "geloofd": 6724,
      "wending": 6725,
      "gelukt": 6726,
      "Jawel": 6727,
      "gestap": 6728,
      "snor": 6729,
      "achterdo": 6730,
      "vorming": 6731,
      "spring": 6732,
      "bereiden": 6733,
      "berekende": 6734,
      "harde": 6735,
      "Daarenboven": 6736,
      "hellingen": 6737,
      "wonderbaar": 6738,
      "vlam": 6739,
      "vergun": 6740,
      "somwijlen": 6741,
      "bedwel": 6742,
      "vijan": 6743,
      "onbewoon": 6744,
      "speelden": 6745,
      "museum": 6746,
      "gravers": 6747,
      "Onmogelijk": 6748,
      "gelukkiger": 6749,
      "geestelijke": 6750,
      "vullen": 6751,
      "twintigtal": 6752,
      "pavil": 6753,
      "beschouwden": 6754,
      "Denk": 6755,
      "wonde": 6756,
      "scherm": 6757,
      "merkwaardige": 6758,
      "nadere": 6759,
      "naderende": 6760,
      "spelers": 6761,
      "proeven": 6762,
      "bepaalden": 6763,
      "wollen": 6764,
      "verkoos": 6765,
      "beminnen": 6766,
      "kennismaking": 6767,
      "scheiding": 6768,
      "durft": 6769,
      "verheft": 6770,
      "kinder": 6771,
      "bewonderde": 6772,
      "negentien": 6773,
      "aanziende": 6774,
      "meestal": 6775,
      "fluiten": 6776,
      "verontrust": 6777,
      "vlugt": 6778,
      "Robinson": 6779,
      "hofmeester": 6780,
      "rollen": 6781,
      "maatregelen": 6782,
      "thee": 6783,
      "potvisschen": 6784,
      "behandelde": 6785,
      "overeenstemming": 6786,
      "Spanje": 6787,
      "praatte": 6788,
      "aangenamer": 6789,
      "Elk": 6790,
      "hangt": 6791,
      "verslonden": 6792,
      "verminderen": 6793,
      "dubbel": 6794,
      "leverden": 6795,
      "Grooten": 6796,
      "wandelde": 6797,
      "stomme": 6798,
      "verbrijzel": 6799,
      "verfoe": 6800,
      "teenen": 6801,
      "Scot": 6802,
      "ijslandsche": 6803,
      "bedroefd": 6804,
      "scaph": 6805,
      "beroemde": 6806,
      "onbeschrijfelijke": 6807,
      "Cey": 6808,
      "masker": 6809,
      "gestadig": 6810,
      "redeneering": 6811,
      "verdubbelde": 6812,
      "regeering": 6813,
      "Athelney": 6814,
      "Goede": 6815,
      "gehuld": 6816,
      "bevrijden": 6817,
      "_Pardieu_": 6818,
      "nopens": 6819,
      "Aurora": 6820,
      "_pardieu_": 6821,
      "Omaha": 6822,
      "Urville": 6823,
      "achterdocht": 6824,
      "paviljoen": 6825,
      "19": 6826,
      "26": 6827,
      "2000": 6828,
      "Best": 6829,
      "Con": 6830,
      "Com": 6831,
      "Doe": 6832,
      "Doug": 6833,
      "Grie": 6834,
      "GSTE": 6835,
      "Lissa": 6836,
      "Man": 6837,
      "Mont": 6838,
      "Tien": 6839,
      "Vaar": 6840,
      "_L": 6841,
      "_Am": 6842,
      "breek": 6843,
      "cre": 6844,
      "doos": 6845,
      "dool": 6846,
      "glijden": 6847,
      "hoen": 6848,
      "kele": 6849,
      "naald": 6850,
      "ps": 6851,
      "poogde": 6852,
      "toom": 6853,
      "valle": 6854,
      "zwer": 6855,
      "zinnen": 6856,
      "zachter": 6857,
      "erf": 6858,
      "inl": 6859,
      "inhechtenis": 6860,
      "geacht": 6861,
      "ongeloo": 6862,
      "ongeloof": 6863,
      "ongeval": 6864,
      "onmacht": 6865,
      "onvoorzichtigheid": 6866,
      "onwrik": 6867,
      "stin": 6868,
      "stik": 6869,
      "eend": 6870,
      "ath": 6871,
      "verveel": 6872,
      "verkeer": 6873,
      "verminder": 6874,
      "gende": 6875,
      "heftige": 6876,
      "vangt": 6877,
      "ikoro": 6878,
      "schree": 6879,
      "revol": 6880,
      "opvat": 6881,
      "opgeheven": 6882,
      "aanwees": 6883,
      "aanstaande": 6884,
      "aanbood": 6885,
      "aanschouw": 6886,
      "aanbevolen": 6887,
      "levert": 6888,
      "leugen": 6889,
      "voorsteven": 6890,
      "voorloopig": 6891,
      "vend": 6892,
      "metaal": 6893,
      "uiting": 6894,
      "uitged": 6895,
      "ondervinden": 6896,
      "ondervonden": 6897,
      "waarachtig": 6898,
      "najou": 6899,
      "wers": 6900,
      "overviel": 6901,
      "overhalen": 6902,
      "overgelaten": 6903,
      "grieven": 6904,
      "gronde": 6905,
      "groeten": 6906,
      ".\"--": 6907,
      "draad": 6908,
      "edui": 6909,
      "slaat": 6910,
      "mod": 6911,
      "ontvallen": 6912,
      "ontsteltenis": 6913,
      "heerschen": 6914,
      "main": 6915,
      "masten": 6916,
      "beroemd": 6917,
      "herhaald": 6918,
      "delier": 6919,
      "geduurd": 6920,
      "trouwe": 6921,
      "tegenstand": 6922,
      "tegenwerp": 6923,
      "steland": 6924,
      "stelijken": 6925,
      "alligheid": 6926,
      "klei": 6927,
      "misbruik": 6928,
      "kroon": 6929,
      "boer": 6930,
      "slede": 6931,
      "oomd": 6932,
      "terugkwam": 6933,
      "geleefd": 6934,
      "evenwicht": 6935,
      "beschut": 6936,
      "wank": 6937,
      "huishoud": 6938,
      "voortspr": 6939,
      "voortbreng": 6940,
      "getreden": 6941,
      "beving": 6942,
      "achterna": 6943,
      "kameraad": 6944,
      "placht": 6945,
      "twisten": 6946,
      "ongun": 6947,
      "beslag": 6948,
      "eeniger": 6949,
      "eenigste": 6950,
      "gebrand": 6951,
      "buitenspor": 6952,
      "werkzaam": 6953,
      "trappen": 6954,
      "blijvende": 6955,
      "valsche": 6956,
      "Zijner": 6957,
      "speelt": 6958,
      "eilands": 6959,
      "eilandjes": 6960,
      "voerder": 6961,
      "zonen": 6962,
      "Ons": 6963,
      "Ont": 6964,
      "vulde": 6965,
      "beleg": 6966,
      "letten": 6967,
      "kalmer": 6968,
      "knop": 6969,
      "lachende": 6970,
      "paden": 6971,
      "pakt": 6972,
      "dwars": 6973,
      "Beiden": 6974,
      "loven": 6975,
      "Vanikoro": 6976,
      "handelingen": 6977,
      "weegs": 6978,
      "verliefde": 6979,
      "scherpre": 6980,
      "liefst": 6981,
      "talrijke": 6982,
      "kantoor": 6983,
      "zuchtte": 6984,
      "betreffende": 6985,
      "Archipel": 6986,
      "degensteek": 6987,
      "verheffen": 6988,
      "zachtheid": 6989,
      "vormt": 6990,
      "papeg": 6991,
      "verrast": 6992,
      "aanzienlijk": 6993,
      "stoomde": 6994,
      "beproefd": 6995,
      "rivieren": 6996,
      "tevredenheid": 6997,
      "leedwezen": 6998,
      "woont": 6999,
      "bandelier": 7000,
      "ergste": 7001,
      "netjes": 7002,
      "gevormde": 7003,
      "jour": 7004,
      "zwakheid": 7005,
      "kooplieden": 7006,
      "iëns_": 7007,
      "gloed": 7008,
      "tijger": 7009,
      "hinderpalen": 7010,
      "inktvisschen": 7011,
      "gebeden": 7012,
      "stortte": 7013,
      "ontzaglijke": 7014,
      "Christen": 7015,
      "keuze": 7016,
      "schuldige": 7017,
      "vermoeidheid": 7018,
      "studie": 7019,
      "wisselen": 7020,
      "Dadelijk": 7021,
      "Bernajou": 7022,
      "onstuimig": 7023,
      "opgewektheid": 7024,
      "bondgenoot": 7025,
      "verontschuldiging": 7026,
      "schaamte": 7027,
      "besteedde": 7028,
      "overwinning": 7029,
      "klasse": 7030,
      "bewustzijn": 7031,
      "Germain": 7032,
      "verblind": 7033,
      "druiven": 7034,
      "Allenham": 7035,
      "zoldering": 7036,
      "onbegrijpelijke": 7037,
      "TIGSTE": 7038,
      "uinea": 7039,
      "krankzinnig": 7040,
      "colle": 7041,
      "héél": 7042,
      "laarzen": 7043,
      "Verscheidene": 7044,
      "onbewoond": 7045,
      "Ceylon": 7046,
      "Douglas": 7047,
      "Lissabon": 7048,
      "_Amiëns_": 7049,
      "schreeuwen": 7050,
      "scherprechter": 7051,
      "Bernajoux": 7052,
      ").": 7053,
      "24": 7054,
      "Bis": 7055,
      "Bren": 7056,
      "Bas": 7057,
      "Buiten": 7058,
      "Mort": 7059,
      "Noor": 7060,
      "Pap": 7061,
      "Ral": 7062,
      "TW": 7063,
      "Tw": 7064,
      "The": 7065,
      "Zwit": 7066,
      "_F": 7067,
      "_Meun": 7068,
      "aï": 7069,
      "buit": 7070,
      "frisch": 7071,
      "gas": 7072,
      "ield": 7073,
      "kàn": 7074,
      "not": 7075,
      "ores": 7076,
      "pi": 7077,
      "pian": 7078,
      "pels": 7079,
      "rok": 7080,
      "sy": 7081,
      "ssen": 7082,
      "soep": 7083,
      "vinnen": 7084,
      "voeden": 7085,
      "zweren": 7086,
      "èn": 7087,
      "é_": 7088,
      "erden": 7089,
      "dezelve": 7090,
      "etter": 7091,
      "oopt": 7092,
      "aaide": 7093,
      "inboezemen": 7094,
      "gewacht": 7095,
      "geaard": 7096,
      "gemaakte": 7097,
      "gepaard": 7098,
      "gehangen": 7099,
      "gehoopt": 7100,
      "gespeeld": 7101,
      "onzekerheid": 7102,
      "onweerstaan": 7103,
      "ongevoelig": 7104,
      "stige": 7105,
      "stoppen": 7106,
      "veracht": 7107,
      "vervangen": 7108,
      "verzacht": 7109,
      "vergeleek": 7110,
      "verboden": 7111,
      "dire": 7112,
      "dikte": 7113,
      "oordeelde": 7114,
      "schuit": 7115,
      "bewer": 7116,
      "behel": 7117,
      "bescheiden": 7118,
      "bemerk": 7119,
      "begroet": 7120,
      "bewaken": 7121,
      "waande": 7122,
      "aanteekeningen": 7123,
      "oun": 7124,
      "lezer": 7125,
      "lezers": 7126,
      "weiden": 7127,
      "voorgenomen": 7128,
      "voorstelde": 7129,
      "voorstelling": 7130,
      "eerlijke": 7131,
      "armoede": 7132,
      "uithouden": 7133,
      "uitdruk": 7134,
      "uitgevoerd": 7135,
      "onderste": 7136,
      "welligt": 7137,
      "steekt": 7138,
      "waarnemen": 7139,
      "navraag": 7140,
      "zoog": 7141,
      "zooeven": 7142,
      "spons": 7143,
      "spunt": 7144,
      "overgaan": 7145,
      "overleg": 7146,
      "overhaast": 7147,
      "overvloed": 7148,
      "antie": 7149,
      "afgelegen": 7150,
      "blies": 7151,
      "ondt": 7152,
      "wateren": 7153,
      "sterling": 7154,
      "appen": 7155,
      "appel": 7156,
      "merkelijk": 7157,
      "geduldig": 7158,
      "allebei": 7159,
      "kunsten": 7160,
      "stelsel": 7161,
      "aamde": 7162,
      "bode": 7163,
      "levendige": 7164,
      "hiervoor": 7165,
      "betwist": 7166,
      "duiden": 7167,
      "hande": 7168,
      "perken": 7169,
      "belasten": 7170,
      "kapiteins": 7171,
      "vasteland": 7172,
      "bleu_": 7173,
      "voortd": 7174,
      "voortaan": 7175,
      "openlijk": 7176,
      "openbaren": 7177,
      "Altijd": 7178,
      "Aldus": 7179,
      "schijnbaar": 7180,
      "diner": 7181,
      "draf": 7182,
      "helsche": 7183,
      "gerechts": 7184,
      "beslissen": 7185,
      "verbrak": 7186,
      "vlagen": 7187,
      "zuin": 7188,
      "gewoonten": 7189,
      "aapte": 7190,
      "Negers": 7191,
      "gelukkigste": 7192,
      "vraagde": 7193,
      "steenkolen": 7194,
      "stapten": 7195,
      "verwijten": 7196,
      "verwijderden": 7197,
      "slagtig": 7198,
      "barometer": 7199,
      "Speed": 7200,
      "noodwendig": 7201,
      "smouth": 7202,
      "liefste": 7203,
      "verwondert": 7204,
      "hollen": 7205,
      "duidelijker": 7206,
      "zuchten": 7207,
      "tegenwoordigen": 7208,
      "bemind": 7209,
      "glimlachend": 7210,
      "werkelijkheid": 7211,
      "bekijken": 7212,
      "schrijvers": 7213,
      "dwingen": 7214,
      "bezittingen": 7215,
      "kleurige": 7216,
      "tegenovergestelde": 7217,
      "sneu": 7218,
      "Heere": 7219,
      "groeiden": 7220,
      "verontschuldigen": 7221,
      "Middletons": 7222,
      "vlugheid": 7223,
      "hutten": 7224,
      "levenswijze": 7225,
      "loods": 7226,
      "loodrechte": 7227,
      "vermoedens": 7228,
      "aandachtig": 7229,
      "moeilijkheden": 7230,
      "bespot": 7231,
      "thesis": 7232,
      "verbranden": 7233,
      "uisterd": 7234,
      "verschaft": 7235,
      "bakboord": 7236,
      "Norwood": 7237,
      "schroom": 7238,
      "hartelijkheid": 7239,
      "luiken": 7240,
      "bliksemstraal": 7241,
      "diefstal": 7242,
      "woestijn": 7243,
      "bewoner": 7244,
      "teederheid": 7245,
      "oneindige": 7246,
      "oefenen": 7247,
      "veroorloofde": 7248,
      "schapen": 7249,
      "voelarmen": 7250,
      "stoutmoedig": 7251,
      "Portsmouth": 7252,
      "aanschouwen": 7253,
      "lijst": 7254,
      "afschuwelijke": 7255,
      "Berkele": 7256,
      "moordenaar": 7257,
      "brandende": 7258,
      "centimeter": 7259,
      "vervelend": 7260,
      "dreigend": 7261,
      "kwaamt": 7262,
      "verwittigd": 7263,
      "China": 7264,
      "vermoeienis": 7265,
      "medenemen": 7266,
      "IJslander": 7267,
      "nagaan": 7268,
      "jaarlijks": 7269,
      "nutteloos": 7270,
      "afmetingen": 7271,
      "gewenscht": 7272,
      "sodium": 7273,
      "ingewanden": 7274,
      "figuur": 7275,
      "gepeins": 7276,
      "verbinding": 7277,
      "neêrslagtig": 7278,
      "beklimmen": 7279,
      "bederven": 7280,
      "provinc": 7281,
      "signale": 7282,
      "Puritein": 7283,
      "ères_": 7284,
      "Vaarwel": 7285,
      "doolhof": 7286,
      "inhechtenisneming": 7287,
      "eduizend": 7288,
      "modder": 7289,
      "Morton": 7290,
      "Ralph": 7291,
      "_Meung_": 7292,
      "Speedy": 7293,
      "Berkeley": 7294,
      "?’": 7295,
      "Azi": 7296,
      "Dik": 7297,
      "Dank": 7298,
      "Dav": 7299,
      "Finn": 7300,
      "Gu": 7301,
      "Houd": 7302,
      "Herin": 7303,
      "Later": 7304,
      "Ru": 7305,
      "Sal": 7306,
      "Sik": 7307,
      "Shang": 7308,
      "Siou": 7309,
      "_Portsmouth": 7310,
      "bis": 7311,
      "buk": 7312,
      "banden": 7313,
      "bour": 7314,
      "goo": 7315,
      "gten": 7316,
      "gissen": 7317,
      "hm": 7318,
      "hussac": 7319,
      "kiel": 7320,
      "loon": 7321,
      "melde": 7322,
      "ny": 7323,
      "netten": 7324,
      "pant": 7325,
      "pper": 7326,
      "ru": 7327,
      "ris": 7328,
      "tellen": 7329,
      "vouw": 7330,
      "wreef": 7331,
      "zwaard": 7332,
      "etsen": 7333,
      "aapt": 7334,
      "elaar": 7335,
      "innemen": 7336,
      "inwon": 7337,
      "cho": 7338,
      "teer": 7339,
      "tevergeefs": 7340,
      "geopende": 7341,
      "gewerkt": 7342,
      "gediend": 7343,
      "gepleegd": 7344,
      "gepakt": 7345,
      "ongewoon": 7346,
      "onschuldig": 7347,
      "onaangename": 7348,
      "denkend": 7349,
      "sturen": 7350,
      "vertoe": 7351,
      "verstan": 7352,
      "verdeelen": 7353,
      "verwensch": 7354,
      "heg": 7355,
      "hetzelve": 7356,
      "aldaar": 7357,
      "derwijze": 7358,
      "oezie": 7359,
      "schol": 7360,
      "schijf": 7361,
      "beveel": 7362,
      "beveil": 7363,
      "bekwaam": 7364,
      "zegepr": 7365,
      "opeten": 7366,
      "opoffer": 7367,
      "aanhooren": 7368,
      "aantrek": 7369,
      "aanleggen": 7370,
      "aangetrokken": 7371,
      "uisch": 7372,
      "leeuw": 7373,
      "weging": 7374,
      "ingele": 7375,
      "habad": 7376,
      "voorheen": 7377,
      "voorrecht": 7378,
      "idores": 7379,
      "toere": 7380,
      "uitging": 7381,
      "uitkwam": 7382,
      "uitval": 7383,
      "ondervond": 7384,
      "welspreken": 7385,
      "welwillen": 7386,
      "waardigheid": 7387,
      "vroegen": 7388,
      "spijs": 7389,
      "spion": 7390,
      "neger": 7391,
      "nederd": 7392,
      "overwegingen": 7393,
      "overweging": 7394,
      "bijstand": 7395,
      "meubel": 7396,
      ".\"—\"": 7397,
      "afwachten": 7398,
      "afhalen": 7399,
      "afgronden": 7400,
      "afkomstig": 7401,
      "drang": 7402,
      "volmacht": 7403,
      "ullen": 7404,
      "eff": 7405,
      "sterkte": 7406,
      "onthouden": 7407,
      "ontpl": 7408,
      "geroep": 7409,
      "kei": 7410,
      "meridi": 7411,
      "lahabad": 7412,
      "scheede": 7413,
      "majoor": 7414,
      "toevertrouwen": 7415,
      "toestemmen": 7416,
      "beroo": 7417,
      "beraden": 7418,
      "ookt": 7419,
      "kundig": 7420,
      "dadig": 7421,
      "element": 7422,
      "wordende": 7423,
      "begaafd": 7424,
      "klemd": 7425,
      "riem": 7426,
      "bod": 7427,
      "bok": 7428,
      "goedkeuring": 7429,
      "halt": 7430,
      "geboom": 7431,
      "verleenen": 7432,
      "verleende": 7433,
      "beloven": 7434,
      "staanbare": 7435,
      "plaatse": 7436,
      "rift": 7437,
      "beschreef": 7438,
      "driemaal": 7439,
      "vak": 7440,
      "houdend": 7441,
      "aardschors": 7442,
      "voortgezet": 7443,
      "binnenplaats": 7444,
      "Allahabad": 7445,
      "warme": 7446,
      "bovenste": 7447,
      "hartig": 7448,
      "kleinste": 7449,
      "rijken": 7450,
      "kamerdienaar": 7451,
      "helm": 7452,
      "helaas": 7453,
      "gereden": 7454,
      "vaarder": 7455,
      "vaarders": 7456,
      "treff": 7457,
      "vrijen": 7458,
      "luim": 7459,
      "eltjes": 7460,
      "offe": 7461,
      "ziehier": 7462,
      "Waarschijnlijk": 7463,
      "denkwijze": 7464,
      "juistheid": 7465,
      "jaargetij": 7466,
      "voerden": 7467,
      "gespreid": 7468,
      "plein": 7469,
      "Onmiddellijk": 7470,
      "bragten": 7471,
      "bijzonderheid": 7472,
      "haasten": 7473,
      "gelaatstrekken": 7474,
      "Stel": 7475,
      "matroos": 7476,
      "beschouwing": 7477,
      "teekening": 7478,
      "vlek": 7479,
      "gevolgtrekking": 7480,
      "handelde": 7481,
      "bestier": 7482,
      "bestuur": 7483,
      "verliepen": 7484,
      "talrijk": 7485,
      "ogenblik": 7486,
      "veeren": 7487,
      "veroorloven": 7488,
      "noem": 7489,
      "Anda": 7490,
      "fris": 7491,
      "angstige": 7492,
      "scheidden": 7493,
      "rooden": 7494,
      "bedraagt": 7495,
      "nauwgezet": 7496,
      "boschje": 7497,
      "gedruisch": 7498,
      "XXXV": 7499,
      "oostelijk": 7500,
      "pols": 7501,
      "vermelden": 7502,
      "stoombooten": 7503,
      "heete": 7504,
      "toover": 7505,
      "ongelukken": 7506,
      "schudden": 7507,
      "Row": 7508,
      "netje": 7509,
      "Geloof": 7510,
      "bespieden": 7511,
      "ernstigen": 7512,
      "lijfwacht": 7513,
      "uitvoering": 7514,
      "kruipende": 7515,
      "zeldzame": 7516,
      "voordeelig": 7517,
      "rampen": 7518,
      "wetenschappelijke": 7519,
      "vereischte": 7520,
      "Duizend": 7521,
      "inktvisch": 7522,
      "vochtig": 7523,
      "feitelijk": 7524,
      "zuidoosten": 7525,
      "beleediging": 7526,
      "noordwaarts": 7527,
      "klopt": 7528,
      "stootte": 7529,
      "bedrieg": 7530,
      "bedriegen": 7531,
      "mogten": 7532,
      "vermeerderde": 7533,
      "wandelden": 7534,
      "strenge": 7535,
      "studiën": 7536,
      "behendigheid": 7537,
      "koetsier": 7538,
      "strooid": 7539,
      "rampzaligen": 7540,
      "medegesleept": 7541,
      "vulkanen": 7542,
      "Cahussac": 7543,
      "vervaardigd": 7544,
      "moordenaars": 7545,
      "zweep": 7546,
      "Junij": 7547,
      "openhartigheid": 7548,
      "Afrikaansche": 7549,
      "atmosferen": 7550,
      "regi": 7551,
      "billijk": 7552,
      "opzettelijk": 7553,
      "vermengd": 7554,
      "hoedanigheid": 7555,
      "beweerde": 7556,
      "spijzen": 7557,
      "verkiest": 7558,
      "eerbiedig": 7559,
      "vernietigen": 7560,
      "gewaarwording": 7561,
      "bevorderen": 7562,
      "blanke": 7563,
      "jaloezie": 7564,
      "gescheurd": 7565,
      "verpligt": 7566,
      "toenemende": 7567,
      "weerszijden": 7568,
      "nauwkeurigheid": 7569,
      "tapijt": 7570,
      "zegevier": 7571,
      "kousen": 7572,
      "vallei": 7573,
      "huishoudster": 7574,
      "voortbrengselen": 7575,
      "journaal": 7576,
      "piano": 7577,
      "Dikwijls": 7578,
      "Herinner": 7579,
      "Sikh": 7580,
      "Sioux": 7581,
      "_Portsmouth_": 7582,
      "inwoners": 7583,
      "-,": 7584,
      ".)": 7585,
      "27": 7586,
      "Cot": 7587,
      "Dàt": 7588,
      "Egy": 7589,
      "Forre": 7590,
      "Groo": 7591,
      "Guinea": 7592,
      "IN": 7593,
      "Maan": 7594,
      "Plat": 7595,
      "Tor": 7596,
      "Zuiden": 7597,
      "_Saint": 7598,
      "aut": 7599,
      "bbel": 7600,
      "buff": 7601,
      "dug": 7602,
      "ducht": 7603,
      "doffe": 7604,
      "eisch": 7605,
      "eieren": 7606,
      "fluisteren": 7607,
      "honden": 7608,
      "lijd": 7609,
      "mie": 7610,
      "melden": 7611,
      "nij": 7612,
      "ore": 7613,
      "pierre": 7614,
      "sman": 7615,
      "sschool": 7616,
      "telijke": 7617,
      "ues": 7618,
      "vui": 7619,
      "waa": 7620,
      "waad": 7621,
      "òn": 7622,
      "„‚": 7623,
      "ene": 7624,
      "erwijl": 7625,
      "ana": 7626,
      "dekens": 7627,
      "deinsde": 7628,
      "inhalen": 7629,
      "gewij": 7630,
      "onzekere": 7631,
      "onafgebroken": 7632,
      "stoe": 7633,
      "standers": 7634,
      "verter": 7635,
      "vermo": 7636,
      "verdienen": 7637,
      "verstrekken": 7638,
      "verrichten": 7639,
      "dië": 7640,
      "heft": 7641,
      "hekel": 7642,
      "hevigen": 7643,
      "alk": 7644,
      "allicht": 7645,
      "vandaan": 7646,
      "oeid": 7647,
      "schheid": 7648,
      "schans": 7649,
      "schuin": 7650,
      "schoof": 7651,
      "bestand": 7652,
      "bezet": 7653,
      "bespr": 7654,
      "beangst": 7655,
      "bestemming": 7656,
      "bedienen": 7657,
      "beoordeelen": 7658,
      "zeden": 7659,
      "opzich": 7660,
      "opstand": 7661,
      "opmaken": 7662,
      "oplos": 7663,
      "oproer": 7664,
      "omging": 7665,
      "omvang": 7666,
      "omgekeerd": 7667,
      "aanstelling": 7668,
      "outen": 7669,
      "ouwel": 7670,
      "ouderd": 7671,
      "ietwat": 7672,
      "leeft": 7673,
      "zige": 7674,
      "wasschen": 7675,
      "voorkwam": 7676,
      "meten": 7677,
      "meters": 7678,
      "gelief": 7679,
      "uitkomst": 7680,
      "uitspanning": 7681,
      "uitsluiten": 7682,
      "uitdrukken": 7683,
      "well": 7684,
      "stekende": 7685,
      "waarnaar": 7686,
      "waartegen": 7687,
      "alsdan": 7688,
      "hemd": 7689,
      "spijk": 7690,
      "doorgaan": 7691,
      "doorzicht": 7692,
      "overstel": 7693,
      "overbo": 7694,
      "overhand": 7695,
      "overlaten": 7696,
      "overpein": 7697,
      "afel": 7698,
      "afdruk": 7699,
      "drucht": 7700,
      "slaaf": 7701,
      "digter": 7702,
      "dienaars": 7703,
      "efden": 7704,
      "moidores": 7705,
      "komsten": 7706,
      "koninkrijk": 7707,
      "ienden": 7708,
      "ontwaken": 7709,
      "gerd": 7710,
      "itel": 7711,
      "zeidet": 7712,
      "gevingen": 7713,
      "lah": 7714,
      "onsieur": 7715,
      "Hetgeen": 7716,
      "ots": 7717,
      "herken": 7718,
      "hervatten": 7719,
      "zonderd": 7720,
      "voelt": 7721,
      "ada": 7722,
      "houweel": 7723,
      "tegenpartij": 7724,
      "gelijkertijd": 7725,
      "stellige": 7726,
      "hoorders": 7727,
      "gewr": 7728,
      "gewikkeld": 7729,
      "zeeplanten": 7730,
      "krist": 7731,
      "kronk": 7732,
      "boet": 7733,
      "gebord": 7734,
      "gebakken": 7735,
      "prop": 7736,
      "weerwil": 7737,
      "duid": 7738,
      "beloond": 7739,
      "staanbaar": 7740,
      "wederzijd": 7741,
      "sex": 7742,
      "beschaafde": 7743,
      "vac": 7744,
      "ffier": 7745,
      "deels": 7746,
      "deelingen": 7747,
      "openden": 7748,
      "zichtbare": 7749,
      "getoond": 7750,
      "loozen": 7751,
      "wildet": 7752,
      "raadplegen": 7753,
      "rijp": 7754,
      "eigenschappen": 7755,
      "drag": 7756,
      "draden": 7757,
      "vellen": 7758,
      "vaarwater": 7759,
      "eenigzins": 7760,
      "hoogsten": 7761,
      "ochten": 7762,
      "buitendien": 7763,
      "luidrucht": 7764,
      "wereldsche": 7765,
      "roept": 7766,
      "gezorg": 7767,
      "sompierre": 7768,
      "strekten": 7769,
      "stellende": 7770,
      "stukjes": 7771,
      "Verder": 7772,
      "vastge": 7773,
      "ellendeling": 7774,
      "lagchen": 7775,
      "matigen": 7776,
      "ica": 7777,
      "handeling": 7778,
      "schert": 7779,
      "gedeelten": 7780,
      "verleiden": 7781,
      "korst": 7782,
      "umont": 7783,
      "Hierop": 7784,
      "Brit": 7785,
      "zwavel": 7786,
      "veroorzaken": 7787,
      "hinderen": 7788,
      "betreuren": 7789,
      "naaste": 7790,
      "ganzen": 7791,
      "tage": 7792,
      "tasten": 7793,
      "doof": 7794,
      "zorgde": 7795,
      "vertoond": 7796,
      "slaapkamer": 7797,
      "roovers": 7798,
      "schitterden": 7799,
      "regelmatige": 7800,
      "plotsel": 7801,
      "geweerschoten": 7802,
      "vlakten": 7803,
      "oostwaarts": 7804,
      "vermeld": 7805,
      "burgers": 7806,
      "ragut": 7807,
      "voorziene": 7808,
      "groeide": 7809,
      "fluwe": 7810,
      "afgemat": 7811,
      "Saville": 7812,
      "vernielen": 7813,
      "vergezelde": 7814,
      "rechters": 7815,
      "Harley": 7816,
      "warmtegraad": 7817,
      "overeengekomen": 7818,
      "behoefden": 7819,
      "toppunt": 7820,
      "toekomstige": 7821,
      "bedoelingen": 7822,
      "gegrepen": 7823,
      "jagt": 7824,
      "zwommen": 7825,
      "betrekkelijk": 7826,
      "balken": 7827,
      "leunde": 7828,
      "omringde": 7829,
      "hangsel": 7830,
      "dagelijksche": 7831,
      "verdwijning": 7832,
      "herhaaldelijk": 7833,
      "vergiftig": 7834,
      "bronnen": 7835,
      "oefening": 7836,
      "kwelling": 7837,
      "rechtvaardig": 7838,
      "godsdienstige": 7839,
      "behulpzaam": 7840,
      "rampzalig": 7841,
      "rampzalige": 7842,
      "beteekenis": 7843,
      "dappere": 7844,
      "sigaar": 7845,
      "schuim": 7846,
      "verdieping": 7847,
      "bekommeren": 7848,
      "grijsaard": 7849,
      "onderscheidde": 7850,
      "Evenwel": 7851,
      "openhartig": 7852,
      "Langzamerhand": 7853,
      "predikantsplaats": 7854,
      "Iedereen": 7855,
      "klassen": 7856,
      "verwittigen": 7857,
      "carat": 7858,
      "onverklaarbare": 7859,
      "gewaarwordingen": 7860,
      "grillig": 7861,
      "slingerde": 7862,
      "waarschuwing": 7863,
      "Gouvernement": 7864,
      "tweeduizend": 7865,
      "lessenaar": 7866,
      "begeerde": 7867,
      "bestudeeren": 7868,
      "vonnis": 7869,
      "dwaling": 7870,
      "gemiddelde": 7871,
      "drijft": 7872,
      "basalt": 7873,
      "koninklijke": 7874,
      "probeeren": 7875,
      "hèm": 7876,
      "gelijkende": 7877,
      "scaphanders": 7878,
      "Combe": 7879,
      "collega": 7880,
      "Biscarat": 7881,
      "Bassompierre": 7882,
      "Zwitser": 7883,
      "voortdurende": 7884,
      "signalement": 7885,
      "Shangaï": 7886,
      "regiment": 7887,
      "Cottage": 7888,
      "Forrester": 7889,
      "Groote": 7890,
      "dugong": 7891,
      "vermogens": 7892,
      "opzichte": 7893,
      "overbodig": 7894,
      "gezorgd": 7895,
      "\".": 7896,
      "Acht": 7897,
      "Amy": 7898,
      "Cre": 7899,
      "Donder": 7900,
      "EE": 7901,
      "Gister": 7902,
      "Hum": 7903,
      "Island": 7904,
      "Moe": 7905,
      "Nochtans": 7906,
      "Oom": 7907,
      "Oogenblik": 7908,
      "Sam": 7909,
      "Toe": 7910,
      "Tra": 7911,
      "Va": 7912,
      "Woensdag": 7913,
      "_P": 7914,
      "_mijn": 7915,
      "bree": 7916,
      "boren": 7917,
      "baas": 7918,
      "cou": 7919,
      "europ": 7920,
      "gden": 7921,
      "houwen": 7922,
      "ira": 7923,
      "japan": 7924,
      "kolon": 7925,
      "kooi": 7926,
      "laadde": 7927,
      "male": 7928,
      "nul": 7929,
      "naakt": 7930,
      "oy": 7931,
      "pos": 7932,
      "preek": 7933,
      "pogen": 7934,
      "rus": 7935,
      "rit": 7936,
      "ruw": 7937,
      "rist": 7938,
      "raakt": 7939,
      "sat": 7940,
      "sou": 7941,
      "saf": 7942,
      "smid": 7943,
      "sby": 7944,
      "tall": 7945,
      "tonen": 7946,
      "àl": 7947,
      "erkende": 7948,
      "degelijk": 7949,
      "deftig": 7950,
      "ooid": 7951,
      "aast": 7952,
      "elbare": 7953,
      "inder": 7954,
      "inzien": 7955,
      "instin": 7956,
      "gestel": 7957,
      "gepast": 7958,
      "gesneden": 7959,
      "onweten": 7960,
      "onlangs": 7961,
      "onkosten": 7962,
      "stoet": 7963,
      "eenton": 7964,
      "verbe": 7965,
      "vermaar": 7966,
      "vermaken": 7967,
      "verviel": 7968,
      "verachting": 7969,
      "heeten": 7970,
      "hevigheid": 7971,
      "aliteit": 7972,
      "derwaarts": 7973,
      "schelen": 7974,
      "schokken": 7975,
      "schade": 7976,
      "schikking": 7977,
      "opget": 7978,
      "opleveren": 7979,
      "aanv": 7980,
      "aanvang": 7981,
      "aangewend": 7982,
      "aantrekking": 7983,
      "uizen": 7984,
      "legt": 7985,
      "hakken": 7986,
      "zigen": 7987,
      "gelen": 7988,
      "rap": 7989,
      "arre": 7990,
      "uitingen": 7991,
      "uitstap": 7992,
      "onderdrukken": 7993,
      "spaar": 7994,
      "spek": 7995,
      "spade": 7996,
      "doorgronden": 7997,
      "werwaarts": 7998,
      "danige": 7999,
      "meid": 8000,
      "gret": 8001,
      "afleiding": 8002,
      "drijk": 8003,
      "bloo": 8004,
      "blind": 8005,
      "volmaakte": 8006,
      "volslagen": 8007,
      "ternauwernood": 8008,
      "pendu": 8009,
      "slij": 8010,
      "mode": 8011,
      "kome": 8012,
      "sterf": 8013,
      "ontelbare": 8014,
      "geru": 8015,
      "moedigd": 8016,
      "kerels": 8017,
      "geveld": 8018,
      "uurs": 8019,
      "maker": 8020,
      "bril": 8021,
      "brande": 8022,
      "oss": 8023,
      "hoopen": 8024,
      "toekomstig": 8025,
      "toevertrouwd": 8026,
      "manden": 8027,
      "bergt": 8028,
      "zalig": 8029,
      "meerd": 8030,
      "gedaald": 8031,
      "tegenspraak": 8032,
      "ochte": 8033,
      "gewende": 8034,
      "gewiss": 8035,
      "krom": 8036,
      "kringen": 8037,
      "kropen": 8038,
      "geborgen": 8039,
      "kappen": 8040,
      "gelei": 8041,
      "duiven": 8042,
      "beladen": 8043,
      "vertel": 8044,
      "vertra": 8045,
      "hib": 8046,
      "nieuwer": 8047,
      "vreest": 8048,
      "medegenomen": 8049,
      "lichtte": 8050,
      "aardbeving": 8051,
      "binnenkomen": 8052,
      "openende": 8053,
      "openbare": 8054,
      "Aller": 8055,
      "koken": 8056,
      "bevalt": 8057,
      "stigheid": 8058,
      "snik": 8059,
      "hoofdhaar": 8060,
      "achtersteven": 8061,
      "Mejuffrouw": 8062,
      "geschapen": 8063,
      "bovenal": 8064,
      "drukten": 8065,
      "raadde": 8066,
      "rijtuigen": 8067,
      "vreess": 8068,
      "help": 8069,
      "keloos": 8070,
      "vaartuigen": 8071,
      "amp": 8072,
      "natiën": 8073,
      "trede": 8074,
      "luidde": 8075,
      "paarlen": 8076,
      "verbinden": 8077,
      "vlakken": 8078,
      "avondmaal": 8079,
      "grijzen": 8080,
      "staatkunde": 8081,
      "voetstap": 8082,
      "gezang": 8083,
      "vergissen": 8084,
      "dierbaar": 8085,
      "stance": 8086,
      "onbew": 8087,
      "gravin": 8088,
      "richtingen": 8089,
      "vastgemaakt": 8090,
      "kalf": 8091,
      "menscheneters": 8092,
      "knoten": 8093,
      "knikker": 8094,
      "Stap": 8095,
      "person": 8096,
      "verwijder": 8097,
      "slagveld": 8098,
      "Bear": 8099,
      "Begrij": 8100,
      "louis": 8101,
      "logeer": 8102,
      "woedende": 8103,
      "stroomt": 8104,
      "geheimhouding": 8105,
      "gold": 8106,
      "Mah": 8107,
      "geslaagd": 8108,
      "liefhad": 8109,
      "liefdes": 8110,
      "korff": 8111,
      "trachtten": 8112,
      "zuidelijk": 8113,
      "twijfelachtig": 8114,
      "issingen": 8115,
      "behoord": 8116,
      "verkreeg": 8117,
      "Ant": 8118,
      "result": 8119,
      "doodelijke": 8120,
      "gekoester": 8121,
      "bedrog": 8122,
      "proce": 8123,
      "blazen": 8124,
      "Indischen": 8125,
      "huivering": 8126,
      "vloeken": 8127,
      "menigmaal": 8128,
      "verstom": 8129,
      "winst": 8130,
      "schrikte": 8131,
      "stervende": 8132,
      "stuurboord": 8133,
      "pijpen": 8134,
      "eetzaal": 8135,
      "pijnlijke": 8136,
      "banknoten": 8137,
      "halsstar": 8138,
      "grensde": 8139,
      "schudding": 8140,
      "stampte": 8141,
      "verlichtte": 8142,
      "aangeboden": 8143,
      "draaiende": 8144,
      "zandbank": 8145,
      "kathol": 8146,
      "zweefde": 8147,
      "bevroren": 8148,
      "reusachtigen": 8149,
      "dunne": 8150,
      "verplichting": 8151,
      "begeert": 8152,
      "overeenkomst": 8153,
      "etshire": 8154,
      "boezemde": 8155,
      "ikkelen": 8156,
      "verschafte": 8157,
      "belangen": 8158,
      "kaartjes": 8159,
      "Hemels": 8160,
      "romant": 8161,
      "kruipen": 8162,
      "fraaien": 8163,
      "springende": 8164,
      "soortig": 8165,
      "leerlingen": 8166,
      "zuidwaarts": 8167,
      "beschuldigd": 8168,
      "beschuldigt": 8169,
      "munt": 8170,
      "gelijkenis": 8171,
      "fransche": 8172,
      "verminderd": 8173,
      "roeping": 8174,
      "Exeter": 8175,
      "Weder": 8176,
      "bedreiging": 8177,
      "vermeerderen": 8178,
      "stipt": 8179,
      "teedere": 8180,
      "wandelingen": 8181,
      "noordelijk": 8182,
      "bewonderenswaardige": 8183,
      "stoutmoedige": 8184,
      "gehuwd": 8185,
      "gehechtheid": 8186,
      "onuitput": 8187,
      "onuitsprek": 8188,
      "opletten": 8189,
      "zweem": 8190,
      "metgezellen": 8191,
      "ontvoering": 8192,
      "hersens": 8193,
      "ontroerde": 8194,
      "verbetering": 8195,
      "bezoekers": 8196,
      "wisselden": 8197,
      "onverklaarbaar": 8198,
      "gesmoorde": 8199,
      "Bunsby": 8200,
      "erkentelijkheid": 8201,
      "traliën": 8202,
      "gordijn": 8203,
      "pagode": 8204,
      "droomer": 8205,
      "verbleekte": 8206,
      "spleet": 8207,
      "_Monsieur": 8208,
      "verbijsterd": 8209,
      "griffier": 8210,
      "bedelaar": 8211,
      "afwachting": 8212,
      "Doodgravers": 8213,
      "Farragut": 8214,
      "Williams": 8215,
      "Constance": 8216,
      "Germain_": 8217,
      "geaardheid": 8218,
      "opoffering": 8219,
      "ontploff": 8220,
      "oplossing": 8221,
      "ouderdom": 8222,
      "geliefkoos": 8223,
      "Oogenblikkelijk": 8224,
      "instinct": 8225,
      "pendule": 8226,
      "brandewijn": 8227,
      "gewisseld": 8228,
      "_Monsieur_": 8229,
      "Doodgraversstraat": 8230,
      "!’": 8231,
      ",'": 8232,
      "Bel": 8233,
      "Bijn": 8234,
      "Cl": 8235,
      "Can": 8236,
      "Dins": 8237,
      "Gan": 8238,
      "Gode": 8239,
      "IX": 8240,
      "Ka": 8241,
      "Kar": 8242,
      "Kopen": 8243,
      "Komt": 8244,
      "Karm": 8245,
      "Pen": 8246,
      "Per": 8247,
      "Pérou": 8248,
      "Qu": 8249,
      "Ster": 8250,
      "VI": 8251,
      "Zwij": 8252,
      "_ik": 8253,
      "_mij": 8254,
      "ay": 8255,
      "bals": 8256,
      "bier": 8257,
      "bben": 8258,
      "buren": 8259,
      "ds": 8260,
      "dij": 8261,
      "dste": 8262,
      "eischte": 8263,
      "fok": 8264,
      "gte": 8265,
      "geten": 8266,
      "ginds": 8267,
      "holen": 8268,
      "io": 8269,
      "ières_": 8270,
      "jouw": 8271,
      "joerd": 8272,
      "koo": 8273,
      "kaak": 8274,
      "kondt": 8275,
      "lor": 8276,
      "lomp": 8277,
      "longen": 8278,
      "monden": 8279,
      "nommer": 8280,
      "pil": 8281,
      "pelen": 8282,
      "ploo": 8283,
      "ronden": 8284,
      "ruiten": 8285,
      "raakten": 8286,
      "smaken": 8287,
      "tar": 8288,
      "timmer": 8289,
      "tint": 8290,
      "uwel": 8291,
      "uter": 8292,
      "uth": 8293,
      "vracht": 8294,
      "wielen": 8295,
      "xem": 8296,
      "zik": 8297,
      "zonden": 8298,
      "zwerven": 8299,
      "én": 8300,
      "eral": 8301,
      "ertoe": 8302,
      "ijzen": 8303,
      "deug": 8304,
      "degene": 8305,
      "aauw": 8306,
      "elieten": 8307,
      "elings": 8308,
      "inham": 8309,
      "geoor": 8310,
      "gepraat": 8311,
      "gewesten": 8312,
      "gewijd": 8313,
      "gezadel": 8314,
      "onover": 8315,
      "onnen": 8316,
      "onrecht": 8317,
      "onvoorzichtig": 8318,
      "ongesteldheid": 8319,
      "stant": 8320,
      "staren": 8321,
      "stoff": 8322,
      "verman": 8323,
      "verzoe": 8324,
      "vervallen": 8325,
      "verzette": 8326,
      "versterken": 8327,
      "diet": 8328,
      "hef": 8329,
      "oea": 8330,
      "schikte": 8331,
      "schoonen": 8332,
      "bewerken": 8333,
      "bedienden": 8334,
      "wagens": 8335,
      "rezen": 8336,
      "opwel": 8337,
      "opnam": 8338,
      "ophield": 8339,
      "opium": 8340,
      "opgeruimd": 8341,
      "omhul": 8342,
      "aanbreken": 8343,
      "aangeboren": 8344,
      "aanbod": 8345,
      "oulog": 8346,
      "lek": 8347,
      "leelijke": 8348,
      "lement": 8349,
      "weelde": 8350,
      "isme": 8351,
      "voorover": 8352,
      "voordoen": 8353,
      "voordeur": 8354,
      "voordeelen": 8355,
      "igo": 8356,
      "ilanden": 8357,
      "rail": 8358,
      "wijzende": 8359,
      "menige": 8360,
      "mengd": 8361,
      "eerlooze": 8362,
      "ago": 8363,
      "arney": 8364,
      "uitriep": 8365,
      "uitnemen": 8366,
      "uitgerust": 8367,
      "uitgegaan": 8368,
      "stevige": 8369,
      "vrool": 8370,
      "unde": 8371,
      "zooverre": 8372,
      "hemden": 8373,
      "overwel": 8374,
      "overmorgen": 8375,
      "overzijde": 8376,
      "overschot": 8377,
      "overgehaald": 8378,
      "bijzijn": 8379,
      "afloop": 8380,
      "affen": 8381,
      "afwijk": 8382,
      "afkeuring": 8383,
      "dru": 8384,
      "volken": 8385,
      "volks": 8386,
      "benie": 8387,
      "ull": 8388,
      "slopen": 8389,
      "model": 8390,
      "sters": 8391,
      "daarmee": 8392,
      "daaromtrent": 8393,
      "ontvangt": 8394,
      "keus": 8395,
      "ita": 8396,
      "merkende": 8397,
      "uwende": 8398,
      "gevoed": 8399,
      "uurtje": 8400,
      "scheur": 8401,
      "worp": 8402,
      "wort": 8403,
      "worsteling": 8404,
      "herhalen": 8405,
      "trilde": 8406,
      "zonderlingen": 8407,
      "allemaal": 8408,
      "zelfbeheersch": 8409,
      "tegenspoed": 8410,
      "stellingen": 8411,
      "dam": 8412,
      "tweeën": 8413,
      "alléen": 8414,
      "langwerp": 8415,
      "langdur": 8416,
      "begun": 8417,
      "struik": 8418,
      "veeleer": 8419,
      "bocht": 8420,
      "oogenblikje": 8421,
      "eindigt": 8422,
      "betaal": 8423,
      "betoon": 8424,
      "beters": 8425,
      "aagden": 8426,
      "klomp": 8427,
      "klerken": 8428,
      "teruggeven": 8429,
      "teruggegeven": 8430,
      "geleund": 8431,
      "artik": 8432,
      "rekenschap": 8433,
      "wedervaren": 8434,
      "rif": 8435,
      "lichtende": 8436,
      "baden": 8437,
      "gestort": 8438,
      "koste": 8439,
      "snikken": 8440,
      "Meester": 8441,
      "geschil": 8442,
      "geschoven": 8443,
      "geschiedde": 8444,
      "raadpleeg": 8445,
      "idee": 8446,
      "uikt": 8447,
      "helderen": 8448,
      "helpt": 8449,
      "gave": 8450,
      "beslagen": 8451,
      "natie": 8452,
      "nature": 8453,
      "verbitter": 8454,
      "bootje": 8455,
      "offeren": 8456,
      "slaven": 8457,
      "roede": 8458,
      "uffer": 8459,
      "Waarheen": 8460,
      "denkbeel": 8461,
      "mpels": 8462,
      "diertjes": 8463,
      "rozijnen": 8464,
      "grap": 8465,
      "vasthield": 8466,
      "vastberaden": 8467,
      "achtenswaardige": 8468,
      "bewusteloos": 8469,
      "opgegeten": 8470,
      "knip": 8471,
      "Behalve": 8472,
      "barm": 8473,
      "Hucks": 8474,
      "dankbare": 8475,
      "Dashwoods": 8476,
      "vlekken": 8477,
      "vleiend": 8478,
      "besteden": 8479,
      "Tegelijkertijd": 8480,
      "nederig": 8481,
      "liefhebben": 8482,
      "wenscht": 8483,
      "vluchtig": 8484,
      "naderbij": 8485,
      "kilogram": 8486,
      "kilometers": 8487,
      "tochten": 8488,
      "bevelschrift": 8489,
      "bevelhebber": 8490,
      "verschrikkelijken": 8491,
      "que": 8492,
      "gunste": 8493,
      "verdrijven": 8494,
      "gedachtenis": 8495,
      "degenen": 8496,
      "mentières_": 8497,
      "monn": 8498,
      "dwaal": 8499,
      "rukte": 8500,
      "bewonderd": 8501,
      "sterkste": 8502,
      "Heeren": 8503,
      "boomstam": 8504,
      "schreide": 8505,
      "premie": 8506,
      "vervulling": 8507,
      "Baker": 8508,
      "spande": 8509,
      "dringende": 8510,
      "Gewoon": 8511,
      "leidt": 8512,
      "groeien": 8513,
      "vreemdsoortig": 8514,
      "gemist": 8515,
      "stijl": 8516,
      "Sahib": 8517,
      "kwetsen": 8518,
      "verrukkelijk": 8519,
      "maatregel": 8520,
      "bekenden": 8521,
      "behandeling": 8522,
      "Schep": 8523,
      "lijfwachten": 8524,
      "praatjes": 8525,
      "vesting": 8526,
      "beschermen": 8527,
      "geër": 8528,
      "letterlijk": 8529,
      "hinderlaag": 8530,
      "serge": 8531,
      "schrander": 8532,
      "ontwikkel": 8533,
      "smeek": 8534,
      "ontsnapte": 8535,
      "moeielijkheden": 8536,
      "bijkomen": 8537,
      "Elke": 8538,
      "gastvrijheid": 8539,
      "vochtige": 8540,
      "stilzwijgendheid": 8541,
      "Somtijds": 8542,
      "wijsheid": 8543,
      "ppe": 8544,
      "verzwol": 8545,
      "verslond": 8546,
      "verslinden": 8547,
      "aanhoudende": 8548,
      "verdiend": 8549,
      "verdient": 8550,
      "verdienste": 8551,
      "bizonder": 8552,
      "_Boulog": 8553,
      "westelijke": 8554,
      "portaal": 8555,
      "bevestigde": 8556,
      "palm": 8557,
      "spottend": 8558,
      "bedwang": 8559,
      "gehuil": 8560,
      "verspreidde": 8561,
      "bevolking": 8562,
      "caval": 8563,
      "somberen": 8564,
      "overwogen": 8565,
      "hersenen": 8566,
      "radijs": 8567,
      "ENDE": 8568,
      "meerdere": 8569,
      "scheepsvolk": 8570,
      "verhinderd": 8571,
      "uitgestrektheid": 8572,
      "11den": 8573,
      "spookhuis": 8574,
      "veronderstellingen": 8575,
      "zolder": 8576,
      "vernietigd": 8577,
      "knoopen": 8578,
      "versteend": 8579,
      "IJslanders": 8580,
      "kokos": 8581,
      "omhelsde": 8582,
      "muizen": 8583,
      "onverwachts": 8584,
      "Luxem": 8585,
      "lafaard": 8586,
      "verschansing": 8587,
      "vervolging": 8588,
      "knielde": 8589,
      "vleugels": 8590,
      "juweelen": 8591,
      "belegerden": 8592,
      "buigende": 8593,
      "zwierven": 8594,
      "schandelijke": 8595,
      "afzonderlijk": 8596,
      "Compagnie": 8597,
      "spleten": 8598,
      "kreupelhout": 8599,
      "Kearney": 8600,
      "_Armentières_": 8601,
      "stopte": 8602,
      "Scotia": 8603,
      "eenigermate": 8604,
      "Papoea": 8605,
      "schroomvallig": 8606,
      "Azië": 8607,
      "Ruhm": 8608,
      "aantrekkelijk": 8609,
      "uitsluitend": 8610,
      "vacantie": 8611,
      "Crespo": 8612,
      "Donderdag": 8613,
      "_mijn_": 8614,
      "europeesche": 8615,
      "drijks": 8616,
      "bloote": 8617,
      "Bearne": 8618,
      "gekoesterd": 8619,
      "Bijna": 8620,
      "Dinsdag": 8621,
      "Kopenhagen": 8622,
      "Karmelieten": 8623,
      "Pérouse": 8624,
      "_ik_": 8625,
      "_mij_": 8626,
      "vroolijken": 8627,
      "zelfbeheersching": 8628,
      "_Boulogne_": 8629,
      "Luxembour": 8630,
      "Ruhmkorff": 8631,
      ".'": 8632,
      "200": 8633,
      "500": 8634,
      "?....": 8635,
      "Dumont": 8636,
      "Gi": 8637,
      "Hud": 8638,
      "Ier": 8639,
      "Ital": 8640,
      "Iets": 8641,
      "Ju": 8642,
      "Jij": 8643,
      "Jeff": 8644,
      "Moet": 8645,
      "Mich": 8646,
      "Or": 8647,
      "Vl": 8648,
      "Vigo": 8649,
      "Wal": 8650,
      "Zet": 8651,
      "abe": 8652,
      "azijn": 8653,
      "bat": 8654,
      "bber": 8655,
      "baten": 8656,
      "binden": 8657,
      "breekt": 8658,
      "cel": 8659,
      "clo": 8660,
      "dul": 8661,
      "echo": 8662,
      "ford": 8663,
      "gil": 8664,
      "glin": 8665,
      "gissing": 8666,
      "gissingen": 8667,
      "kwij": 8668,
      "kòn": 8669,
      "mal": 8670,
      "magn": 8671,
      "muis": 8672,
      "mir": 8673,
      "oden": 8674,
      "pur": 8675,
      "ruit": 8676,
      "rog": 8677,
      "raapte": 8678,
      "tin": 8679,
      "titel": 8680,
      "vaten": 8681,
      "vallige": 8682,
      "ïneer": 8683,
      "ens": 8684,
      "anje": 8685,
      "deerde": 8686,
      "deftige": 8687,
      "deensch": 8688,
      "ooch": 8689,
      "elie": 8690,
      "inde": 8691,
      "ingeval": 8692,
      "che": 8693,
      "chel": 8694,
      "chron": 8695,
      "teerd": 8696,
      "gedan": 8697,
      "gekl": 8698,
      "gekost": 8699,
      "gemerkt": 8700,
      "gefluit": 8701,
      "gejuich": 8702,
      "onacht": 8703,
      "onzeker": 8704,
      "onweer": 8705,
      "dengene": 8706,
      "stoor": 8707,
      "stikte": 8708,
      "strepen": 8709,
      "eenpar": 8710,
      "verdel": 8711,
      "verzet": 8712,
      "vermocht": 8713,
      "verkeeren": 8714,
      "verkeerden": 8715,
      "vermakelijk": 8716,
      "verhieven": 8717,
      "verkenning": 8718,
      "dic": 8719,
      "heftig": 8720,
      "heester": 8721,
      "oorten": 8722,
      "ikende": 8723,
      "schaar": 8724,
      "schoppen": 8725,
      "schikt": 8726,
      "bezicht": 8727,
      "beweren": 8728,
      "wam": 8729,
      "way": 8730,
      "reuzen": 8731,
      "opgemaakt": 8732,
      "opmerkte": 8733,
      "opbreng": 8734,
      "opgevat": 8735,
      "opschudding": 8736,
      "omhe": 8737,
      "omed": 8738,
      "omkeerde": 8739,
      "aanspraak": 8740,
      "aanduidde": 8741,
      "aanmerkelijk": 8742,
      "aandrang": 8743,
      "uite": 8744,
      "lederen": 8745,
      "leeg": 8746,
      "weif": 8747,
      "orge": 8748,
      "hamer": 8749,
      "ziels": 8750,
      "voorschriften": 8751,
      "illa": 8752,
      "meteen": 8753,
      "gelang": 8754,
      "geluisterd": 8755,
      "zijzelve": 8756,
      "urken": 8757,
      "rammen": 8758,
      "old": 8759,
      "olven": 8760,
      "toil": 8761,
      "uitstaan": 8762,
      "uitgevonden": 8763,
      "uitstak": 8764,
      "welgevallen": 8765,
      "stede": 8766,
      "vrouwelijk": 8767,
      "nabur": 8768,
      "naspor": 8769,
      "doorstaan": 8770,
      "doorbrengen": 8771,
      "doorgedrongen": 8772,
      "danspart": 8773,
      "lenter": 8774,
      "neigingen": 8775,
      "overzien": 8776,
      "overgeven": 8777,
      "overliet": 8778,
      "overbrengen": 8779,
      "overblijft": 8780,
      "bijlen": 8781,
      "afloopen": 8782,
      "afspraak": 8783,
      "drommel": 8784,
      "volbrengen": 8785,
      "ogers": 8786,
      "ogische": 8787,
      "koming": 8788,
      "ontken": 8789,
      "ontoeg": 8790,
      "ontbraken": 8791,
      "keuren": 8792,
      "its": 8793,
      "moeders": 8794,
      "gevl": 8795,
      "gevrees": 8796,
      "uurwerk": 8797,
      "schepte": 8798,
      "osa": 8799,
      "toegelaten": 8800,
      "list": 8801,
      "otten": 8802,
      "liegen": 8803,
      "oogenschouw": 8804,
      "geheschen": 8805,
      "strol": 8806,
      "strikken": 8807,
      "veelbeteeken": 8808,
      "zeewaarts": 8809,
      "zeegras": 8810,
      "goedvindt": 8811,
      "dagbladen": 8812,
      "gebreken": 8813,
      "gebieden": 8814,
      "beteren": 8815,
      "klachten": 8816,
      "perste": 8817,
      "noopte": 8818,
      "verschooning": 8819,
      "hielen": 8820,
      "medegebragt": 8821,
      "watermassa": 8822,
      "gelukken": 8823,
      "voortgebracht": 8824,
      "binnentraden": 8825,
      "gestuit": 8826,
      "getracht": 8827,
      "koelen": 8828,
      "Welken": 8829,
      "lands": 8830,
      "tusschenbeide": 8831,
      "neergeslagen": 8832,
      "neerslacht": 8833,
      "vorderen": 8834,
      "vorderde": 8835,
      "ligging": 8836,
      "gevoelt": 8837,
      "haalt": 8838,
      "berekend": 8839,
      "raadgevingen": 8840,
      "harder": 8841,
      "heenging": 8842,
      "brengende": 8843,
      "gerechten": 8844,
      "Arab": 8845,
      "weinigje": 8846,
      "beslist": 8847,
      "vertrouwel": 8848,
      "buitenplaats": 8849,
      "luiden": 8850,
      "verbreken": 8851,
      "tiental": 8852,
      "grijze": 8853,
      "gezwollen": 8854,
      "Waartoe": 8855,
      "Waarachtig": 8856,
      "vriendinnen": 8857,
      "Goddank": 8858,
      "vijfen": 8859,
      "natuuronderzoe": 8860,
      "ptrek": 8861,
      "onbepaal": 8862,
      "roeren": 8863,
      "grauwe": 8864,
      "richtten": 8865,
      "musketten": 8866,
      "haai": 8867,
      "bewaakt": 8868,
      "letje": 8869,
      "opgestaan": 8870,
      "opgehangen": 8871,
      "kalmen": 8872,
      "rijkste": 8873,
      "knar": 8874,
      "genezen": 8875,
      "pauze": 8876,
      "paradijs": 8877,
      "slagt": 8878,
      "....?”": 8879,
      "Beide": 8880,
      "menschheid": 8881,
      "menschlie": 8882,
      "sprakeloos": 8883,
      "logen": 8884,
      "stroomingen": 8885,
      "trekt": 8886,
      "trekkende": 8887,
      "gewonde": 8888,
      "jongelui": 8889,
      "edelmoedigheid": 8890,
      "lotgevallen": 8891,
      "smel": 8892,
      "onverstaanbare": 8893,
      "gevoeligheid": 8894,
      "Majoor": 8895,
      "getrouwe": 8896,
      "korter": 8897,
      "schatte": 8898,
      "Hierdoor": 8899,
      "zuchtende": 8900,
      "onmogelijkheid": 8901,
      "kortaf": 8902,
      "zeilde": 8903,
      "residen": 8904,
      "gangers": 8905,
      "Arne": 8906,
      "kleedde": 8907,
      "werkelijke": 8908,
      "roover": 8909,
      "twaalven": 8910,
      "verheugen": 8911,
      "schitteren": 8912,
      "zinnigen": 8913,
      "fabel": 8914,
      "fenis": 8915,
      "donkeren": 8916,
      "gevechten": 8917,
      "duivelsch": 8918,
      "prachtigen": 8919,
      "gedroomd": 8920,
      "ademen": 8921,
      "verhaalt": 8922,
      "huize": 8923,
      "vloeist": 8924,
      "mooier": 8925,
      "negenen": 8926,
      "treinen": 8927,
      "stoelen": 8928,
      "lichaams": 8929,
      "geleerdheid": 8930,
      "vermol": 8931,
      "vreeselijkste": 8932,
      "knappe": 8933,
      "stuurde": 8934,
      "Gauth": 8935,
      "aarzelend": 8936,
      "schuddende": 8937,
      "Europeesche": 8938,
      "gisteravond": 8939,
      "schepselen": 8940,
      "deksel": 8941,
      "tantes": 8942,
      "verwarde": 8943,
      "begeerig": 8944,
      "geesten": 8945,
      "kruisten": 8946,
      "smeeken": 8947,
      "ontsnapt": 8948,
      "Ooster": 8949,
      "poosje": 8950,
      "beschuldiging": 8951,
      "beleedigen": 8952,
      "150": 8953,
      "noordwesten": 8954,
      "omringden": 8955,
      "Chant": 8956,
      "stuiptrek": 8957,
      "berekeningen": 8958,
      "verdiensten": 8959,
      "beschrijving": 8960,
      "vermeerdering": 8961,
      "phy": 8962,
      "vereeniging": 8963,
      "waggons": 8964,
      "flauwen": 8965,
      "westkust": 8966,
      "westwaarts": 8967,
      "buizen": 8968,
      "gloeiend": 8969,
      "16den": 8970,
      "uitbarstingen": 8971,
      "spottenden": 8972,
      "veroorlooft": 8973,
      "boorde": 8974,
      "verscheurende": 8975,
      "spoedde": 8976,
      "linkerzijde": 8977,
      "bewonderenswaardig": 8978,
      "Hunne": 8979,
      "doordringende": 8980,
      "getuigenis": 8981,
      "olifanten": 8982,
      "vervoering": 8983,
      "DER": 8984,
      "onderscheiding": 8985,
      "verzamelde": 8986,
      "schilderachtige": 8987,
      "Scart": 8988,
      "bilj": 8989,
      "zoete": 8990,
      "ondersteund": 8991,
      "droppel": 8992,
      "verdooving": 8993,
      "historie": 8994,
      "hoedanigheden": 8995,
      "mislukken": 8996,
      "volharding": 8997,
      "visscherij": 8998,
      "bezielde": 8999,
      "schildpadden": 9000,
      "jaloer": 9001,
      "cijfers": 9002,
      "onheilsp": 9003,
      "gramschap": 9004,
      "gulden": 9005,
      "vernuft": 9006,
      "opgelost": 9007,
      "grendels": 9008,
      "Great": 9009,
      "Magna": 9010,
      "geplaagd": 9011,
      "vergenoegde": 9012,
      "bevredigen": 9013,
      "Koningstraat": 9014,
      "ondoordringbare": 9015,
      "Singap": 9016,
      "amerikaansche": 9017,
      "gekleurd": 9018,
      "horizon": 9019,
      "intrigues": 9020,
      "schutting": 9021,
      "zondagsschool": 9022,
      "misdadigers": 9023,
      "Europeanen": 9024,
      "bureel": 9025,
      "gestapeld": 9026,
      "Griek": 9027,
      "papegaai": 9028,
      "Buitendien": 9029,
      "Twintig": 9030,
      "notitie": 9031,
      "directeur": 9032,
      "Davy": 9033,
      "zegepraal": 9034,
      "keizer": 9035,
      "Andaman": 9036,
      "propos": 9037,
      "duidden": 9038,
      "wederzijdsche": 9039,
      "plotselinge": 9040,
      "positie": 9041,
      "tallooze": 9042,
      "Stapi": 9043,
      "Gewoonlijk": 9044,
      "Schepper": 9045,
      "verzwolgen": 9046,
      "Hudson": 9047,
      "clown": 9048,
      "glinster": 9049,
      "eenparig": 9050,
      "ontoegan": 9051,
      "neerslachtigheid": 9052,
      "Gauthier": 9053,
      "!...": 9054,
      "29": 9055,
      ";\"": 9056,
      "Ab": 9057,
      "Aden": 9058,
[...]
